, 86846
。 29594
的 9507
▁ 6113
我 5743
了 5506
" 5128
! 4938
着 3860
在 3698
? 3289
是 2978
我们 2844
地 2662
一 2491
那 2216
、 2213
你 2184
不 2102
: 2057
小 2050
▁" 2039
▁我 1883
; 1873
像 1838
:" 1836
有 1796
又 1710
中 1705
就 1639
上 1609
和 1587
他 1568
人 1547
里 1437
去 1424
也 1410
时 1409
花 1368
都 1341
而 1340
好 1299
我的 1281
它 1273
来 1270
说 1269
得 1244
老师 1227
这 1213
下 1212
她 1211
呢 1210
大 1207
天 1172
同学 1157
兔子 1134
心 1128
到 1128
子 1124
风 1099
比赛 1098
如 1094
把 1092
可 1089
却 1084
想 1081
一个 1055
跑 1052
过 1040
一样 1038
红 1016
自己 1014
起 1013
啊 1007
与 1001
班 999
跳 966
看 944
. 930
声 925
没有 916
雨 913
要 908
运动会 904
被 878
从 866
眼 863
到了 863
飞 850
会 843
的人 842
水 832
用 829
吧 822
吗 818
乌龟 818
后 790
山 787
无 785
出 770
头 766
白 762
笑 755
还 754
的小 734
长 734
但 733
网 731
生 729
很 724
就是 723
们 721
爱 713
三 696
专 693
稿 679
手 677
▁在 668
允许 666
还有 665
向 664
让我 659
对 656
妈妈 655
作文 650
光 649
气 643
为 641
那么 638
真 637
不得转载 636
他们 633
未经 633
之 631
比 629
儿 614
开始了 611
树 610
的时候 603
个 599
开 599
有的 593
河 591
还是 588
发 587
加油 587
▁我们 586
能 584
多 583
再 578
...... 573
学 573
打 571
走 571
因为 570
最 567
自己的 566
边 566
雪 564
飘 563
只 560
高 560
美 557
让 556
落 553
队 547
成 545
便 544
快 538
身 536
了一 535
生活 531
自 530
开始 529
做 524
春 523
学习 520
不是 520
明 518
起来 516
才 512
云 512
就像 512
草 508
清 507
啦 505
路 505
," 504
龟 500
没 499
道 495
二 494
的是 491
▁一 485
间 484
可以 483
家 480
这个 472
远 466
你的 465
呀 464
梦 464
脸 464
绿 462
青 462
月 461
只有 461
正 461
老 457
当 455
努力 454
同学们 453
死 453
我们的 453
一起 452
▁他 449
更 444
学校 444
流 444
终点 441
舞 441
黑 441
秋 440
上的 438
初 436
他的 435
中的 433
神 432
海 429
给 428
已经 425
黄 424
吃 422
以 420
于 418
听 418
丝 418
拉 417
的一 414
放 411
然 411
你们 411
将 409
香 408
似 408
点 408
阳光 407
年 406
前 405
叶 405
终于 402
▁小 402
叫 402
眼睛 400
玩 400
好像 399
绳 397
", 397
日 397
出了 397
动 396
满 394
都是 391
往 387
鸟 385
人的 384
冲 383
爸爸 382
别 382
火 376
般 375
米 375
中学 373
▁今天 372
▁那 371
仿佛 370
话 369
▁她 368
分 368
看着 367
转 367
美丽的 367
看见 367
书 367
可是 366
什么 365
里的 364
这样 363
张 363
梦想 363
▁这 361
直 360
大家 358
情 358
事 358
片 356
见 356
校园 353
的大 353
口 353
吹 352
来了 351
球 350
金 350
色 350
力 346
使 345
她的 345
希望 344
写 343
面 343
意 342
回 341
心里 340
嘴 340
不能 340
拔 339
两 338
美丽 337
进 335
一片 335
是一 334
上了 334
看到 334
生命 334
等 334
蓝 333
开心 332
您 331
已 329
寒 329
谁 329
最后 328
鱼 326
所以 326
门 326
但是 324
爬 324
离 324
几 321
脚 321
天空 321
望 320
突然 319
影 319
只是 318
。" 317
太 316
世界 316
快乐 315
那个 315
它们 312
响 312
让人 311
夜 311
班的 310
也是 309
它的 309
沙 308
时间 305
空 305
十分 304
一般 303
虽然 301
带 300
双 300
朋友 300
兔 300
画 299
太阳 299
连 299
石 299
跑步 298
湖 296
名 296
脸上 295
— 295
亮 294
也不 294
"。 294
相 293
一次 293
小学 293
母亲 292
了起来 292
现在 292
总 292
起了 292
刘 290
怎么 290
是一个 290
一声 289
人生 289
干 288
衣 286
经 286
总是 285
住 285
难 284
四 284
让我们 283
我不 282
▁初 282
背 282
一只 281
若 280
下来 280
完 279
马 279
知 277
似的 277
知道 276
微笑 276
有些 275
目 275
静 274
一直 274
绳子 273
枝 272
欢 272
人们 272
刚 272
五 271
那些 271
轻 271
苦 270
拨 270
者 269
幸福 269
同 268
朵 267
我想 266
▁你 266
第一 266
为了 266
深 265
先 264
方 264
倒 263
来到了 263
凉 263
冷 262
带着 262
来到 262
千 262
向前 262
泪 262
一下 261
林 261
我就 261
步 261
笔 260
给我 260
乐 260
心中 260
游 259
成功 259
喜欢 258
了一个 258
成长 258
孩子 258
语 256
彩 256
似乎 256
半 256
灵 255
别人 254
问 254
文 253
不会 252
许多 252
六 251
字 250
入 250
初中 250
站在 249
行 249
细 249
年的 248
过去 248
非常 248
坚持 247
暖 247
久 246
外 245
紧 244
滴 243
课 243
这么 243
怕 243
一会儿 243
有一 243
今天 243
这些 242
王 242
操场上 242
淡 241
玉 240
一点 240
是我 239
胜利 239
所 239
洒 238
万 238
更加 238
坐在 237
正在 236
作 236
珠 234
腿 234
全 234
一个人 233
永远 231
过了 231
立 230
喊 230
校 229
运动 229
活 228
国 228
窗 227
通 227
《 227
灯 227
毛 226
温暖 226
望着 226
我要 226
新 226
这是 226
着一 225
映 225
运动员 225
汗 224
拿 224
开了 223
一条 223
一阵 223
岁 223
然后 222
不知 222
师 222
平 222
感 221
世 221
车 221
记 220
一位 220
时光 220
觉得 218
... 218
姑娘 218
那样 218
双手 218
才能 217
有了 217
尽 217
粉 217
为什么 217
大地 216
) 216
▁可 215
的声音 215
真的 215
走了 215
龙 215
读 215
这次 214
准备 214
刻 213
哪 213
面对 213
伟 213
重 213
放弃 212
热 212
▁我的 212
发现 211
掉 211
夏 211
精神 211
一切 211
乱 211
一种 210
时的 210
身体 210
的地方 210
困难 210
诗 210
何 210
了我 210
的人生 209
闪 209
回忆 208
本 208
由 208
出来 208
都在 208
( 208
头发 207
下的 207
星 207
条 207
只要 207
露 207
身上 207
越 207
慢 206
其 206
就会 206
烟 206
十 206
线 206
在我 205
教室 205
新的 205
春天 205
根 205
这时 205
数 205
暗 204
度 204
满了 204
有着 204
翻 203
成了 203
▁而 203
八 202
我也 202
爷爷 202
牙 202
美好的 201
只见 201
园 201
冰 201
透 201
女 201
安 201
李 200
地上 200
古 200
紧张 200
卷 199
伤 198
大的 198
早 198
渐渐 198
角 198
曾经 198
▁但 198
不要 197
弯 197
许 197
咬 197
一定 196
赢 196
句 196
原来 196
我在 196
朝 196
扬 195
之后 195
如此 195
挺 195
变 195
沉 194
教 194
么 193
微 193
父亲 193
成绩 193
》 192
一定要 192
青春 192
血 192
笑容 192
眉 192
我是 192
痛 191
言 191
还在 191
真是 190
声音 190
柳 189
来的 189
成为 189
于是 189
秋天 189
争 189
而是 188
学生 188
不过 188
下了 187
中国 187
▁比赛 187
队员 187
好的 187
就要 187
请 187
的心 187
懂 187
过来 187
以后 187
动物 187
第一名 186
的事 186
指 186
因 186
也许 185
叶子 185
圆 185
楼 185
少 185
阳 185
讲 185
一些 185
慢慢 185
扑 185
风吹 185
的手 185
去了 185
东 184
歌 184
难道 184
般的 184
或 184
照 184
思 183
精彩 183
嫩 183
我和 183
题 183
下去 182
▁这时 182
浅 182
跟 182
公 181
曾 180
如果 180
枪 180
一张 180
操场 179
随着 179
哭 179
这一 179
晴 179
一天 179
耳 179
拥有 178
该 178
考 178
破 178
感觉 178
样 177
次 177
柔 177
失 177
身边 177
翅膀 177
力气 177
路上 177
猫 176
▁因为 176
睡 176
高兴 175
奔 175
化 174
天的 174
▁老师 173
▁它 173
箭 172
桥 172
东西 172
的话 172
我会 172
腰 172
灰 172
显得 172
旁 171
如同 171
木 171
此 171
一边 171
关 170
九 170
唱 170
就在 170
欢呼 170
期待 170
一度的 170
领 170
百 170
排 169
是一种 169
是我们 169
奶奶 169
种 169
▁不 169
送 168
台 168
西 168
美的 168
场 168
只能 167
变得 167
一个个 167
子的 167
急 166
虎 166
充满 166
知识 166
不再 165
▁有 165
可爱 165
每 164
得了 164
依然 164
3 164
艳 164
皮 164
n 164
▁可是 163
读书 163
▁最后 163
刺 163
溪 163
是在 163
继续 163
蝴蝶 163
在这 162
欲 162
强 162
物 162
进了 162
这种 162
极了 161
空中 161
赢了 161
但我 161
碧 161
忘 161
号 160
▁妈妈 160
回家 159
胜 159
散 159
漫 159
尖 159
紫 159
留 159
追 159
终 158
迷 158
服 158
色的 158
的脸 158
华 157
看看 157
父母 157
参加 157
住了 157
处 157
浪 157
劲 157
令 157
选手 157
包 156
弱 156
不知道 156
雾 156
松 156
竹 155
群 155
骨 155
逆境 155
着我 155
不得 155
依 155
听到 155
一看 154
面前 154
记忆 154
全身 154
的花 154
颗 154
作业 153
这里 153
爱的 153
目光 153
站 153
曲 152
明白 152
不了 152
一场 152
景 152
▁当 152
多么 151
滑 151
在一起 151
音 151
星星 151
要么 151
摇 150
班级 150
后面 150
结 150
银 150
赛 150
的生活 150
在了 150
年级 150
待 150
接 150
棒 149
妈 149
接力 149
犹如 149
有一个 149
这样的 148
七 148
求 148
冬 148
坚强 148
心的 148
用力 148
姐姐 147
感到 147
▁于是 147
友谊 147
念 147
圈 147
忽然 146
鼓 146
蹦 146
壮 146
棵 146
旁边 146
鸣 146
地说 146
离开 146
▁从 145
牛 145
绝 145
热闹 145
瘦 145
几个 145
美好 145
轻轻 144
▁只见 144
人类 144
划 144
定 144
生命的 143
城 143
首 143
阵 143
近 143
碎 143
足 143
恋 143
含 143
任 143
交 143
惊 143
闹 143
长的 143
的光 142
发出 142
感动 142
对方 142
应该 142
依旧 142
找 142
装 142
必 141
红的 141
不可 141
其实 141
令人 141
拍 141
油 140
波 140
i 140
传 140
土 140
则 140
他们的 140
坐 140
甜 140
己 140
每天 140
的天 140
穿着 139
变成 139
兴奋 139
激动 139
节 139
那里 139
一双 139
呆 139
白的 139
有人 139
为我 139
奇 139
都会 138
把我 138
好好 138
出去 138
抹 138
结束了 138
追求 138
苍 138
整个 137
树叶 137
很多 137
仙 137
嘴角 137
不断 137
钢琴 137
输 137
记得 137
并 137
▁虽然 137
看到了 136
的水 136
野 136
早已 136
风景 136
怀 136
军 135
心情 135
的好 135
校长 135
染 135
是个 135
红了 135
也会 135
非 135
单 135
竟 135
微微 134
乌 134
错 134
狼 134
而且 134
亭 134
一把 134
娇 134
举行 134
两个 133
差 133
失败 133
理想 133
南 133
使劲 133
我的心 133
à 133
等待 133
薄 133
合 132
感受 132
酒 132
经过 132
▁天 132
瞬间 132
团 132
未 132
喝 132
江 131
荷花 131
花朵 131
荡 131
禁 130
愁 130
也有 130
赶紧 130
一颗 130
幽 129
怒 129
体 129
收 129
不停 129
都有 129
喜 129
在我的 129
想着 129
少年 129
赛跑 128
们的 128
力量 128
姿 128
现 128
忍 128
甘 128
尘 128
练 128
1 128
命 128
无法 128
有点 127
好了 127
战 127
布 127
身子 127
顶 127
结果 127
抱 127
弦 127
迎 127
或许 126
眼前 126
不到 126
枯 126
茶 126
内 126
加 126
跑到 126
累 126
多少 126
顿时 126
未来 126
勇敢 126
之间 126
奋斗 125
闻 125
利 125
衣服 125
丽 125
隐 125
▁是 125
各 125
一丝 125
觉 125
夏天 125
我们要 125
命运 125
船 125
形 125
▁但是 124
回来 124
孤 124
层 124
座 124
想到 124
躲 124
钱 124
后的 124
考试 124
归 123
鼻 123
了一下 123
帮助 123
肉 123
落在 123
完了 123
臂 123
u 123
最终 123
伸 123
里面 122
学会 122
挫折 122
墨 122
杨 122
周 122
说话 122
今 122
珍惜 122
裁判 122
低 122
停 122
其中 121
习 121
桌 121
更是 121
之中 121
擦 121
让你 121
些 121
一下子 121
残 121
饭 121
位 121
反 121
摆 120
眸 120
嘴巴 120
一样的 120
每一 120
晚 120
上一 120
们都 120
信 120
观众 120
愿 119
买 119
操 119
麻 119
需要 119
常 119
所有 119
穿 119
害怕 119
眼神 118
鼻子 118
听见 118
▁大 118
傲 118
象 118
兴 118
给我们 118
冬天 118
家乡 117
洞 117
乎 117
生活的 117
阴 117
表 117
亲 117
吸 117
自由 117
父 117
越来越 117
狂 117
病 117
田 117
那是 117
进入 117
轮 117
天气 116
上次 116
宝 116
小小的 116
以为 116
视 116
特别 116
自然 116
出一 116
过去了 116
想起 115
活着 115
边的 115
▁看 115
有时 115
粗 115
武 115
踢 115
霞 115
的那 115
选择 114
三年 114
队的 114
而又 114
还没 114
帮 114
踏 114
苏 114
走到 114
级 114
眼泪 114
余 114
左 114
和我 114
志 114
马上 114
绵 113
第二 113
▁我想 113
零 113
拿着 113
翠 113
哦 113
失去 113
善 113
纸 113
走向 113
陪 113
公园 113
大声 113
也没有 113
学的 112
炯 112
忙 112
社会 112
一年 112
压 112
点点 112
淡淡的 112
垂 112
刀 112
磨 112
上面 112
前面 112
溜 112
至 111
力的 111
主 111
风雨 111
齐 111
感恩 111
像是 111
员 111
了出去 111
骄傲 111
秀 111
摸 111
灿 110
▁中 110
悲 110
▁一个 110
▁雨 110
充满了 110
雅 110
项目 110
空气 110
体育 110
独 109
正是 109
虽 109
给你 109
样子 109
相信 109
屋 109
这就是 109
笑着 109
一年一度的 109
下午 109
两只 109
果 109
理 109
醉 108
走进 108
拂 108
▁他们 108
的精神 108
报 108
脚步 108
的运动 108
算 108
皱 108
受 108
托 108
快的 107
不好 107
—— 107
洗 107
便是 107
并不 107
也要 107
平静 107
▁现在 107
都不 107
每一个 107
傻 107
雄 107
花瓣 107
的天空 107
狗 107
花儿 106
笑了 106
▁这次 106
又有 106
表情 106
恨 106
蛋 106
斗 106
原 106
汗水 106
是因为 106
使我 106
怪 106
道理 105
哗 105
两条 105
软 105
梁 105
很快 105
门口 105
的一切 105
湿 105
▁春 105
迈 105
换 105
上课 105
▁到了 104
面上 104
会有 104
我又 104
飞翔 104
故事 104
的样子 104
童年 104
味 104
经历 104
▁风 104
鬼 104
变成了 104
疼 104
桃花 104
放在 104
举 103
难忘 103
性 103
夕阳 103
的眼睛 103
▁终于 103
下一 103
心灵 103
留下 103
鸡 103
池 103
甚至 103
也在 103
过的 103
的东西 103
铃 103
右 102
义 102
祖国 102
泪水 102
改 102
折 102
假 102
抓 102
地的 102
英 102
铁 102
琴 102
奋 102
浓 102
衬 102
时而 102
墙 102
妹妹 102
插 102
魔 101
明天 101
跑了 101
得到 101
平凡 101
抖 101
▁一年 101
容 101
宇 101
▁也许 101
▁再 101
教室里 101
弄 101
小的 101
绿的 101
采 101
天下 101
然而 100
2 100
认真 100
团结 100
泛 100
属于 100
奔跑 100
的一声 100
时候 100
脑袋 100
的爱 100
森林 100
不停地 100
她们 100
纷纷 100
吞 100
白云 99
醒 99
朗 99
头上 99
缓缓 99
舍 99
应 99
就这样 99
生活中 99
菜 99
极 99
有什么 99
洁 99
坚 99
胖 99
阿 99
当我 99
实 98
老师的 98
鼓励 98
心中的 98
缕 98
不舍 98
回到 98
露出 98
官 98
客 98
酸 97
围 97
却是 97
滚 97
涌 97
浮 97
响起 97
北 97
为我们 97
提 97
以及 97
地方 97
外的 97
呼 97
打开 97
羽 97
拼命 97
人心 97
好朋友 96
秒 96
是不 96
底 96
望去 96
谈 96
仰 96
外婆 96
女孩 96
披 96
小鸟 96
母 96
在那 96
有的人 96
你是 96
息 96
莲 96
前进 95
精 95
男生 95
慢慢地 95
漂亮 95
清澈 95
上去 95
给予 95
窗外 95
一块 95
一份 95
盖 95
顾 95
孩 94
忘记 94
每次 94
凌 94
抬头 94
孙 94
喊着 94
堂 94
传来 94
ng 94
靠 94
友 94
试 94
异 94
弹 94
动着 94
都很 93
摔 93
日子 93
一定会 93
剑 93
h 93
输了 93
享受 93
跳高 93
一会 93
只好 93
的眼神 93
并没有 93
巾 93
唇 93
赶 93
坏 93
第 93
日的 93
所有的 93
拉拉 93
即使 93
舒 93
的不 92
了几 92
盯着 92
场上 92
铺 92
都要 92
一件 92
泥 92
达 92
切 92
脱 92
内心 92
电 92
岸 92
亦 91
黄的 91
挥 91
姐 91
环境 91
堆 91
了下来 91
音乐 91
旗 91
地球 91
▁人 91
断 91
梅 91
燕 91
个人 91
绽放 91
速度 91
遇到 91
药 91
▁所以 91
▁春天 90
刚刚 90
比赛的 90
有很多 90
奶 90
解 90
人生的 90
您的 90
默默 90
随 90
拼 90
中间 90
翩翩 90
兰 90
向后 90
勇 90
晨 90
害 90
簇 90
纱 90
家里 90
挂 90
竟然 90
莫 89
短 89
白色的 89
教育 89
修 89
互相 89
出的 89
怎 89
▁六 89
叹 89
水的 89
那种 89
扔 89
对于 89
微风 89
活动 89
睡觉 89
温 89
改变 89
失去了 89
末 89
第一个 89
即将 88
谢 88
我很 88
伤心 88
孤独 88
一道 88
对手 88
4 88
帘 88
境 88
印 88
哨 88
朵朵 88
哥哥 88
色彩 88
生的 88
生气 88
忽 88
很好 88
勇气 88
尔 88
的风 88
紧紧 88
整齐 88
周围 88
晚上 88
呼吸 87
颜色 87
推 87
事情 87
遍 87
带来 87
多了 87
是最 87
走过 87
忧 87
第一次 87
词 87
瓜 87
收获 87
掌 87
悠 87
伯 86
不敢 86
▁花 86
大海 86
万物 86
取 86
的事情 86
伞 86
还会 86
花的 86
温柔 86
人间 86
了吗 86
立刻 86
家的 86
的高 86
颜 86
展 86
的老 86
往后 86
进行 85
士 85
撒 85
一滴 85
无数 85
来说 85
见到 85
斜 85
的双 85
不禁 85
投 85
伙伴 85
▁乌 85
就可以 85
探 85
方的 85
有一天 85
抽 85
裙 85
鸟儿 85
我还 85
纯洁 85
▁如果 84
向我 84
回头 84
初一 84
黑暗 84
瞪 84
绿色的 84
观 84
的时间 84
白色 84
晃 84
总会 84
落叶 84
那一 84
直到 84
端 84
约 84
清香 84
树上 84
一座 84
爸爸妈妈 84
想象 84
羊 84
芽 84
童 84
大家都 84
豪 84
是什么 84
叮 84
不住 84
敢 83
代 83
欣赏 83
夺 83
着的 83
倾 83
峰 83
当然 83
猛 83
我们在 83
既 83
抢 83
彩虹 83
此时 83
喜悦 83
徐 83
鹰 83
是不是 83
养 83
可能 83
女生 83
岁月 83
远处 83
爽 83
特 82
向上 82
试卷 82
长长的 82
时刻 82
弟弟 82
逝 82
再次 82
历史 82
快地 82
丛 82
敬 82
▁其实 82
升 82
法 82
我知道 82
败 82
还要 82
双眼 82
不同 82
这边 82
动的 82
勒 82
永 82
子上 82
人在 82
其他 82
并不是 82
不想 82
在这里 82
长城 82
间的 82
鲜花 82
▁突然 81
感谢 81
说的 81
拽 81
的孩子 81
绿色 81
消 81
钻 81
你好 81
扇 81
显 81
芳 81
霜 81
肯定 81
了许多 81
会在 81
而不 81
室 81
幻想 81
月亮 81
了出来 81
的一个 81
▁时间 81
貌 81
认为 81
机 81
说过 81
少女 81
一个小 81
长大 81
你会 81
月的 81
哈哈 80
部 80
蓝天 80
守 80
无比 80
玩耍 80
黄色的 80
语文 80
作为 80
决定 80
当时 80
接着 80
名的 80
痛苦 80
对我 80
虚 80
整 80
是谁 79
懂得 79
全班 79
石头 79
了我们 79
种子 79
宽 79
身影 79
我才 79
上来 79
怎样 79
以前 79
盛 79
悄悄 79
祥 79
烈 79
的感觉 79
走在 79
吓 79
博 79
滋润 79
而我 79
在一 78
了我的 78
老人 78
工作 78
每个 78
复 78
月光 78
藏 78
甩 78
令我 78
杯 78
红色的 78
西湖 78
让自己 78
想要 78
队员们 78
泉 78
抱着 78
露出了 78
那时 78
晓 78
阵阵 78
顺 78
听着 78
▁高 78
子和 78
了他 78
素 78
5 77
凡 77
舞蹈 77
向往 77
晶莹 77
巨 77
不管 77
尝 77
桃 77
告诉 77
刷 77
▁没有 77
回答 77
树下 77
株 77
▁此时 77
冠军 77
一眼 77
运 77
斑 77
锅 77
弟 77
太多 77
厚 77
善良 76
休息 76
扎 76
组 76
仔细 76
游泳 76
▁有的 76
射 76
汉 76
才会 76
房 76
自信 76
光明 76
伟大 76
呐喊 76
市 76
易 76
各种 76
的比赛 76
笑声 76
窝 76
致 76
撑 76
答 76
荷 76
气的 76
管 76
远远 76
得像 76
激 76
树木 76
杀 75
的世界 75
期 75
落下 75
陈 75
浩 75
后悔 75
欢乐 75
悦 75
在大 75
吐 75
之前 75
那天 75
保护 75
的目光 75
看了 75
扭 75
威 75
方向 75
鲜 75
是那么 75
哇 74
轩 74
x 74
别人的 74
后来 74
区 74
成功的 74
告诉我 74
腾 74
懒 74
使人 74
哀 74
丽的 74
给了 74
▁这是 74
挤 74
拼搏 74
眨 74
君 74
楚 74
爸 74
胡 74
▁爸爸 73
不在 73
罗 73
就能 73
移 73
段 73
弃 73
悲伤 73
环 73
勾 73
回去 73
下面 73
慢慢的 73
数学 73
击 73
苗 73
男 73
轻轻地 73
股 73
雷 73
梅花 73
皱纹 73
乡 73
出现 73
牵 73
游戏 73
幕 73
撞 73
历 73
的长 73
板 73
恶 73
伟大的 73
式 73
寻 73
不如 72
风中 72
镜 72
安慰 72
▁三 72
壳 72
看起来 72
熟悉 72
▁不过 72
一名 72
无声 72
妖 72
渴望 72
良 72
到底 72
万里 72
过后 72
豆 72
惨 72
鞋 72
了一场 72
趣 72
寂寞 72
▁大家 72
了吧 72
景色 72
兵 72
又是 72
封 72
照亮 72
跟着 72
纯 72
▁年 72
伴 71
瀑布 71
匆匆 71
温暖的 71
都能 71
海洋 71
▁这个 71
进去 71
硬 71
一笑 71
粒 71
随风 71
习惯 71
我们都 71
动作 71
嘴里 71
台上 71
文明 71
奉献 71
戴 71
苞 71
糖 71
吟 71
民族 71
学校的 71
离开了 71
黑的 71
负 71
一步 71
一句 71
安静 71
六年 70
几乎 70
获得了 70
你不 70
润 70
在空中 70
原本 70
功 70
成熟 70
旧 70
子里 70
教训 70
向我们 70
山顶 70
的美 70
静静 70
结束 70
幼 70
抚 70
对我说 70
缩 70
春天的 70
为你 70
脖子 70
辣 70
挑战 70
男孩 70
认识 70
告别 70
有趣 70
季节 70
绕 70
无论 70
雪花 70
闪烁 70
闲 70
前的 69
踩 69
眼中 69
及 69
一生 69
激烈 69
困 69
愣 69
分钟 69
密 69
存在 69
付出 69
巴 69
扫 69
翔 69
他在 69
态 69
独自 69
胸 69
亮的 69
不仅 69
j 69
▁还有 69
重新 69
▁又 69
树的 69
思念 69
天地 69
最后一 69
到处 69
▁后来 69
红色 69
的红 69
串 69
蚂蚁 69
福 69
因为我 69
练习 68
好似 68
块 68
即 68
让他 68
憋 68
经常 68
鹿 68
贵 68
灿烂 68
真正的 68
妙 68
身后 68
脑 68
通过 68
认 68
一群 68
像一个 68
出来了 68
掉了 68
烂 68
真正 68
理解 67
的同学 67
感情 67
我对 67
等等 67
劳 67
宽容 67
叠 67
盘 67
往前 67
绽 67
我说 67
调皮 67
掌声 67
y 67
▁他的 67
流水 67
着我的 67
还能 67
握 67
迎接 67
嬉戏 67
慈 67
远方 67
耀眼 67
树枝 67
耳边 67
昂 67
信心 67
起来了 67
触 67
没想到 67
不同的 67
我心里 67
天天 67
免 67
彤 67
你在 67
大大的 67
都没有 67
而来 66
它是 66
等着 66
跑得 66
静静地 66
开的 66
把它 66
孔 66
打着 66
▁原来 66
放下 66
宁静 66
多的 66
问题 66
一股 66
寻找 66
示 66
丢 66
的路 66
也没 66
消失 66
再见 66
可爱的 66
爱情 66
个个 66
皮肤 66
们在 66
睁 66
由于 65
欣 65
现实 65
程 65
▁老 65
找到 65
走出 65
沥 65
抓住 65
说道 65
大了 65
下次 65
繁 65
干净 65
畅 65
且 65
他那 65
的海 65
克服 65
棉 65
的说 65
仍 65
横 65
首先 65
有一种 65
有多 65
夫 65
救 65
按 65
抬 65
蜜 65
颤 65
魂 65
还没有 65
▁只 65
故 65
了个 64
的歌 64
寂 64
格外 64
双脚 64
尺 64
地看着 64
桑 64
退 64
吼 64
▁不知 64
缝 64
支 64
识 64
美妙 64
完全 64
姥 64
坚持不懈 64
透过 64
脸色 64
鹅 64
关心 64
束 64
袭 64
ā 64
上有 64
▁太阳 64
什么时候 64
都被 64
训 64
做的 64
是否 64
出来的 64
愧 63
他是 63
朦胧 63
拿起 63
副 63
▁这就是 63
没有了 63
品 63
全部 63
▁然而 63
金色的 63
▁在这 63
戏 63
100 63
响了 63
转身 63
田野 63
始终 63
无奈 63
哼 63
和小 63
蝶 63
会的 63
烧 63
在地上 63
碰 63
同时 63
最好的 63
床 63
捉 63
途 63
双臂 63
吵 63
精灵 63
一根 63
雨水 63
花开 63
如何 62
了解 62
瓣 62
大喊 62
我便 62
吃饭 62
工 62
人都 62
难以 62
手中的 62
吃了 62
能够 62
10 62
母亲的 62
笑脸 62
sh 62
大树 62
势 62
眉头 62
瞧 62
我已经 62
食 62
轻轻的 62
件 62
招 62
很大 62
脆 62
元 62
一大 62
卖 61
一头 61
吴 61
▁说 61
熟 61
德 61
光芒 61
角落 61
▁最 61
超 61
辉煌 61
生机 61
并且 61
躯 61
也不会 61
我把 61
旁的 61
责任 61
闷 61
大自然 61
悠悠 61
得很 61
拉着 61
级的 61
我一 61
道上 61
夹 61
婆 61
啪 61
▁就在 61
的山 61
陪伴 61
矮 61
篇 61
不动 61
主人 61
格 61
的一天 61
▁夏 61
▁看着 61
儿子 60
是我的 60
凝 60
往往 60
健 60
都没 60
如今 60
书包 60
简单 60
佳 60
像个 60
长得 60
注 60
章 60
母爱 60
调 60
怨 60
忧伤 60
宣布 60
轻松 60
舟 60
江南 60
彼此 60
唐 60
人物 60
是一片 60
热爱 60
看见了 60
茫茫 60
泥土 60
秋天的 60
地在 60
与我 60
拥 60
季 60
尾巴 60
滴滴 60
▁人生 60
那边 59
房间 59
歌唱 59
▁随着 59
▁好 59
常常 59
窗户 59
脚下 59
教师 59
遇 59
蓝色的 59
逃 59
信念 59
是有 59
毕业 59
嘛 59
婉 59
那样的 59
做好 59
朱 59
眯 59
的在 59
村 59
也很 59
默 59
午 59
班主任 59
卡 59
失望 59
挑 59
值得 59
针 59
我喜欢 59
在你 59
系 59
▁白 59
▁五 59
▁一天 59
小孩 59
▁当我 59
虫 59
好多 59
皇 59
先生 59
世间 59
淋 58
缘 58
接受 58
压力 58
的气息 58
准 58
春风 58
醒了 58
巧 58
用手 58
他人 58
论 58
说了 58
的心情 58
闭 58
手上 58
▁刘 58
砸 58
大笑 58
哥 58
完美 58
巨大的 58
冒 58
忘了 58
名字 58
添 58
▁无 58
彼 58
走去 58
为自己 58
幅 58
的中 58
死了 58
我还是 58
眉毛 58
街 58
俊 58
不上 58
到来 58
塞 58
和你 57
的光芒 57
忍不住 57
细细 57
文章 57
嘻 57
天使 57
有许多 57
那就是 57
他说 57
相处 57
额 57
z 57
幸福的 57
晕 57
去看 57
高的 57
幻 57
岁的 57
紧紧地 57
双方 57
还不 57
我们就 57
桂 57
局 57
凋 57
我将 57
怡 57
上下 57
满脸 57
不由 57
瑟 57
国家 57
去的 57
肩 57
▁就 57
问我 57
放松 57
寒冷 57
纤 57
不见 57
持 57
砰 57
尾 57
咧 57
界 57
荷叶 57
偏 57
那儿 57
脸上的 57
的新 57
目标 57
选 56
一幅 56
▁我喜欢 56
落的 56
智慧 56
高高的 56
开心的 56
哭了 56
小时候 56
揉 56
壁 56
上学 56
慕 56
四周 56
径 56
水中 56
早上 56
▁雪 56
盼 56
只会 56
成为了 56
听到了 56
图 56
父亲的 56
的雪 56
大门 56
怀念 56
的眼 56
对着 56
▁只有 56
跑去 56
深深 56
身上的 56
烦恼 56
灭 56
无限 56
香味 56
奏 56
苹果 56
怎能 56
鲁 56
课堂 56
清凉 56
脸颊 56
执着 56
凭 56
情的 56
险 56
代表 56
菊 55
快乐的 55
五彩 55
烦 55
却又 55
给了我 55
别的 55
道路 55
▁每 55
明亮 55
我一定要 55
造 55
性格 55
无情 55
哭泣 55
梢 55
▁她的 55
走来 55
羡慕 55
完成 55
在一个 55
一直在 55
纷 55
欣喜 55
写的 55
融 55
项 55
除了 55
锦 55
诉 55
成长的 55
是他 55
热情 55
简 55
跳舞 55
共同 55
坚定 55
竖 55
能力 55
的味道 55
谷 54
割 54
跃 54
潮 54
喜爱 54
筋 54
神秘 54
也就 54
席 54
漫步 54
乘 54
拳 54
不起 54
原来是 54
是对 54
起的 54
毫不 54
每个人 54
也能 54
跳着 54
带来了 54
旋律 54
黑色的 54
世界上 54
在这个 54
你要 54
背后 54
最大的 54
的书 54
电脑 54
躺在 54
你说 54
剪 54
架 54
梨 54
羞 54
钟 54
g 54
思考 54
说着 54
这本书 54
手指 54
行动 54
了过来 54
耳朵 54
暑假 54
▁接着 54
岛 54
夜晚 54
获得 54
共 54
凯 53
蹬 53
厉害 53
人们的 53
镜子 53
一路 53
助威 53
场的 53
恩 53
就不 53
俩 53
机会 53
寂静 53
史 53
吸引 53
载 53
不怕 53
蓬 53
锋 53
眼里 53
有个 53
不像 53
助 53
玫瑰 53
外面 53
哪里 53
备 53
如果你 53
浑 53
黑色 53
进步 53
b 53
语言 53
我没有 53
蓝色 53
目的 53
严肃 53
姓 53
记住 53
挨 53
痴 53
创造 53
这儿 53
▁我在 53
影子 53
早就 53
的日子 53
狂风 53
宁 53
猪 53
荡漾 53
寸 53
胆 52
雁 52
你就 52
柳树 52
洁白的 52
玻璃 52
手中 52
在于 52
源 52
顿 52
我有 52
是一位 52
回到了 52
我觉得 52
照耀 52
尽管 52
无人 52
了很多 52
狮子 52
闪电 52
树林 52
惜 52
时间的 52
疑 52
甲 52
早晨 52
▁上 52
旁边的 52
穿过 52
廊 52
我可以 52
平时 52
模样 52
心灵的 52
辰 52
未来的 52
第二名 52
着我们 52
院 52
身材 52
奇迹 52
樱花 52
一面 52
临 51
很久 51
凤 51
实现 51
的故事 51
▁您 51
赏 51
女儿 51
眼镜 51
岂 51
才是 51
悔 51
倒了 51
一副 51
思想 51
唱着 51
引 51
洋 51
刮 51
公主 51
面的 51
毫无 51
答案 51
一首 51
凉爽 51
跨 51
成就 51
丑 51
建 51
人民 51
我了 51
辉 51
上帝 51
但却 51
之一 51
民 51
家长 51
妹 51
见了 51
黄色 51
决 51
朴 51
蒙 51
叹息 51
文化 51
育 51
止 51
佛 51
辛 51
没了 51
一身 51
▁记得 51
▁清 51
中午 50
土地 50
藤 50
茂 50
深深的 50
参加了 50
生长 50
同样 50
陌生 50
▁对 50
肚子 50
▁爱 50
孩子们 50
迷茫 50
泽 50
疾 50
▁水 50
天堂 50
一般的 50
进来 50
耐 50
嘲笑 50
贪 50
这一切 50
头的 50
现在的 50
众 50
摆动 50
英雄 50
借 50
畏 50
地走 50
植物 50
回荡 50
积极 50
扯 50
我发现 50
洁白 50
期盼 50
6 50
量 50
着一个 50
荣誉 50
絮 50
为何 50
不清 50
锁 50
医生 50
到我 50
杂 50
从来 50
地面 50
的一生 50
取得了 50
低头 50
我都 50
侧 50
怀抱 50
荣 50
错误 50
饱 50
气息 49
奥 49
嘴唇 49
赢得了 49
说完 49
或是 49
就算 49
一脸 49
体会 49
友情 49
▁第二天 49
积 49
丁 49
叔叔 49
一句话 49
沉默 49
蛇 49
感受到 49
等待着 49
暮 49
是你 49
惹 49
一支 49
了一年 49
赞 49
不安 49
稀 49
再也 49
句话 49
学会了 49
散发着 49
在水 49
o 49
聊 49
班同学 49
却不 49
索 49
密的 49
缤纷 49
明的 49
成的 49
伊 49
着手 49
断了 49
猴 49
来临 49
保 49
活力 49
珍珠 49
昏 49
净 49
一切都 49
不用 49
盆 49
遥 49
裂 49
下课 49
候 49
茧 49
的大眼睛 49
萧 49
明白了 49
沙漠 49
中有 48
不行 48
几天 48
因为它 48
右手 48
翅 48
温馨 48
仍然 48
走路 48
入了 48
扣 48
还可以 48
也不是 48
虑 48
让她 48
这句话 48
哈 48
▁到 48
活泼 48
的人们 48
乖 48
但他 48
百米 48
唱歌 48
我能 48
塔 48
老虎 48
观察 48
▁当然 48
变的 48
让它 48
形的 48
不已 48
的力量 48
巍 48
我的手 48
▁让我们 48
居然 48
广场 48
娜 48
骂 48
在天 48
居 48
精彩的 48
旷 48
伴着 48
开放 48
家人 48
从此 48
称 48
长发 48
我终于 48
费 48
是多么 48
始 48
斯 48
倚 48
漂亮的 48
略 48
在我们 48
隔 48
赤 48
轻盈 47
看了看 47
浑身 47
的白 47
▁阳光 47
▁和 47
用了 47
秦 47
嗯 47
汤 47
唯 47
我最 47
不断地 47
废 47
▁有一天 47
▁, 47
训练 47
护 47
坑 47
业 47
房子 47
样的 47
花园 47
▁难道 47
食物 47
纵 47
辛苦 47
乌云 47
担心 47
就开始 47
川 47
比如 47
灯光 47
▁山 47
捡 47
也可以 47
帝 47
眨眼 47
但是我 47
进入了 47
富 47
幸 47
一段 47
贝 47
书中 47
更多 47
光彩 47
回来了 47
骑 47
就到了 47
风的 47
尽情 47
得意 47
陶醉 47
表演 47
沾 47
怎么办 47
对不起 46
一人 46
站起来 46
了过去 46
乐观 46
▁或许 46
鼠 46
航 46
三个 46
▁你好 46
看来 46
扶 46
不出 46
发生 46
的无 46
四季 46
度过 46
讨厌 46
展开 46
实在 46
自我 46
走着 46
从不 46
翘 46
掩 46
痕迹 46
劳动 46
唉 46
宫 46
▁这些 46
馆 46
多姿 46
的身影 46
我们是 46
笼 46
绝望 46
▁首先 46
兮 46
种种 46
涟漪 46
舒服 46
个子 46
可惜 46
最喜欢 46
的头发 46
喂 46
伏 46
能在 46
她那 46
鹤 46
涯 46
在他 46
打了 46
奖 46
我家 46
因此 46
份 46
▁母亲 46
知道了 46
悄悄地 45
战争 45
不屈 45
遥远 45
上场 45
沫 45
▁两 45
社团 45
位置 45
治 45
磨难 45
▁月 45
学习的 45
用心 45
不懂 45
永不 45
城市 45
作者 45
不是吗 45
放学 45
没事 45
拜 45
重要 45
抱怨 45
我去 45
冠 45
哎 45
仰望 45
不去 45
较 45
十二 45
那张 45
小溪 45
同一 45
另一个 45
终究 45
绿叶 45
了这 45
此刻 45
白发 45
给人 45
重的 45
▁要 45
歪 45
我看 45
学生的 45
嫩的 45
双腿 45
何时 45
惊讶 45
摇摆 45
实的 45
琅 45
注意 45
帅 45
就像一个 45
点缀 45
伤害 45
抛 45
牙齿 45
拿出 45
阳光明媚 45
变了 45
听了 45
洛 45
河水 45
山的 45
而出 45
私 45
害羞 44
表现 44
遮 44
想起了 44
齿 44
偷 44
的阳光 44
漂 44
叫声 44
离去 44
把自己 44
织 44
又一次 44
没有人 44
热身 44
自行车 44
▁然后 44
也不能 44
孤单 44
穷 44
族 44
我看见 44
我方 44
袋 44
20 44
取得 44
灿烂的 44
取了 44
深处 44
游玩 44
普通 44
优美 44
上了一 44
却没有 44
场比赛 44
我们去 44
菊花 44
搭 44
敲 44
▁自从 44
▁红 44
摘 44
徒 44
娘 44
逢 44
丧 44
殿 44
印象 44
不足 44
瓶 44
宇宙 44
捧 44
谱 44
套 44
摩 44
状 44
得到了 44
很不 44
逸 44
这个世界 44
一开始 44
告 44
在那里 44
点的 44
皑 44
当你 44
挠 44
给自己 44
顺着 44
偶尔 44
渺 44
肥 44
清晨 44
睛 44
迎来 44
垃圾 44
丈 43
纹 43
冲向 43
教导 43
有没有 43
繁星 43
吓得 43
迷人的 43
杆 43
亲切 43
愿意 43
谢谢 43
无忧 43
家庭 43
无穷 43
要是 43
山上 43
流逝 43
相信自己 43
背上 43
下雨 43
叫着 43
动了 43
蜜蜂 43
的雨 43
头来 43
捂 43
不小心 43
县 43
潺 43
凶 43
溢 43
智 43
连忙 43
不得不 43
英语 43
优美的 43
够 43
荒 43
但它 43
淘 43
芳香 43
追逐 43
比我 43
很有 43
▁你们 43
黑夜 43
朋友们 43
一点点 43
柱 43
意思 43
在地 43
我爱 43
或者 43
坚定的 43
计 43
无私 43
恐 43
这位 43
明明 43
店 43
大片 43
妈妈的 42
毕竟 42
逼 42
错了 42
男子 42
怀着 42
到达 42
小学的 42
》, 42
短跑 42
的生命 42
拖 42
芬芳 42
足球 42
继 42
深邃 42
急忙 42
犯 42
领先 42
伸出 42
就被 42
权 42
反而 42
穿上 42
发展 42
克 42
▁正 42
歌声 42
怎么样 42
礼 42
参 42
走上 42
两人 42
到的 42
圆圆 42
生机勃勃 42
想过 42
▁古 42
多彩 42
意义 42
摇曳 42
生日 42
千万 42
任何 42
发现了 42
页 42
须 42
际 42
四个 42
中最 42
器 42
ǎ 42
炼 42
疼痛 42
考验 42
美景 42
正如 42
埋 42
就把 42
散发出 42
心底 42
▁夜 42
呵 42
出现在 42
镇 42
大叫 42
一刻 42
捏 42
鸭 42
科学 42
疑惑 42
行的 42
炸 42
赵 42
盏 41
就跑 41
二十 41
ì 41
▁多 41
她是 41
升起 41
杰 41
▁我要 41
懵 41
死的 41
湖水 41
分数 41
吾 41
根本 41
好吗 41
每当 41
展现 41
因为他 41
一团 41
眠 41
比较 41
番 41
那位 41
具 41
陶 41
握住 41
遇见 41
回报 41
也被 41
凛 41
的学生 41
线上 41
说不 41
了一条 41
碗 41
夜里 41
陌生的 41
▁题 41
班长 41
厚厚的 41
旋 41
▁在我 41
▁冬天 41
蝉 41
高大 41
▁经过 41
守护 41
一家 41
翼 41
好玩 41
高一 41
草原 41
队伍 41
▁最终 41
不然 41
▁下 41
棋 41
中华 41
速 41
前行 41
坎坷 41
的脸上 41
年华 41
篮球 41
吃的 41
生存 41
我相信 41
泊 41
好看 41
), 41
每个人都 41
料 41
做一个 41
迅速 41
媚 41
来看 41
演 41
厉 41
不久 41
是一场 41
8 41
融化 41
▁想 41
里有 41
澈 41
阅读 41
无力 41
蒲 40
满是 40
为什么要 40
▁看到 40
娃娃 40
世界的 40
甜甜 40
地把 40
跟我 40
直接 40
宋 40
中央 40
▁在这里 40
庄 40
拥抱 40
存 40
施 40
重重 40
天上 40
是为了 40
▁我和 40
荫 40
▁时光 40
完美的 40
想想 40
模糊 40
最后的 40
唯一 40
我好 40
牌 40
更多的 40
将会 40
祖国的 40
洋洋 40
7 40
吊 40
抚摸 40
时代 40
灵魂 40
的朋友 40
坡 40
感觉到 40
为他 40
潭 40
淡淡 40
猴子 40
▁等 40
的面 40
幼稚 40
雨中 40
做了 40
倾听 40
的人在 40
冰冷 40
绚丽 40
狠狠 40
执 40
喜欢的 40
渊 40
应该是 40
小狗 40
拾 40
长大了 40
办 40
质 40
渐 40
▁我是 40
起床 40
说是 40
怜 40
樱 40
名言 40
必须 40
一口 40
马上就要 40
头顶 39
喘 39
不堪 39
舅 39
庆 39
戴着 39
不愿 39
要求 39
倾斜 39
财富 39
我们也 39
▁还 39
一层 39
它在 39
晶 39
属 39
不经 39
喷 39
导 39
可能是 39
有时候 39
▁真 39
罢了 39
敌 39
不胜 39
被人 39
突 39
í 39
左手 39
生活在 39
贴 39
铜 39
做到 39
利用 39
今天的 39
的前 39
优秀 39
出现了 39
顽强 39
裳 39
配 39
的名字 39
你能 39
鲜艳 39
帆 39
富有 39
动力 39
高高 39
▁其中 39
泡 39
童话 39
永恒 39
无聊 39
街上 39
夕 39
属于自己的 39
远的 39
金色 39
题目 39
步伐 39
猎 39
崖 39
聪 39
就连 39
状态 39
这不是 39
动人的 39
杏 39
晒 39
▁还记得 39
莹 39
▁像 39
飞向 39
盈 39
前方 39
仅 39
做什么 39
中心 39
可是我 39
热的 39
往前走 39
深深地 39
没什么 38
湖面 38
我被 38
▁黑 38
小时 38
心理 38
左右 38
呐 38
怎么能 38
互 38
事业 38
冬天的 38
一手 38
不时 38
底下 38
▁冬 38
既然 38
手里 38
我不会 38
欢迎 38
阶段 38
罢 38
裹 38
▁刚 38
而去 38
这场 38
á 38
▁青春 38
梦中 38
还记得 38
死亡 38
雕 38
出生 38
倍 38
的老师 38
毒 38
态度 38
▁夏天 38
一棵 38
但在 38
仁 38
不但 38
▁为 38
确 38
阿姨 38
又何 38
散步 38
竹子 38
把我们 38
茎 38
迫不及待 38
浓浓 38
勤 38
孩子的 38
▁我们的 38
不复 38
上午 38
想到了 38
湛 38
儿女 38
声中 38
趴 38
原因 38
在她 38
姨 38
汇 38
祝福 38
皆 38
会儿 38
又一 38
一步一步 38
学期 38
那一刻 38
感叹 38
不服 38
说什么 38
▁四 38
鼎 38
发的 38
返 38
的表情 38
飞扬 38
广播 38
▁父亲 38
吃着 38
累了 38
内心的 38
另一 38
小说 38
举办 38
不可能 38
奈 38
战士 38
着眼 38
健康 38
忠 38
为自己的 38
气氛 38
写着 38
节奏 38
的家 38
移动 38
滋 38
小姐 38
夸 37
冻 37
潇 37
岁时 37
滨 37
锻炼 37
画面 37
年龄 37
弱的 37
就像是 37
判 37
一圈 37
叫做 37
忆 37
迹 37
后面的 37
设 37
从未 37
体验 37
那份 37
队长 37
韵 37
草地 37
▁我爱 37
· 37
会上 37
难过 37
支撑 37
默默地 37
咬牙 37
了的 37
而过 37
袖 37
涵 37
暴 37
州 37
牡丹 37
真实 37
呼呼 37
意志 37
池塘 37
▁微 37
某 37
深沉 37
年轻 37
宛如 37
满足 37
责 37
短暂 37
找到了 37
身旁 37
握着 37
激励 37
聪明 37
不见了 37
逐渐 37
蒙蒙 37
坚韧 37
岳 37
不相 37
坐着 37
黛 37
勤奋 37
道的 37
次的 37
吻 37
呈 37
亚 37
战胜 37
狠 37
行走 37
见过 37
去做 37
▁外 37
教会 37
从中 37
涛 37
肯 37
登 37
深刻 37
诚信 37
咽 37
白雪 37
优 37
凄 37
只剩下 37
首歌 37
一分 37
地下 37
到达了 37
傍晚 37
了一会儿 37
▁就这样 37
蹲 37
教学楼 37
m 37
翱 37
▁如 37
所谓的 36
曼 36
形象 36
占 36
的就是 36
▁有一次 36
最好 36
挂着 36
我不能 36
十五 36
感激 36
是她 36
的心灵 36
献 36
飞的 36
▁青 36
嘿 36
分别 36
你可以 36
经历了 36
过去的 36
涨 36
果实 36
沸腾 36
聊天 36
庞 36
悄然 36
的大门 36
普 36
我认为 36
贵的 36
▁曾经 36
充 36
严 36
蹭 36
过程 36
冥 36
▁张 36
自在 36
仙女 36
处的 36
看得 36
肠 36
尚 36
▁今天是 36
烟花 36
主席 36
明亮的 36
凄凉 36
迫 36
从小 36
眼的 36
尊 36
医院 36
场面 36
陆 36
清新 36
一跳 36
心头 36
下一个 36
坚强的 36
妆 36
熙 36
50 36
朋 36
老师说 36
处处 36
我不知道 36
▁它们 36
味道 36
背着 36
涩 36
而已 36
稳 36
平常 36
不知不觉 36
回首 36
今年 36
▁那天 36
科技 36
文字 36
玲 36
瞳 36
了一次 36
眺 36
雷锋 36
教学 36
檐 36
科 36
眼前的 36
可以在 36
做起 36
基 36
降 36
微笑着 36
圣 36
水面 36
我们一起 36
看书 36
一一 36
猛地 36
▁"" 36
ī 36
凑 36
当初 36
小红 36
敌人 36
眼角 36
兄 36
隐约 36
狐狸 36
是要 36
仿 36
受伤 35
夏天的 35
的发 35
▁黄 35
做出 35
制 35
坠 35
徘徊 35
兽 35
穿梭 35
铭 35
长着 35
司 35
刹那 35
励志 35
见的 35
一曲 35
太多的 35
蔚 35
规 35
匹 35
的机会 35
当年 35
农民 35
发生了 35
校园里 35
有几 35
帽 35
果然 35
▁把 35
挡 35
奋力 35
成功了 35
汁 35
我希望 35
柔和 35
置 35
有所 35
▁光 35
留下的 35
有一位 35
笑了笑 35
赞美 35
溅 35
开花 35
相遇 35
自豪 35
莲花 35
高中 35
给他 35
至今 35
刚才 35
不错 35
挣扎 35
告诉我们 35
把手 35
两边 35
是的 35
沉睡 35
黄河 35
风筝 35
异常 35
稚 35
独特的 35
母校 35
不少 35
破坏 35
坛 35
第三 35
我没 35
逆 35
▁对于 35
肩膀 35
空的 35
▁每当 35
是用 35
短短 35
列 35
补 35
脏 35
一班 35
颤抖 35
▁天空 35
粼粼 35
是无 35
熊 35
我们可以 35
阶 35
趁 35
类 35
爱心 35
额头 34
无可 34
起点 34
你有 34
▁运动 34
不觉 34
努力地 34
宝石 34
▁它的 34
▁为了 34
无助 34
他就 34
▁谁 34
讲课 34
的地 34
是一条 34
抬起头 34
天真 34
干什么 34
记录 34
立马 34
繁华 34
▁我很 34
招手 34
整理 34
低下 34
他也 34
▁路 34
曹 34
▁几 34
距离 34
留下了 34
奇怪 34
看不到 34
了自己的 34
滋味 34
▁全 34
哑 34
盒 34
栽 34
打败 34
震 34
下来的 34
之间的 34
地跑 34
柴 34
也不知道 34
广 34
的大海 34
大人 34
关于 34
▁是的 34
作家 34
简直 34
了一声 34
茫 34
樱桃 34
邪 34
棉花 34
怎么会 34
枫 34
就有 34
手机 34
然的 34
丰富 34
自然的 34
的颜色 34
一步步 34
的最 34
》。 34
很难 34
▁有时 34
梦幻 34
往下 34
回了 34
超过 34
飞来 34
呵呵 34
蓄 34
河边 34
夏日 34
站着 34
除 34
耀 34
笑的 34
▁眼 34
黄昏 34
你怎么 34
一半 34
茂盛 34
伟的 34
珍 33
千年 33
爷 33
看上去 33
一个人的 33
维 33
各种各样的 33
瑶 33
▁那个 33
尽头 33
哲 33
▁希望 33
呼唤 33
无际 33
每一次 33
▁让 33
震撼 33
艰难 33
魅力 33
恍 33
▁转 33
è 33
的头 33
蚕 33
用自己的 33
予 33
我用 33
他不 33
科学家 33
柏 33
课上 33
痕 33
站了起来 33
情感 33
着自己 33
它们的 33
和她 33
黑发 33
炎 33
蕊 33
注定 33
悟 33
很快就 33
每天都 33
丹 33
我一直 33
小朋友 33
这一次 33
我非常 33
悠闲 33
遗憾 33
俗 33
屏 33
和蔼 33
递 33
葡萄 33
▁过 33
▁我不 33
一对 33
冷静 33
▁我希望 33
削 33
▁( 33
怎么了 33
▁梦想 33
犹 33
一同 33
▁我会 33
▁我也 33
承受 33
声响 33
神情 33
男人 33
却在 33
小女孩 33
一起去 33
▁第二 33
浪费 33
▁回到 33
尊重 33
去找 33
的气 33
▁来到 33
教我 33
之上 33
最高 33
展示 33
度的 33
我们不 33
香气 33
飞去 33
霄 33
又要 33
苦涩 33
各自 33
容易 33
百花 33
渡 33
缺 33
是一年 33
灌 33
身穿 33
反应 33
葱 33
璀璨 33
醒来 33
空间 33
不需要 33
挂在 33
了一会 33
缓 33
很多人 33
俯 33
(2) 32
为人 32
爸妈 32
水晶 32
整天 32
指引 32
的问题 32
组织 32
两旁 32
激烈的 32
品味 32
测 32
的黑 32
之路 32
,, 32
几只 32
乐趣 32
嗓子 32
床上 32
的脸庞 32
有一次 32
转过 32
阔 32
实验 32
坚持下去 32
门外 32
▁没 32
适 32
把他 32
穆 32
带领 32
一缕 32
小男孩 32
一旦 32
集体 32
麦 32
固 32
地向 32
都说 32
瓦 32
脉 32
票 32
超过了 32
草地上 32
告诉你 32
太过 32
剧 32
▁就像 32
的有 32
丰收 32
节课 32
着眼睛 32
联 32
介绍 32
慌 32
脑海里 32
唯有 32
都可以 32
神的 32
足了 32
孝 32
盎 32
▁人们 32
▁以 32
头上的 32
森 32
好奇 32
难题 32
青蛙 32
▁一阵 32
伴随着 32
音符 32
日本 32
9 32
礼物 32
▁自 32
这件事 32
挖 32
沉重的 32
释 32
闪闪 32
把球 32
快点 32
了呢 32
雀 32
畔 32
没有什么 32
短发 32
绝对 32
散了 32
空气中 32
飞机 32
愿望 32
都快 32
一听 32
骄 32
和平 32
集 32
中国的 32
的一片 32
扬扬 32
而不是 32
悲哀 32
谧 32
回味 32
手臂 32
又一个 32
简单的 32
丰 32
快要 32
橘 32
的幸福 32
下来了 32
腹 32
▁那些 32
标 32
▁长 32
▁在我的 32
迷人 32
满满 31
向着 31
幽默 31
铃声 31
仗 31
财 31
大小 31
往事 31
哺 31
青山 31
形成 31
馨 31
遗 31
熟悉的 31
的结果 31
键 31
衫 31
皎 31
寒冷的 31
千里 31
都不会 31
隙 31
▁我觉得 31
味的 31
剔 31
岩 31
我也不 31
因为他们 31
原地 31
我就是 31
沐浴 31
所有人 31
走进了 31
▁如今 31
飞逝 31
是从 31
只知道 31
价值 31
猜 31
儿的 31
之下 31
感受到了 31
▁用 31
到我们 31
翩 31
聋 31
她说 31
方式 31
我不想 31
▁是啊 31
着头 31
淡的 31
你想 31
可怜 31
小刚 31
好久 31
▁通过 31
星空 31
但我们 31
梯 31
郎 31
担 31
掠过 31
另 31
那么多 31
层层 31
▁回 31
你们的 31
玩了 31
米的 31
跳跃 31
▁站在 31
差点 31
做事 31
▁我相信 31
井 31
流着 31
不容易 31
脸庞 31
因为我们 31
录 31
回到家 31
化为 31
冷漠 31
欢呼声 31
混 31
其它 31
文学 31
迎面 31
十八 31
平淡 31
似乎在 31
周围的 31
A 31
歇 31
所谓 31
弓 31
苍白 31
▁为什么 31
惊恐 31
电视 31
有的是 31
陌 31
对我的 31
硕 31
视线 31
q 31
渴 31
飞速 31
给她 31
但她 31
地上的 31
偷偷 31
高大的 31
本来 31
这条 31
紫色的 31
躺 31
不可以 31
的季节 31
希望的 31
明媚 31
悄 31
扁 31
羽毛 30
名叫 30
仅仅 30
宽阔 30
挚 30
堤 30
的三 30
欢快的 30
十一 30
坏了 30
我只 30
建筑 30
没人 30
利的 30
像在 30
朋友的 30
f 30
在小 30
和谐 30
带来的 30
▁二 30
我真 30
命运的 30
烤 30
路上的 30
▁走进 30
例 30
▁朋友 30
沉重 30
中华民族 30
全是 30
对待 30
伦 30
来自 30
一个大 30
激动的 30
ē 30
愤 30
惊喜 30
关系 30
冲刺 30
搬 30
皓 30
做着 30
提高 30
伸手 30
之时 30
把她 30
把你 30
更好的 30
避 30
情绪 30
使他 30
给人一种 30
一心 30
场地 30
暴雨 30
不说 30
看的 30
披着 30
一番 30
关怀 30
桶 30
爪 30
再来 30
流淌 30
门前 30
得更 30
每个人的 30
将来 30
在一旁 30
差不多 30
很是 30
糊 30
派 30
恐惧 30
理由 30
▁快 30
期望 30
描 30
白天 30
那就 30
窃 30
无限的 30
有一些 30
谦虚 30
纳 30
我自己 30
只不过 30
里面的 30
燥 30
寺 30
亲爱的 30
盲 30
轻柔 30
▁生命 30
前面的 30
你也 30
门的 30
兄弟 30
带给 30
撕 30
苦难 30
▁下午 30
老鼠 30
很高 30
浮现 30
暇 30
不断的 30
紧了 30
▁做 30
▁我知道 30
世人 30
骑着 30
悟空 30
清晰 30
证明 30
接触 30
不喜欢 30
泣 30
涂 30
着脚 30
案 30
个小 30
▁听 30
卧 30
▁学校 30
草的 30
激情 30
小心 30
运会 30
躲在 30
炮 29
污 29
的美好 29
了一片 29
相互 29
防 29
项目是 29
我可 29
办法 29
▁海 29
折射 29
嗖 29
不息 29
稻 29
希 29
是啊 29
▁而且 29
的女 29
了一些 29
壮观 29
很大的 29
睫毛 29
原谅 29
续 29
家园 29
性的 29
人和 29
遇到了 29
说明 29
摔倒 29
诺 29
脾 29
惬意 29
问道 29
照射 29
踢足球 29
弯曲 29
结局 29
同伴 29
竞争 29
和我们 29
汪 29
棵树 29
之力 29
美德 29
着他 29
归来 29
努力的 29
和他 29
不一样 29
加速 29
他用 29
▁那么 29
流泪 29
▁的 29
枫叶 29
府 29
漠 29
跑道 29
的人都 29
的情 29
承 29
彻 29
争取 29
绸 29
▁每个人 29
汽车 29
下着 29
角的 29
技 29
不止 29
香的 29
一遍 29
嘉 29
快速 29
红旗 29
慧 29
小花 29
的时刻 29
起伏 29
烛 29
高兴地 29
的中国 29
▁书 29
出门 29
看过 29
飞过 29
负责 29
留在 29
▁跳 29
我现在 29
哪怕 29
了他的 29
生物 29
藏在 29
挽 29
飞到 29
不平 29
对了 29
休 29
的热 29
泼 29
就这么 29
的努力 29
臣 29
帮我 29
臭 29
打扮 29
睡着了 29
毅力 29
变化 29
景象 29
发芽 29
的下 29
口号 29
旋转 29
我看到 29
社会的 29
光的 29
挪 29
糟 29
屈 29
在风中 29
豹 29
▁不是 29
路的 29
从前 29
危险 29
它就 29
表达 29
故乡 29
颈 29
拢 29
当我们 29
第二次 29
写了 29
所以我 29
一排 29
赞叹 29
收拾 29
闪闪发光 29
碌 28
很美 28
无比的 28
失落 28
落到 28
冉 28
就没有 28
艺术 28
▁那时 28
北京 28
无所 28
蜻蜓 28
着你 28
本书 28
好成绩 28
▁啊 28
柔软 28
年前 28
弥漫 28
沁 28
过我 28
风和 28
物的 28
描绘 28
多久 28
国的 28
保持 28
有一只 28
奈何 28
感慨 28
乳 28
觉得自己 28
但又 28
答应了 28
寞 28
小事 28
小雨 28
了自己 28
哄 28
着脸 28
日记 28
▁每次 28
沧桑 28
小白 28
开学 28
驳 28
森林里 28
的方式 28
还有一个 28
流星 28
的方向 28
听说 28
睁开 28
骗 28
思绪 28
魄 28
农 28
花园里 28
我那 28
只是一 28
一定是 28
获胜 28
都知道 28
在学校 28
的同时 28
鸽 28
却被 28
食堂 28
炎热 28
着他的 28
想的 28
电话 28
舞台 28
抿 28
澄 28
陵 28
我从 28
古代 28
莉 28
宝宝 28
泄 28
观看 28
早早 28
夹杂着 28
的第一 28
优雅 28
那时候 28
也就是 28
塘 28
人家 28
沉思 28
永远不会 28
▁接下来 28
机器 28
▁比 28
曲折 28
方法 28
在湖 28
愈 28
有一点 28
安静的 28
手的 28
河流 28
眼眶 28
滚滚 28
草坪 28
年纪 28
革命 28
肆 28
才发现 28
达到 28
冰雪 28
危 28
可怕 28
▁这样 28
发出了 28
怀里 28
呱 28
几分 28
最美 28
▁面对 28
地点 28
留下一 28
▁金 28
蛙 28
嗅 28
宿 28
ù 28
洪 28
迟 28
十大 28
给它 28
漫长 28
上扬 28
梧 28
知识的 28
一点一点 28
欢笑 28
了一句 28
让他们 27
说我 27
清楚 27
舒适 27
椅 27
海的 27
对自己 27
盘旋 27
我们会 27
三天 27
▁哦 27
辫 27
▁先 27
怎样的 27
走的 27
的口 27
油的 27
上天 27
随即 27
者的 27
五十 27
呜 27
我总是 27
不及 27
残疾人 27
轻易 27
了一只 27
摔倒了 27
叫我 27
巷 27
在阳光 27
你看 27
了她 27
▁也 27
楼梯 27
书籍 27
爬山 27
过一 27
辞 27
舌 27
鳞 27
我叫 27
的美丽 27
的歌声 27
炎炎 27
意外 27
▁马 27
诗人 27
随时 27
肺 27
议论 27
地望着 27
把握 27
▁李 27
知的 27
夺目 27
则是 27
照顾 27
起来的 27
▁开 27
我看到了 27
尤 27
自私 27
宣 27
这片 27
就如 27
灰尘 27
▁第一 27
大雨 27
璃 27
掌握 27
期间 27
在他的 27
橙 27
桌子 27
笼罩 27
的确 27
消失了 27
昨天 27
上一次 27
▁周 27
四处 27
顽皮 27
家伙 27
严厉 27
人为 27
笛 27
是大 27
咚 27
线的 27
卫 27
查 27
张开 27
柱子 27
饿 27
为之 27
▁有人说 27
乐园 27
日子里 27
正好 27
支持 27
都像 27
偶然 27
他又 27
= 27
就好像 27
分开 27
砍 27
开朗 27
哪个 27
好几 27
你是否 27
分享 27
的成绩 27
着急 27
举起 27
焦急 27
腊 27
尝试 27
当他 27
晖 27
用的 27
神圣 27
经历过 27
青年 27
c 27
厘米 27
复苏 27
▁安 27
脆弱 27
的可 27
头脑 27
烈日 27
找不到 27
绿树 27
出发 27
供 27
正式开始 27
女人 27
d 27
青春的 27
无瑕 27
笑着说 27
努 27
魔法 27
鲁迅 27
袍 27
贡献 27
的原因 27
东方 27
想去 27
这里的 27
嬉 27
绚烂 27
老师和 27
王子 27
畏惧 27
注视着 27
报名 27
有过 26
?! 26
羞涩 26
阁 26
ch 26
作品 26
的多 26
满头大汗 26
坚信 26
期的 26
400 26
沐 26
忙碌 26
你还 26
总是在 26
在家 26
外表 26
立的 26
辱 26
不太 26
那条 26
风光 26
要去 26
那次 26
呵护 26
强的 26
强大 26
▁假如 26
不应该 26
故意 26
冷的 26
各个 26
盛开 26
▁心 26
尽力 26
用尽 26
牵挂 26
开着 26
迷失 26
放着 26
演奏 26
热烈的 26
研究 26
想法 26
你去 26
浊 26
已被 26
了在 26
霸 26
察 26
点了 26
唤 26
不甘 26
暴风雨 26
他们在 26
三十 26
自己是 26
塌 26
无尽的 26
浪漫 26
对我们 26
茵 26
桐 26
以前的 26
大方 26
刺激 26
把头 26
精致 26
错的 26
的夜 26
天生 26
脑海中 26
穿越 26
瞬 26
疯 26
骏 26
诚 26
▁如果你 26
酷 26
绚 26
的上 26
抓着 26
模 26
泻 26
河的 26
▁瞧 26
婷 26
皇帝 26
独立 26
登上 26
粗糙 26
恬 26
篮 26
苍穹 26
交流 26
提醒 26
▁别 26
途中 26
漆 26
赖 26
神奇 26
有力 26
把这 26
的神情 26
萌 26
不对 26
▁向 26
拿到 26
真是太 26
讨论 26
金钱 26
对他 26
雄伟 26
裤 26
了不少 26
痛苦的 26
真诚 26
最喜欢的 26
爆 26
我开始 26
丰富多彩 26
钢 26
疚 26
这只 26
的人物 26
聚 26
一点儿 26
从而 26
单纯 26
而在 26
我怎么 26
大学 26
见证 26
自身 26
粘 26
郑 26
不算 26
角落里 26
意的 26
也都 26
牺牲 25
不再是 25
洗礼 25
覆 25
宜 25
很高兴 25
写下 25
唤醒 25
分的 25
超越 25
紧张的 25
鞭 25
大概 25
会不会 25
邻 25
来回 25
敬佩 25
的神 25
停下 25
斩 25
喝彩 25
▁十 25
嘲 25
充实 25
抑 25
诸葛 25
▁果然 25
说到 25
了一点 25
的母亲 25
社 25
时期 25
奔向 25
自主 25
这样一个 25
▁来 25
膀 25
厨房 25
秃 25
依靠 25
不顾 25
不必 25
更好 25
鸡蛋 25
板上 25
不能再 25
增 25
的两 25
读懂 25
它能 25
台阶 25
个性 25
填 25
▁读 25
一日 25
强者 25
沿着 25
是小 25
搓 25
闪光 25
不一 25
▁每天 25
错过 25
朵花 25
200 25
走出了 25
功夫 25
乃 25
拥有了 25
▁我们要 25
很小 25
不着 25
布满 25
几十 25
那只 25
▁第一个 25
开启 25
嫣 25
挥舞着 25
而上 25
照片 25
▁当时 25
降临 25
的项目 25
情景 25
的黄 25
父母的 25
不肯 25
偎 25
等到 25
棒的 25
颇 25
惟 25
是一次 25
缠 25
他还 25
呼啸 25
的鱼 25
再加上 25
假期 25
亲情 25
的身体 25
的树 25
说你 25
批 25
脂 25
无一 25
上看 25
缺点 25
累累 25
肃 25
乌鸦 25
解决 25
透明 25
动物园 25
小路 25
艺 25
这是我 25
一想 25
萝 25
打算 25
贫 25
缭 25
赢得 25
足以 25
餐 25
唯一的 25
的老人 25
花了 25
躁 25
又开始 25
俏 25
爬到 25
跌 25
隆 25
外面的 25
驶 25
又在 25
戒 25
靠着 25
两颗 25
朝着 25
是没有 25
天上的 25
闯 25
是这样的 25
豆腐 25
一时 25
的一面 25
不高 25
冬季 25
佩 25
恰 25
栋 25
我来 25
有人说 25
信任 25
▁叶 25
加快 25
违 25
懦 25
逊 25
▁由于 25
我真的 25
鞋子 24
可笑 24
的速度 24
箱 24
又会 24
憧憬 24
有趣的 24
敢于 24
魏 24
选择了 24
受到 24
满意 24
这场比赛 24
事物 24
沟 24
的美景 24
海伦 24
球门 24
就好 24
花在 24
哨子 24
一动不动 24
澎湃 24
复习 24
▁在这个 24
事的 24
泰 24
盯 24
喊道 24
莱 24
出场 24
毅 24
与你 24
各位 24
小巧 24
更为 24
▁晚上 24
s 24
车上 24
了一口气 24
不开 24
看似 24
▁柳 24
挫 24
不放弃 24
我这 24
如果没有 24
弧 24
破了 24
是我们的 24
了一件 24
主要 24
▁只是 24
艰辛 24
领奖 24
陷 24
一动 24
已经在 24
生死 24
回家了 24
从容 24
勃勃 24
付 24
看我 24
兰花 24
认真的 24
感悟 24
看出 24
惯 24
永恒的 24
资料 24
紫色 24
魔鬼 24
意识 24
从我 24
疯狂 24
耸 24
霎 24
纯真 24
褐 24
同样的 24
通往 24
警 24
值 24
但还是 24
口水 24
确实 24
远去 24
嵌 24
安排 24
▁校园 24
尽的 24
逐 24
什 24
怯 24
我坐在 24
气势 24
具有 24
真的是 24
乡村 24
型 24
创 24
孕育 24
少的 24
这不 24
▁直到 24
画家 24
出一个 24
灰色的 24
疲惫 24
哟 24
编 24
的草 24
▁湖 24
心态 24
折磨 24
地从 24
之地 24
复杂 24
灾 24
这才 24
发了 24
蹈 24
屁股 24
增添 24
身边的 24
过了一会儿 24
尽了 24
虽然没有 24
攀 24
不住了 24
遭 24
阻 24
也是一种 24
窟 24
锐 24
残酷 24
郭 24
需 24
嫌 24
看着我 24
劝 24
的一次 24
不幸 24
瑞 24
享 24
枣 24
的脸颊 24
已是 24
自觉 24
祖 24
▁这一 24
火箭 24
带我 24
▁你的 24
比赛中 24
尊严 24
宗 24
雀跃 24
谋 24
笨 24
嗦 24
真的很 24
▁一次 24
成为一个 24
打招呼 24
什么呢 24
立即 24
脾气 24
轮回 24
值得我们 23
一匹 23
给他们 23
步入 23
真好 23
乐曲 23
靠近 23
动人 23
】 23
习惯了 23
培养 23
仇 23
我不是 23
向外 23
的土地 23
提出 23
抵 23
闭上 23
又大 23
▁请 23
的血 23
沙子 23
脚印 23
谦 23
是一只 23
爹 23
开来 23
▁明 23
品质 23
勤劳 23
落后 23
莺 23
就是这样 23
现场 23
我一定会 23
被子 23
内容 23
海中 23
的步伐 23
冽 23
▁在一个 23
只剩 23
着一副 23
倒在 23
范 23
奇的 23
咆哮 23
五年级 23
住在 23
▁因此 23
▁开始 23
殊 23
劫 23
播 23
▁双方 23
地里 23
自由的 23
▁只要 23
厌 23
拘 23
演讲 23
小猫 23
蛋糕 23
拳头 23
还未 23
我们应该 23
恼 23
有多少 23
柿 23
绪 23
老了 23
左边 23
当成 23
就没 23
甜蜜 23
一杯 23
他对 23
打破 23
以来 23
景点 23
惧 23
高山 23
日夜 23
▁整个 23
菲 23
框 23
剩 23
整个世界 23
零食 23
轰 23
的很 23
的她 23
吸取 23
▁日 23
实力 23
姥爷 23
ǐ 23
帽子 23
荆 23
影响 23
婀 23
吞噬 23
往上 23
的学习 23
颂 23
爱你 23
停了 23
承认 23
还有很多 23
抬起 23
低着头 23
岗 23
落在了 23
特点 23
只要你 23
就不会 23
水里 23
过得 23
钩 23
组成 23
抄 23
撇 23
× 23
淅淅 23
及时 23
ǔ 23
殿堂 23
底的 23
僧 23
▁每个 23
为他们 23
亡 23
舌头 23
很少 23
站在那里 23
深的 23
等我 23
就说 23
绊 23
拿了 23
两天 23
而下 23
艰苦 23
很长 23
▁过了一会儿 23
▁此 23
首诗 23
给了我们 23
眼中的 23
不分 23
是如此 23
空白 23
一小 23
变幻 23
汐 23
我国 23
第二天 23
3, 23
装饰 23
勇于 23
怀疑 23
放手 23
▁若 23
脊 23
拦 23
假如 23
写作 23
一本 23
赶快 23
踏上 23
届 23
的了 23
牢 23
一秒 23
钥匙 23
湘 23
过头 23
胳膊 23
梭 23
院子里 23
15 23
▁生活 23
你知道 23
更有 23
图书馆 23
老家 23
小河 23
弥 23
▁王 23
焰 23
岭 23
开玩笑 23
(1) 23
很开心 23
汪汪 23
此时的 23
征 23
流下 23
美人 23
耻 23
他没有 23
再也不 23
盛开的 23
可见 23
眼光 23
康 23
跪 23
朗的 22
▁结果 22
倦 22
不听 22
退缩 22
其中的 22
骨的 22
p 22
熏 22
银河 22
枯萎 22
了两 22
兴趣 22
随意 22
波纹 22
▁北 22
壶 22
▁令 22
点头 22
形容 22
给大家 22
多个 22
欲望 22
专心 22
▁真是 22
饺子 22
了多少 22
火车 22
祈祷 22
丫 22
缺少 22
抚摸着 22
驰 22
火烧 22
适应 22
定的 22
医 22
不成 22
实现了 22
落地 22
不一样的 22
和三 22
吉 22
而我们 22
英语老师 22
怅 22
可能会 22
体现 22
欺负 22
定了 22
的外 22
完成了 22
的脚 22
鼓掌 22
时不时 22
孟 22
直的 22
这座 22
山峰 22
大约 22
无数的 22
滑落 22
停留 22
▁从此 22
打篮球 22
详 22
▁蓝 22
的希望 22
将它 22
春季 22
开幕 22
火焰 22
反正 22
宿舍 22
棍 22
生动 22
心跳 22
什么事 22
庙 22
买了 22
簌 22
奉 22
蜡烛 22
几年 22
玩具 22
皱眉 22
身高 22
真心 22
哪儿 22
恒 22
也无法 22
▁林 22
僵持 22
瑰 22
江河 22
安全 22
让我的 22
它会 22
我最喜欢的 22
少了 22
体会到 22
泰山 22
才知道 22
打击 22
家中 22
政 22
波浪 22
着大 22
地位 22
给我们的 22
解释 22
点点头 22
天鹅 22
才有 22
接过 22
迁 22
开口 22
的吗 22
资 22
远离 22
十几 22
感的 22
围着 22
改正 22
坚硬 22
忧郁 22
é 22
剩下 22
饭菜 22
谢谢你 22
心疼 22
就是一个 22
四十 22
不论 22
没有任何 22
ě 22
黑暗的 22
的衣服 22
看不见 22
些许 22
永远的 22
便会 22
啼 22
▁后 22
座位 22
尽全力 22
变得更 22
▁成功 22
盼望 22
公司 22
转动 22
四年 22
重要的 22
遮住了 22
某个 22
勿 22
美国 22
淤泥 22
几次 22
也许是 22
▁云 22
精心 22
碰到 22
爱我 22
光辉 22
有一条 22
广场上 22
最近 22
的到来 22
无情的 22
主持人 22
满怀 22
世纪 22
殷 22
这么多 22
最爱 22
省 22
场景 22
好象 22
铭记 22
的社会 22
鸿 22
▁中国 22
罪 22
拿到了 22
缀 22
全力 22
全都 22
▁那是一个 22
偏偏 22
日里 22
因为你 22
人也 22
十六 22
右边 22
弥漫着 22
阻挡 22
▁美 22
)。 22
的话语 22
活跃 22
再一次 22
毛病 22
清水 22
看着他 22
玄 22
燃烧 22
长江 22
刚开始 22
毕 22
的面孔 22
放心 22
浇 22
天际 22
难忘的 22
星光 22
十年 22
肩上 22
着它 22
颊 21
小子 21
但也 21
辽阔 21
华丽 21
迪 21
西瓜 21
遇到困难 21
了一起 21
高三 21
算是 21
雨伞 21
逗 21
嘱 21
承担 21
并非 21
第五 21
腔 21
化的 21
所以我们 21
走廊 21
存在的 21
穿上了 21
我感觉 21
你不是 21
职 21
路口 21
咕 21
冷酷 21
戴上 21
遗忘 21
率 21
淳 21
打开了 21
l 21
要把 21
会被 21
一年级 21
骤 21
记忆的 21
冒着 21
劲儿 21
的动力 21
究竟 21
榕 21
上海 21
半天 21
更快 21
湾 21
▁无论 21
t 21
一跃 21
扰 21
还是在 21
瀚 21
拍照 21
筒 21
沿 21
窜 21
愤怒 21
紧握 21
众人 21
姿势 21
死去 21
掀 21
饼 21
这样做 21
▁有人 21
车的 21
魅 21
摘下 21
好友 21
小小 21
品尝 21
渔 21
12 21
她在 21
加快了 21
垒 21
使用 21
奖杯 21
的一样 21
星期 21
的那一刻 21
任务 21
附 21
异的 21
演绎 21
在上面 21
顶上 21
儿童 21
陆续 21
沙滩 21
清醒 21
之际 21
我做 21
普通的 21
采访 21
党 21
斓 21
著名 21
就已经 21
郁郁葱葱 21
中的一 21
白皙 21
良好的 21
的过程 21
今天是 21
情况 21
寄 21
的小鸟 21
里面有 21
挥手 21
身着 21
树干 21
使得 21
▁当你 21
至少 21
件事 21
▁新 21
放眼 21
云层 21
世界上最 21
得上 21
竿 21
洋溢着 21
玩笑 21
分明 21
咦 21
再说 21
学校里 21
深刻的 21
道德 21
年轻的 21
灾难 21
了一层 21
举行了 21
舔 21
狮 21
的发展 21
贝多芬 21
走到了 21
溪流 21
屋子 21
跺 21
想在 21
额头上 21
球员 21
如一 21
▁我还 21
记忆中 21
歌曲 21
我明白了 21
却发现 21
人民的 21
鬓 21
所有人都 21
的音乐 21
偶 21
愉悦 21
家族 21
形状 21
伐 21
瀑 21
柔软的 21
▁阿 21
心地 21
和一 21
一辆 21
鸦 21
来找 21
肚 21
甚 21
无不 21
现在我 21
晚了 21
屋里 21
是很 21
将我 21
进行了 21
特别是 21
晴朗 21
山水 21
高考 21
狐 21
的门 21
的金 21
十月 21
小心翼翼 21
笋 21
伤口 21
不就是 21
他却 21
这份 21
愉快 21
抓住了 21
美食 21
得多 21
胜利的 21
朝阳 21
课时 21
草丛 21
难受 21
透了 21
语的 21
加上 21
麻烦 21
诡 21
▁说完 21
火的 21
给我的 21
优秀的 20
谁能 20
堵 20
师傅 20
你自己 20
▁坐在 20
." 20
肢 20
和我一起 20
计划 20
▁让我 20
永远是 20
擞 20
帮你 20
几步 20
饱满 20
在比赛 20
殇 20
开门 20
祖母 20
不出来 20
今后 20
传说 20
导致 20
煦 20
欢喜 20
渲染 20
了一眼 20
珑 20
暗淡 20
这一天 20
投入 20
打量 20
过着 20
向他 20
矣 20
无言 20
▁就是 20
0 20
弯腰 20
槐 20
总能 20
30 20
只有一个 20
人才 20
播种 20
控制 20
水果 20
胖胖 20
蕾 20
策 20
年来 20
光亮 20
图画 20
游客 20
如梦 20
拧 20
炫耀 20
后退 20
怦 20
朝我 20
就是在 20
楼下 20
另外 20
因为在 20
获 20
▁我真 20
那颗 20
默默无 20
路边 20
困难的 20
个小时 20
祝 20
细节 20
一行 20
物理 20
博物馆 20
,1 20
腮 20
着她 20
吃完 20
人说 20
脚尖 20
不留 20
她也 20
价 20
猛然 20
油菜 20
不好意思 20
有一个人 20
片的 20
▁试 20
发出的 20
宴 20
惠 20
加入 20
和他们 20
思维 20
允 20
温度 20
拉了 20
但你 20
更大 20
一百 20
哉 20
随便 20
慰 20
说他 20
大哥 20
▁梅 20
心思 20
有多么 20
阳光下 20
觉得很 20
注意到 20
啃 20
湿润 20
对你 20
可以看到 20
庆祝 20
作响 20
沉浸在 20
署 20
草坪上 20
▁前 20
融入 20
停止 20
美术 20
什么是 20
敏 20
有一股 20
向下 20
察觉 20
剂 20
痒 20
等你 20
斤 20
全场 20
特色 20
耀眼的 20
冰冷的 20
泉水 20
停留在 20
发光 20
攀登 20
去过 20
技术 20
创造了 20
流的 20
踪 20
咔 20
建设 20
走近 20
批评 20
肤 20
无尽 20
的路上 20
看他 20
已久 20
道路上 20
▁班 20
一脚 20
远处的 20
外套 20
的眼光 20
细腻 20
一起在 20
正视 20
观赏 20
坐下 20
警察 20
的妈妈 20
虾 20
奕 20
包裹 20
灯火 20
丰富的 20
展开了 20
会是 20
劈 20
在脸上 20
新闻 20
广阔 20
踏实 20
下一次 20
嗒 20
游览 20
只想 20
稍 20
这下 20
的队伍 20
当作 20
的一点 20
密密 20
▁我说 20
他把 20
委屈 20
看到的 20
韩 20
否则 20
视着 20
君子 20
轨迹 20
琳 20
仪 20
摇晃 20
高声 20
照着 20
我知道了 20
烈的 20
祸 20
行为 20
有两个 20
烁 20
停下来 20
膛 20
好事 20
津津 20
世界里 20
港湾 20
利益 20
宛 20
行人 20
▁绿 20
蒸 20
窗子 20
可亲 20
翡翠 20
蔷薇 20
整个人 20
楼的 20
表示 20
明年 20
有一座 20
七八 20
疲倦 20
对面 20
整整 20
袄 20
强大的 20
发现自己 20
快了 20
欧阳 20
做到了 20
包括 20
好像是 20
得好 20
纯净 20
郁 20
闪耀 20
彬 20
遥远的 20
谛 20
课本 20
伟人 20
屈服 19
枯燥 19
缠绕 19
最好的朋友 19
笑话 19
你没有 19
的回 19
思索 19
登上了 19
的精 19
嘟 19
排队 19
了整个 19
芝 19
曦 19
气球 19
一点也不 19
了一番 19
必定 19
帮忙 19
到现在 19
感动了 19
倾诉 19
伤痕 19
铲 19
因为有 19
路灯 19
准备好 19
课外 19
我刚 19
诺言 19
的人是 19
响亮 19
那人 19
▁这种 19
务 19
悬 19
▁观众 19
要有 19
庭 19
厚的 19
画画 19
风格 19
几个人 19
沧 19
褪 19
素质 19
失明 19
眷 19
无疑 19
扉 19
使者 19
婆婆 19
漆黑 19
透露 19
▁早晨 19
▁学习 19
摧 19
贪婪 19
自己在 19
抛弃 19
焉 19
领略 19
犹豫 19
爱护 19
的目标 19
▁听到 19
儿童节 19
活下去 19
匆 19
在做 19
紧接着 19
每一天 19
循 19
面无 19
流动 19
一夜 19
灵活 19
期待着 19
我都会 19
桌上 19
分离 19
人是 19
搞 19
认真地 19
固执 19
奖状 19
醇 19
主角 19
鲜血 19
▁不管 19
作用 19
玛 19
中国人 19
你就会 19
海边 19
旅游 19
城堡 19
微的 19
佩服 19
一次又一次 19
贤 19
满面 19
意识到 19
▁尽管 19
部分 19
▁有了 19
的小路 19
停了下来 19
散的 19
宝贵的 19
回家的路上 19
现代 19
笑笑 19
拒绝 19
顺利 19
不易 19
▁而我 19
▁总 19
一方 19
懒腰 19
听得 19
▁这里 19
更高 19
咋 19
凳 19
在自己的 19
砖 19
▁雷 19
时常 19
栏 19
以后的 19
开阔 19
斗争 19
停在 19
纪 19
深渊 19
与我们 19
的蓝 19
恐怕 19
配合 19
的女孩 19
得太 19
目的地 19
悉 19
的空气 19
小王 19
越大 19
交往 19
不大 19
在水中 19
甜美的 19
昏暗 19
亮了 19
ing 19
高贵 19
我们能 19
小孩子 19
享受着 19
流过 19
▁去年 19
美味 19
从天 19
久了 19
的皮肤 19
们也 19
正式 19
欺 19
泽东 19
到最后 19
不住的 19
碧玉 19
带上 19
在上 19
而起 19
地将 19
充满着 19
绒 19
▁苏 19
见底 19
一轮 19
河里 19
总有 19
不多 19
惆 19
饥 19
襟 19
那年 19
带走了 19
潇洒 19
虚无 19
亲人 19
还有许多 19
迅 19
长大的 19
检查 19
大家一起 19
筑 19
那个人 19
小船 19
说出 19
替 19
俱 19
将军 19
妈妈说 19
今日 19
爬上 19
老天 19
一粒 19
记者 19
蹄 19
当中 19
世上 19
伪装 19
之外 19
污染 19
薇 19
遨 19
传递 19
用脚 19
一笔 19
矛盾 19
▁你看 19
清爽 19
游乐 19
户 19
离合 19
新鲜 19
马尾 19
送来 19
悬崖 19
ò 19
的气氛 19
中年 19
言语 19
教你 19
士兵 19
得知 19
海底 19
黑暗中 19
胧 19
趁着 19
芒 19
各样的 19
雪人 19
夜的 19
无形 19
摇了摇头 19
一辈子 19
之心 19
薄薄的 19
小山 19
在你的 19
雅的 19
笼罩着 19
第三名 19
马路 19
同情 19
▁我们在 19
散发 19
▁早上 19
▁有些 19
大事 19
不满 19
点燃 19
阴影 19
发挥 19
一点的 19
这般 19
水流 19
的主 19
耶 19
你我 19
你已经 19
【 19
心脏 18
以至于 18
成了一个 18
誓 18
纪念 18
我们有 18
沉着 18
患 18
热闹的 18
活的 18
令人心 18
传来的 18
▁裁判 18
尖叫 18
只为 18
激起 18
古老 18
也想 18
光了 18
承载 18
连续 18
不够 18
出口 18
严寒 18
煤 18
这就 18
哆 18
滩 18
喝水 18
十足 18
一到 18
队在 18
一定能 18
每一个人 18
▁怎么 18
构成 18
光明的 18
▁小时候 18
▁那是 18
办公室 18
抽出 18
岛上 18
启 18
忍受 18
▁鸟 18
是一件 18
得以 18
只能在 18
敌方 18
蛮 18
相识 18
不爱 18
她就是 18
娃 18
此起 18
16 18
11 18
不完 18
的世界里 18
奔腾 18
悴 18
尸 18
大意 18
手脚 18
哧 18
着了 18
可口 18
的他 18
话说 18
攘 18
挡住了 18
了这个 18
茁 18
蜗牛 18
马上就 18
不下 18
是为 18
莎 18
时代的 18
梦想中的 18
决心 18
▁之后 18
▁相信 18
颖 18
一览 18
奇妙 18
不变 18
我们还 18
▁深 18
队友 18
地问 18
(3) 18
棕色的 18
的云 18
疏 18
实践 18
谁会 18
是人 18
是您 18
电影 18
喻 18
▁第一次 18
喧 18
已经被 18
诗意 18
赫 18
货 18
▁但是我 18
裤子 18
棱 18
乐于 18
没错 18
之所以 18
的一位 18
症 18
恶魔 18
▁他在 18
花花 18
叔 18
盏灯 18
两岸 18
顷 18
但是我们 18
我向 18
的女生 18
第二个 18
成果 18
的一种 18
只是一个 18
催 18
毫 18
夏季 18
实地 18
镶嵌 18
条件 18
又能 18
▁以前 18
评 18
依然在 18
运用 18
倒在地 18
粗心 18
刺痛 18
阳台 18
绣 18
合作 18
冲出 18
那里的 18
琪 18
逃避 18
齐心 18
咯 18
想念 18
节约 18
放开 18
胜负 18
闻到 18
协力 18
碎了 18
全国 18
追赶 18
公里 18
使我们 18
铅 18
那么多的 18
强烈的 18
快乐地 18
的梦想 18
衰 18
焦 18
睡着 18
可以说 18
而言 18
中学生 18
轮椅 18
典 18
坚守 18
延续 18
有力的 18
星球 18
僵 18
▁被 18
燃 18
平安 18
的呢 18
那一天 18
榜 18
14 18
是一颗 18
老板 18
用来 18
使命 18
永久 18
经验 18
的还是 18
大多 18
讨 18
拐 18
三三 18
走过的 18
问候 18
先是 18
的那一天 18
姑 18
情愿 18
耍 18
辈 18
翁 18
天才 18
▁幸福 18
礁 18
大眼睛 18
香甜 18
旺 18
这次的 18
你来 18
苦苦 18
妩媚 18
渗 18
▁这一次 18
来不及 18
津 18
我感到 18
预备 18
虚伪 18
古老的 18
汽 18
姿态 18
空虚 18
年代 18
了一位 18
就好了 18
颓 18
地狱 18
惊奇 18
欺骗 18
黄金 18
中考 18
楼房 17
两位 17
友好 17
彻底 17
▁远 17
遮住 17
历经 17
一束 17
人们在 17
憔 17
迎来了 17
▁既然 17
最多 17
倒是 17
鼓舞 17
当时的 17
豁 17
均 17
清新的 17
谓 17
▁唉 17
战斗 17
大家的 17
你了 17
了一大 17
律 17
茉莉 17
的夜晚 17
▁正如 17
▁吃 17
学院 17
过程中 17
眼皮 17
昼 17
▁没错 17
的树木 17
烫 17
百姓 17
不被 17
▁女孩 17
羽毛球 17
阶梯 17
叛逆 17
密密麻麻 17
朝天 17
安详 17
零零 17
讲话 17
弄得 17
画的 17
了我们的 17
咖啡 17
轻声 17
▁与 17
学生们 17
的表现 17
最后一个 17
讲述 17
的城市 17
羡 17
又说 17
姑姑 17
的主人 17
和不 17
湿的 17
三千 17
但他们 17
的后 17
忐忑 17
脑海 17
脑子里 17
橘子 17
▁俗话说 17
躺在床上 17
怎么可能 17
▁很 17
不会再 17
才会有 17
简直是 17
温柔的 17
长时间 17
峦 17
对她 17
有意义 17
大哭 17
水平 17
▁还是 17
重心 17
完后 17
是一名 17
什么都不 17
繁荣 17
尊敬 17
境界 17
窄 17
梦里 17
镶 17
多年 17
很远 17
所说的 17
▁我认为 17
就想 17
铿 17
读了 17
片刻 17
有种 17
巨人 17
平等 17
熄灭 17
蜂 17
血液 17
饿了 17
寒冬 17
金牌 17
开出 17
祖父 17
沉浸 17
过往 17
主题 17
破碎 17
变得更加 17
短暂的 17
抓紧 17
▁走 17
欣慰 17
水泥 17
颤动 17
况 17
熠熠 17
汹涌 17
就去 17
▁第三 17
年轻人 17
华丽的 17
设备 17
胡子 17
海里 17
诱惑 17
把自己的 17
秘 17
妻 17
响声 17
刻苦 17
▁同 17
一起来 17
赛场 17
芬 17
两队 17
的小孩 17
独特 17
新鲜的 17
课程 17
昧 17
放弃了 17
经得起 17
椅子 17
擂 17
也像 17
我们已经 17
▁这时候 17
关爱 17
束缚 17
他已经 17
梳 17
细的 17
在前 17
气质 17
不苟 17
人类的 17
效 17
之情 17
▁上课 17
砺 17
打破了 17
我还要 17
霖 17
淑 17
摊 17
央 17
贺 17
看不 17
亲吻 17
一堆 17
难免 17
之门 17
脚踏 17
原来的 17
妍 17
他会 17
到我的 17
平静的 17
阴沉 17
不解 17
善于 17
商 17
▁月亮 17
著名的 17
进门 17
但是他 17
见到了 17
负有 17
车子 17
时空 17
积雪 17
什么都 17
我想起了 17
看完 17
严肃的 17
感染 17
你可 17
张扬 17
得不 17
一组 17
球的 17
武器 17
相比 17
晴天 17
▁有时候 17
旅 17
和其他 17
煞 17
不错的 17
源泉 17
三四 17
地为 17
视野 17
成员 17
黎明 17
那不是 17
消失在 17
萦绕 17
斯特 17
想把 17
不一定 17
阑 17
快速地 17
▁果 17
艘 17
委员 17
怎么回事 17
国际 17
迷雾 17
有两 17
却说 17
的果实 17
探索 17
走过来 17
到了一个 17
伸出手 17
反复 17
叉 17
我已 17
踏入 17
也好 17
有谁 17
我的朋友 17
▁这场 17
▁未来的 17
过来的 17
全世界 17
珍贵的 17
半个 17
姐妹 17
叫到 17
忘记了 17
的知识 17
恶劣 17
幸好 17
楠 17
已经开始 16
水池 16
的小女孩 16
有用 16
十九 16
伤的 16
▁在那 16
▁现在的 16
饶 16
周末 16
海上 16
转过身 16
叶的 16
鞭炮 16
一件事 16
怔 16
胎 16
禾 16
中等 16
浇灌 16
交织 16
▁愿 16
钉 16
饰 16
了一道 16
振奋 16
尘埃 16
放假 16
交响曲 16
再也没有 16
扶着 16
缚 16
感觉不到 16
糕 16
容颜 16
个月 16
液 16
我一个 16
叨 16
驹 16
小学生 16
闺 16
张望 16
通的 16
那你 16
更高的 16
膝盖 16
约定 16
溶 16
我就会 16
卫生 16
离不开 16
说不定 16
不为 16
买了一 16
很好的 16
造成 16
透明的 16
涉 16
是中国 16
去寻找 16
就会有 16
是被 16
只要有 16
的少女 16
无意 16
有好 16
裙子 16
陷入 16
惭 16
暂 16
▁反 16
老头 16
黑了 16
对话 16
干嘛 16
悲剧 16
女子 16
神仙 16
朦 16
的海洋 16
年级的 16
比分 16
火花 16
是人类 16
▁顺 16
小巷 16
厅 16
古城 16
斗志 16
攻 16
漏 16
只是在 16
房屋 16
了一遍 16
寐 16
诲 16
▁时 16
急促 16
旦 16
稀疏 16
缎 16
可恶 16
在阳光下 16
蹿 16
拇指 16
表扬 16
蛾 16
在微 16
煮 16
全家 16
同时也 16
包围 16
几百 16
半个小时 16
明显 16
了一切 16
不是我 16
名利 16
毁 16
误 16
喧闹 16
胸怀 16
百分 16
丧失 16
互助 16
60 16
餐厅 16
限 16
▁我把 16
还好 16
丑陋 16
要在 16
一齐 16
定格 16
▁少年 16
济 16
随后 16
事事 16
最美丽的 16
颠 16
崭新的 16
身为 16
受不了 16
意味着 16
是一座 16
发抖 16
许多人 16
反思 16
她却 16
地对 16
懈 16
不离 16
墙上 16
天气晴朗 16
的方法 16
孩童 16
咚咚 16
一队 16
这也是 16
消逝 16
是他们 16
我永远 16
寨 16
五个 16
雕刻 16
娟 16
的一年 16
未知 16
对您 16
拍打 16
爱国 16
说得 16
长了 16
屁 16
绘 16
举着 16
羁 16
▁石 16
旅行 16
咱们 16
松树 16
还是很 16
脑子 16
讲台 16
▁接 16
传统 16
考了 16
面容 16
亲自 16
面临 16
为什么不 16
旭 16
弥补 16
▁夜晚 16
书本 16
B 16
走吧 16
我再 16
找来 16
日葵 16
满意的 16
雪球 16
十四 16
不尽 16
大部分 16
揪 16
宝贝 16
截 16
篱 16
了它 16
当然是 16
停止了 16
生活中的 16
世的 16
时节 16
像我 16
那里有 16
走出来 16
也将 16
▁出 16
灵动 16
▁亲爱的 16
仙人掌 16
喉咙 16
下山 16
的道路 16
忌 16
青少年 16
跤 16
薄的 16
就此 16
落入 16
马虎 16
深夜 16
陌生人 16
身份 16
各式 16
课的 16
请你 16
放了 16
姬 16
去看看 16
我吗 16
刑 16
做好准备 16
强壮 16
的工作 16
▁今 16
冷汗 16
炊 16
纸上 16
秋季 16
工人 16
铅笔 16
机器人 16
发言 16
▁我对 16
不绝 16
嘶 16
最大 16
自强 16
生了 16
掐 16
益 16
的人群 16
巴掌 16
蔓延 16
我只能 16
过于 16
白纸 16
带到 16
无处 16
触摸 16
信仰 16
面貌 16
节目 16
搭配 16
气愤 16
流连忘返 16
振 16
大厦 16
开得 16
辈子 16
虞 16
芦苇 16
做错 16
很容易 16
金鱼 16
仲 16
充斥着 16
规则 16
一的 16
的消息 16
看电视 16
浸 16
我们自己 16
十三 16
呆了 16
辛勤 16
依然是 16
在进行 16
高手 16
诚实 16
▁中午 16
嚷 16
为此 16
衡 16
一个好 16
侍 16
邻居 16
到处都是 16
向你 16
点儿 16
腐 16
炎热的 16
是这样 16
书的 16
的想法 16
一口气 16
的时光 16
▁一开始 15
弹钢琴 15
意味 15
传奇 15
巴巴 15
巢 15
正在进行 15
不是一个 15
无处不在 15
不知所措 15
连着 15
高楼 15
农村 15
大气 15
追寻 15
同意了 15
魁 15
▁我不知道 15
不屑 15
有三 15
堡 15
历史的 15
诸 15
榜样 15
打扫 15
入睡 15
了小 15
▁老人 15
非凡 15
是怎样 15
▁如此 15
到一个 15
援 15
应有的 15
分成 15
公园里 15
贾 15
大象 15
我与 15
体育场 15
收到 15
它们在 15
为什么会 15
蚯 15
现实的 15
分为 15
很简单 15
我们才能 15
直线 15
你的手 15
闭上眼睛 15
旱 15
填满 15
但这 15
扒 15
跟你 15
甸 15
的一幕 15
了大 15
连连 15
事实 15
坎 15
牧 15
地去 15
输给 15
寂寞的 15
他的眼睛 15
疯狂的 15
▁不久 15
在外 15
江水 15
没能 15
期末考试 15
▁不要 15
中所 15
相当 15
风采 15
▁我被 15
做准备 15
搏 15
滞 15
即便 15
凝固 15
总之 15
▁当我们 15
▁而在 15
了对 15
十七 15
以往 15
秘密 15
我们将 15
峨 15
他们都 15
飞驰 15
想知道 15
春秋 15
▁于 15
温和 15
为她 15
古朴 15
罐 15
越快 15
我所 15
让我们的 15
淡定 15
恭 15
我并不 15
对它 15
偷懒 15
正确的 15
演员 15
只得 15
从头 15
接近 15
述 15
▁放 15
说起 15
放入 15
的一部分 15
上面的 15
▁一切 15
好吃 15
在不 15
冰箱 15
重复 15
十个 15
拌 15
流露 15
的诗 15
对方的 15
淌 15
独一无二的 15
啸 15
编织 15
房间里 15
给你们 15
两个人 15
的起 15
残酷的 15
延 15
篮球比赛 15
序 15
妄 15
勉强 15
贴着 15
看到我 15
上班 15
以上 15
的马 15
百年 15
警惕 15
叽叽喳喳 15
惘 15
通向 15
喷泉 15
罩 15
的内容 15
将自己 15
▁树 15
他是一个 15
读者 15
幸运 15
吃过 15
忘却 15
家门 15
地理 15
笑道 15
水母 15
晋 15
见面 15
▁两个 15
你一定 15
下楼 15
再去 15
海浪 15
节日 15
神圣的 15
?? 15
名人 15
圆满 15
的和 15
关键 15
宁愿 15
知道自己 15
自如 15
遥遥 15
送到 15
蕴 15
坦 15
功课 15
主动 15
路人 15
产 15
珠子 15
你不知道 15
参观 15
的从 15
恐怖 15
好人 15
因为她 15
我太 15
脑后 15
万分 15
心事 15
艾 15
奔驰 15
大量 15
不定 15
它就是 15
至极 15
冲动 15
鹊 15
▁他是 15
固然 15
吝 15
的压力 15
特别的 15
那不 15
麻雀 15
胆小 15
完整 15
拿着一 15
热烈 15
辩 15
说要 15
缘分 15
这天 15
他想 15
面具 15
修养 15
回过 15
尼 15
反超 15
的动物 15
吱 15
念头 15
正常 15
的外表 15
队和 15
▁能 15
前后 15
的心态 15
女的 15
的几 15
预 15
舞台上 15
图案 15
干的 15
成熟的 15
熟睡 15
择 15
意境 15
显现 15
座位上 15
抗争 15
沙滩上 15
蓬勃 15
乱了 15
英国 15
付出了 15
蜿蜒 15
群山 15
▁. 15
与他 15
而有 15
茹 15
实际 15
从我的 15
肌肉 15
第四 15
热气 15
正义 15
银杏 15
▁我最 15
郁闷 15
火山 15
栏杆 15
人世 15
听的 15
▁子 15
绕过 15
了一张 15
毯 15
难得 15
守门员 15
眼花 15
驴 15
有人在 15
巫 15
把他们 15
一天的 15
答应 15
噩 15
告诉了 15
参与 15
联系 15
下巴 15
他了 15
的所有 15
两边的 15
屑 15
▁本 15
胸前 15
来看看 15
耕 15
有一颗 15
跃跃 15
层的 15
让我在 15
嘲讽 15
敏捷 15
同一个 15
音乐家 15
我今天 15
师生 15
小心翼翼地 15
宽广 15
雨天 15
蜘蛛 15
缝隙 15
五颜六 15
了一段 15
大脑 15
没关系 15
如画 15
浴 15
带有 15
▁学 15
关注 15
▁曾 15
这一刻 15
可怕的 15
验 15
懊 15
总结 15
而努力 15
时不 15
丝带 15
熊猫 15
链 15
细小的 15
在我们的 15
亏 15
坠落 15
渣 15
潜 15
惊呆了 15
蔡 15
起身 15
交通 15
理会 15
遮挡 15
劳累 15
体力 15
▁更 15
不远处 15
骑自行车 15
▁家 15
垠 15
经受 15
▁太 14
助人 14
的历史 14
在路上 14
脖 14
只不过是 14
动员 14
恐龙 14
在家里 14
雾气 14
吕 14
不长 14
来得 14
掩盖 14
葬 14
一路上 14
做梦 14
缓慢 14
域 14
楼上 14
兼 14
▁发 14
洪水 14
甜美 14
冒险 14
小区 14
旅程 14
▁近 14
他要 14
无所谓 14
▁看看 14
掩饰 14
的自由 14
窗帘 14
▁孙 14
▁不知道 14
黎 14
▁即使 14
有余 14
喇叭 14
仍是 14
做的事 14
不远 14
有机会 14
2011 14
也不敢 14
将要 14
你喜欢 14
莫过于 14
13 14
台下 14
放进 14
指挥 14
卧室 14
扛 14
的位置 14
准备好了 14
受了 14
胀 14
暑 14
兰的 14
矫 14
其他人 14
越来越多 14
到了最后 14
你为什么 14
兴奋地 14
磕 14
得不到 14
洼 14
高端 14
要开 14
鲜艳的 14
芙蓉 14
不是很 14
残留 14
抗 14
婴儿 14
梓 14
爱的人 14
术 14
地毯 14
奔波 14
城的 14
载着 14
倒霉 14
才可以 14
家境 14
深情 14
惊叹 14
极其 14
每一位 14
能看到 14
啥 14
紧闭 14
▁毕竟 14
基本 14
的姿态 14
▁这位 14
笑起来 14
背叛 14
误会 14
这对 14
打扰 14
之感 14
▁我的心 14
ū 14
发觉 14
这一点 14
1000 14
老鹰 14
疲 14
沟通 14
有关 14
驱 14
竟是 14
▁刚开始 14
海水 14
下定决心 14
绷 14
不让 14
好吧 14
我先 14
瘫痪 14
唠叨 14
裁 14
啄 14
一度 14
路过 14
心痛 14
卑 14
拍手 14
闹钟 14
估计 14
还有什么 14
爆炸 14
络 14
是什么样的 14
相似 14
' 14
▁欧阳 14
捞 14
颤抖着 14
她就 14
彩色的 14
我是一个 14
光滑 14
楞 14
好处 14
和大 14
上没有 14
糖果 14
早餐 14
星期六 14
万万 14
早早地 14
蓦 14
不变的 14
对此 14
不理 14
手里拿着 14
扭曲 14
澜 14
揣 14
圣洁 14
改变了 14
厌恶 14
了一把 14
著 14
只有在 14
不懈 14
诱人的 14
山坡 14
现在开始 14
从来没有 14
算了 14
赛事 14
越来越大 14
直奔 14
▁拉 14
氏 14
城墙 14
覆盖 14
精打 14
材 14
也只有 14
日出 14
当天 14
自从 14
设计 14
太湖 14
▁杨 14
发展的 14
生病 14
丢了 14
动静 14
减少 14
耐心 14
时时 14
绿洲 14
▁这一天 14
的时代 14
一个月 14
风景线 14
本领 14
基础 14
网上 14
那是一个 14
三百 14
工具 14
产生 14
最初的 14
倒下 14
毛虫 14
与人 14
是怎么 14
领导 14
儒 14
的景象 14
蚓 14
依稀 14
从他 14
便成了 14
这时候 14
一家人 14
钢铁 14
的灵魂 14
发明 14
开始的 14
每天都在 14
大道 14
刚好 14
真实的 14
伤痛 14
婴 14
懂的 14
那段 14
走走 14
司机 14
绩 14
娶 14
描写 14
这个人 14
凤凰 14
要做 14
堕落 14
▁轻 14
付出的 14
了两个 14
去年 14
▁但我 14
营养 14
的背后 14
宵 14
朴实 14
感到了 14
相伴 14
多芬 14
惊天 14
祭 14
看着她 14
道歉 14
百合 14
这两个 14
火柴 14
而你 14
然后又 14
足球比赛 14
山下 14
对我们的 14
已经是 14
咱 14
▁这么 14
好比 14
多年的 14
的环境 14
考场 14
的微 14
聆 14
现在是 14
董 14
跳动 14
倒数 14
可谓 14
打电话 14
正要 14
叙 14
泡泡 14
晚饭 14
芭 14
炫 14
肿 14
在她的 14
牛奶 14
国王 14
枕 14
▁仿佛 14
神经 14
,5 14
全新的 14
开展 14
摆脱 14
践 14
叹了口气 14
我只是 14
将其 14
韵味 14
压抑 14
对我来说 14
包容 14
了她的 14
的过程中 14
信息 14
这样说 14
喃 14
转载 14
是成功 14
或者是 14
崇 14
孔雀 14
自己去 14
然大 14
斥 14
安心 14
走过去 14
标志 14
职业 14
也越来越 14
埋怨 14
他们是 14
灰色 14
沈 14
书桌 14
▁我用 14
心爱的 14
生命中 14
上演 14
决赛 14
释放 14
太空 14
贞 14
学到 14
投向 14
驼 14
在中 14
做完 14
多次 14
厂 14
凌晨 14
英勇 14
馁 14
吸引了 14
十分钟 14
推开 14
接下来 14
四面 14
足球赛 14
囊 14
寄托 14
随之 14
现象 14
减 14
炽 14
运动场 14
脚步声 14
争夺 14
公路 14
品格 14
拯救 14
喧嚣 14
的灯光 14
▁地球 14
依旧是 14
人会 14
赴 13
40 13
睿 13
咪 13
流浪 13
点了点头 13
学家 13
传给 13
何处 13
在自己 13
▁细 13
显得更加 13
欧 13
想起来 13
匆忙 13
在最 13
送去 13
的车 13
之旅 13
中了 13
赶上 13
宾 13
这样的人 13
指着 13
冈 13
岁那年 13
回想 13
荣耀 13
总觉得 13
家家 13
空洞 13
入学 13
五颜六色的 13
▁他说 13
够了 13
独自一人 13
耿 13
人有 13
▁此刻 13
它也 13
摇头 13
廖 13
命的 13
和妈妈 13
更大的 13
邦 13
不管是 13
腥 13
▁那里 13
能否 13
用它 13
在一起的 13
后就 13
苹 13
大师 13
稻田 13
下降 13
▁世 13
▁连 13
庄稼 13
藕 13
叫人 13
▁晨 13
伸向 13
也是一 13
我爱你 13
▁走出 13
造就 13
▁地 13
庄重 13
是非常 13
良心 13
▁— 13
写了一 13
▁八 13
前一 13
乐器 13
措 13
五星 13
救命 13
▁第 13
驻 13
拎 13
水滴 13
冲破 13
在一片 13
他的脸 13
草莓 13
驾 13
还得 13
他为 13
另一种 13
景区 13
冒出了 13
在这一 13
正准备 13
从一个 13
宰 13
沃 13
意见 13
挣 13
便能 13
榆 13
古人 13
也不要 13
兢 13
比如说 13
人口 13
▁一直 13
上网 13
扫帚 13
▁我曾 13
的一句话 13
绑 13
了一块 13
撩 13
瑜 13
渝 13
在那儿 13
的被 13
侠 13
的手指 13
假装 13
蔓 13
▁其他 13
流畅 13
回了家 13
不可思议 13
▁沿着 13
地看 13
会使 13
位于 13
在心 13
宽大的 13
赞扬 13
不小 13
我的眼睛 13
▁他们的 13
突破 13
▁莫 13
大发 13
精美的 13
倾盆大雨 13
彩色 13
古典 13
说出来 13
空调 13
▁双 13
祝愿 13
萝卜 13
册 13
松鼠 13
高了 13
失败的 13
黯淡 13
无语 13
带我去 13
从小就 13
为它 13
顶着 13
犀 13
灼 13
历程 13
力和 13
最有 13
25 13
这一幕 13
》《 13
肆虐 13
我为 13
掉的 13
做饭 13
如果说 13
我十分 13
流露出 13
筷子 13
这回 13
▁离 13
晶晶 13
睹 13
稻草 13
她要 13
一见 13
是否会 13
年了 13
我们对 13
特别好 13
等于 13
朴素 13
厕所 13
庸 13
老爸 13
的气质 13
伤了 13
豆豆 13
阴暗 13
冰冰 13
你不会 13
学业 13
见我 13
距 13
创作 13
的对 13
说的话 13
右脚 13
蠢 13
还是要 13
之意 13
爱上 13
布置 13
掠 13
栩栩如 13
惺 13
绳索 13
道题 13
软弱 13
直立 13
想像 13
重要的是 13
熬 13
麻木 13
隔壁 13
征服 13
最后一刻 13
仔细地 13
达到了 13
驻足 13
当她 13
邪恶 13
栖息 13
图书 13
发烧 13
赠 13
屋子里 13
阳台上 13
保持着 13
妻子 13
问了 13
▁我一直 13
散去 13
守卫 13
我们的生活 13
炒 13
说她 13
▁比如 13
借着 13
块钱 13
又是一 13
在意 13
石榴 13
却很 13
我有点 13
这道 13
自己所 13
声和 13
消息 13
的是一个 13
在乎 13
可不是 13
我只想 13
归于 13
的快 13
已然 13
方面 13
看法 13
让人们 13
密布 13
讲解 13
昌 13
太大 13
会说 13
不来 13
尘土 13
理想的 13
越多 13
市的 13
辨 13
木头 13
植 13
卷起 13
设施 13
继续努力 13
身处 13
棕 13
陡 13
生于 13
一架 13
柜 13
▁半 13
帮助下 13
如果我 13
战胜了 13
牵着 13
▁在我们 13
的痛苦 13
让别人 13
勉 13
和尚 13
柄 13
小镇 13
▁温 13
的一只 13
以求 13
诠释 13
痛哭 13
眼底 13
人一样 13
荆棘 13
代表着 13
雷鸣 13
胭 13
捕 13
诉说 13
自拔 13
植物园 13
拐杖 13
做过 13
这让我 13
崩 13
下有 13
▁鸟儿 13
躺着 13
气喘吁吁 13
筝 13
赋 13
愈加 13
姗 13
岸边 13
天然 13
陪着 13
进取 13
呈现 13
小屋 13
有几个 13
角度 13
男孩的 13
遵守 13
她想 13
钓鱼 13
荡荡 13
激发 13
▁跑 13
面子 13
屹 13
曲子 13
▁手 13
憾 13
自有 13
法的 13
拥有的 13
誉 13
一切都是 13
大风 13
相继 13
在中国 13
蚊子 13
w 13
梦境 13
和一个 13
神话 13
灯笼 13
水和 13
猛烈 13
秒钟 13
妇女 13
寻求 13
钢笔 13
子弹 13
女孩子 13
ó 13
▁如果我 13
阻止 13
鲜明 13
的全 13
▁父母 13
这段 13
原则 13
庆幸 13
丝毫 13
沉寂 13
个大 13
嫦娥 13
回来的 13
明星 13
你对 13
三月 13
遭遇 13
▁很多 13
得的 13
沦 13
▁以后 13
一发 13
的野 13
大叔 13
你知道吗 13
的变化 13
传出 13
把我的 13
自立 13
读到 13
输给了 13
雷电 13
光荣 13
▁何 13
胸口 13
猎物 13
鱼的 13
变换 13
还很 13
徨 13
和他的 13
创新 13
想要的 13
人来 13
的名 13
谁的 13
让您 13
衷 13
游荡 13
回旋 13
面孔 13
掉以轻心 13
对小 13
震耳 13
鸭子 13
黯然 13
在我身上 13
奇怪的 13
这几 13
跌倒 13
肯定会 13
~ 13
是由 13
要不要 13
绕着 13
弧度 13
▁今年 13
▁女 13
一处 13
秋冬 13
革 13
你最 13
安逸 13
留着 13
▁这是我 13
严重 13
被称为 13
坏的 13
坝 12
村民 12
因为我的 12
生态 12
两年 12
视为 12
洲 12
骆驼 12
刃 12
他的手 12
的热情 12
深入 12
我应该 12
你会发现 12
打个 12
试试 12
▁可能 12
巨大 12
他便 12
24 12
讲的 12
坏习惯 12
仍在 12
正确 12
使它 12
不仅仅 12
▁说起 12
胡须 12
我看着 12
或许是 12
的青春 12
几位 12
亿 12
也变得 12
蹲在 12
列车 12
绝不 12
锤 12
之以 12
该怎么办 12
不耐烦 12
促 12
文人 12
聆听 12
在一边 12
怪物 12
去世 12
问题的 12
一号 12
所有人的 12
▁虽 12
闻名 12
滚动 12
▁所有 12
生意 12
四方 12
凸 12
他被 12
敛 12
树立 12
清洁工 12
面目 12
变为 12
依次 12
心上 12
锻 12
交到 12
听听 12
玫瑰花 12
随手 12
挣脱 12
都是在 12
将成为 12
怜悯 12
四射 12
哭着 12
担当 12
一篇 12
又去 12
所在 12
检 12
太小 12
之母 12
宏 12
屏幕 12
人了 12
相连 12
极为 12
交给 12
加了 12
戈 12
最快 12
▁的确 12
啤酒 12
纵横 12
单词 12
跳出 12
必然 12
勃 12
▁偶尔 12
是怎样的 12
携 12
而被 12
一顿 12
能量 12
从天上 12
想什么 12
腾飞 12
寥 12
全程 12
做好了 12
▁进入 12
砂 12
没有一点 12
心来 12
勺 12
只有一次 12
嘘 12
很喜欢 12
的一块 12
挡住 12
主持 12
面对着 12
这个地方 12
这个项目 12
专注 12
整洁的 12
我的母亲 12
对比 12
珍贵 12
是天 12
胃 12
在此 12
来的时候 12
杭 12
合唱 12
不给 12
在下 12
不仅是 12
匠 12
处在 12
巧克力 12
呗 12
委 12
▁龙 12
时分 12
不快 12
背景 12
的一切都 12
精神的 12
不信 12
眈 12
岁了 12
(5) 12
锅里 12
优点 12
深了 12
她会 12
大战 12
结实 12
鹏 12
夹杂 12
吱吱 12
三年的 12
▁当他 12
引领 12
制造 12
▁跟 12
共享 12
以前一样 12
那么大 12
星期天 12
反驳 12
园丁 12
大赛 12
老人的 12
开车 12
啬 12
忧虑 12
太多了 12
很累 12
拍了 12
手术 12
日光 12
▁东 12
说说 12
月球 12
先把 12
▁今天的 12
更像 12
蟹 12
容貌 12
了这一 12
带你 12
葫芦 12
学习中 12
有一块 12
过分 12
我到 12
来形容 12
封信 12
一世 12
个头 12
漆黑的 12
头皮 12
上还 12
藏着 12
流出 12
你这 12
水上 12
跑来 12
苔 12
瞥 12
伙 12
鼓起 12
自动 12
▁文 12
漾 12
桂林 12
旗帜 12
我的小 12
▁纵 12
已成为 12
上前 12
脱俗 12
心存 12
她一 12
我来说 12
大大 12
椅上 12
▁陈 12
竞 12
组的 12
睁开眼睛 12
骑士 12
神秘的 12
讽刺 12
下子 12
遭受 12
几分钟 12
名为 12
升华 12
的情况下 12
曾在 12
突出 12
大力 12
人群 12
噪 12
营 12
邀 12
▁世界上 12
期待的 12
身体的 12
指导 12
绝望的 12
▁草 12
手拿 12
前去 12
尤其是 12
他还是 12
称为 12
数的 12
提到 12
的生物 12
仔 12
公子 12
但不 12
乙 12
艰 12
▁孩子 12
之人 12
拖着 12
比你 12
滔滔 12
▁鲁 12
贯 12
捡起 12
▁我开始 12
缘故 12
旅途 12
,《 12
树林中 12
两侧 12
来到这里 12
战场 12
两个小 12
的女儿 12
▁静 12
残疾 12
之美 12
喃喃 12
却依然 12
了你的 12
锵 12
峡谷 12
背后的 12
馋 12
氛围 12
是非 12
蔽 12
拥挤 12
好不好 12
询问 12
不起来 12
正值 12
慵 12
▁西 12
参加的 12
磅 12
的重要 12
上空 12
▁喜欢 12
伸展 12
长出 12
特殊的 12
照样 12
一些人 12
201 12
错过了 12
我跟 12
还有些 12
所说 12
▁这是一个 12
有些人 12
李明 12
规律 12
呻 12
吃不 12
毅然 12
打的 12
伴奏 12
难的 12
峭 12
电视剧 12
碍 12
了一份 12
哒 12
关键时刻 12
写照 12
捷 12
被他 12
也说 12
终生 12
多多 12
不忍 12
记忆犹 12
更深 12
统 12
搂 12
未曾 12
环绕 12
丘 12
的可能 12
行了 12
身体健康 12
自言自语 12
只是为了 12
就是你 12
姜 12
人对 12
六个 12
数不清 12
酿 12
午后 12
相间 12
上讲 12
长辈 12
不该 12
宠 12
节俭 12
忽略 12
顶端 12
嘟嘟 12
▁各 12
请教 12
终身 12
心房 12
的品质 12
通知 12
的存在 12
口的 12
的一笔 12
之处 12
王国 12
欢快 12
室里 12
没办法 12
在为 12
顽强的 12
至于 12
爪子 12
那块 12
目的是 12
螺 12
美女 12
河中 12
游记 12
杖 12
可以是 12
擦肩而过 12
引导 12
▁晚 12
地板 12
彷 12
成群结 12
漫长的 12
传遍 12
▁第二个 12
目不 12
健壮 12
妇 12
昆虫 12
他人的 12
涕 12
被打 12
这只是 12
惋惜 12
诧 12
略带 12
实在是 12
腻 12
语气 12
桥上 12
本身 12
良好 12
直至 12
拉开 12
都非常 12
重点 12
就不能 12
家人的 12
表面 12
返回 12
它没有 12
老的 12
压迫 12
这也 12
▁、 12
大量的 12
等人 12
印记 12
优雅的 12
平衡 12
苟 12
上车 12
鸽子 12
走上了 12
我当时 12
柯 12
少林 12
他就是 12
谣 12
一生的 12
未知的 12
在高 12
摩托车 12
乔 12
埋在 12
徽 12
就是我们 12
幼儿园 12
布条 12
举手 12
平和 12
这是一个 12
嚎 12
的父亲 12
帅气 12
遂 12
肖 12
粉的 12
爆发 12
引人注目 12
你所 12
21 12
带走 12
▁平 12
愤怒的 12
▁海伦 12
买的 12
更能 12
禹 12
散文 12
素的 12
真理 12
星的 12
避免 12
最为 12
烟火 12
▁一位 12
荒漠 12
矗立 12
叶片 12
公园的 12
耸立 12
冀 12
果树 12
潮水 12
站立 12
屏住呼吸 12
低落 12
尴尬 12
可以说是 12
百万 12
这一生 12
面包 12
丝毫不 12
着一股 12
厌烦 12
做的事情 12
铆 12
肌肤 12
在与 12
养育 12
身的 12
喜欢它 12
▁很快 12
豪华的 12
中的小 12
一分钟 12
脚上 12
▁这句话 12
摸摸 12
旧的 12
的意思 12
是最好的 12
等候 12
满的 12
成为一名 12
报了 12
吃惊 12
钉子 12
平的 12
19 12
叫喊 12
疫情 12
的四 12
▁一个人 11
问他 11
巧的 11
万人 11
愉 11
租 11
已在 11
可望 11
大多数 11
注重 11
嫉妒 11
回去了 11
仆 11
一大早 11
换了 11
例子 11
些什么 11
掉落 11
▁我真的 11
书法 11
想让 11
我们没有 11
眶 11
摔跤 11
在那个 11
他们也 11
满心 11
摧毁 11
嗓 11
活得 11
成一个 11
携手 11
会很 11
ō 11
摩擦 11
窗口 11
颜料 11
下方 11
肌 11
你的爱 11
维持 11
▁未 11
疯狂地 11
早点 11
嗡嗡 11
我就要 11
半夜 11
光环 11
狱 11
也从 11
卓 11
▁祝 11
困境 11
的那个 11
我的梦想 11
他和 11
把它们 11
游人 11
吃东西 11
妮 11
垫 11
优势 11
上来了 11
袁 11
大大小小的 11
ai 11
大衣 11
小时的 11
话来 11
这本 11
在海 11
松开 11
但没有 11
黑衣 11
▁松 11
很想 11
▁整 11
就象 11
▁可以 11
其它的 11
点亮 11
波澜 11
一周 11
地图 11
花纹 11
款 11
绞 11
同胞 11
深处的 11
说自己 11
喘息 11
▁飞 11
惊醒 11
摸索 11
桃子 11
从事 11
内在 11
穗 11
葵 11
芍 11
更显 11
承诺 11
▁万 11
她很 11
躲避 11
打起 11
筱 11
没完 11
最快的 11
玫 11
了一名 11
躬 11
塑 11
自己没有 11
网吧 11
那以后 11
坐车 11
毛泽东 11
差距 11
猜测 11
手掌 11
呦 11
▁其 11
无论是 11
屋顶 11
消散 11
举止 11
▁我从 11
不与 11
出血 11
我们用 11
往常 11
摩天 11
婶 11
霍金 11
参赛 11
萎 11
也无 11
疾病 11
就该 11
吃掉 11
病毒 11
群的 11
一样在 11
抵挡 11
僵硬 11
已不再 11
▁香 11
引起 11
培育 11
▁九 11
▁那时候 11
适合 11
为人们 11
着迷 11
足球场上 11
雨后 11
您好 11
而且还 11
了一半 11
之势 11
大胆 11
▁例如 11
什么的 11
得到的 11
各自的 11
生病了 11
纸条 11
但是他们 11
城市的 11
一点都不 11
这么说 11
行驶 11
就有了 11
诞生 11
低的 11
跟随 11
应当 11
但他没有 11
感到很 11
肝 11
田里 11
我们终于 11
四大 11
生长在 11
▁对方 11
三人 11
你现在 11
即将结束 11
即使在 11
罪恶 11
冶 11
他们不 11
辟 11
▁我刚 11
在夜 11
血的 11
下腰 11
夫人 11
写到 11
日落 11
蕉 11
捣 11
都不知道 11
禁不住 11
的同 11
弹奏 11
一起玩 11
动画片 11
喝了 11
也非常 11
学到了 11
的字 11
标准的 11
分手 11
樟 11
掀起 11
爱与 11
一千 11
他们就 11
也不再 11
点滴 11
上说 11
残忍 11
守候 11
不朽 11
尺子 11
看到的是 11
沉淀 11
桌子上 11
精力 11
看清 11
嚓 11
奖品 11
搅 11
可以把 11
来讲 11
正当 11
我的父亲 11
▁我们都 11
拿出了 11
真切 11
称号 11
你不能 11
依赖 11
高飞 11
丢弃 11
哲学 11
写字 11
跨越 11
卑微 11
优良 11
地笑 11
介 11
有限的 11
的行为 11
反抗 11
墙壁 11
足迹 11
虽说 11
恢复 11
杉 11
▁这是一 11
▁任 11
忙着 11
还是没有 11
我们现在 11
高处 11
炉 11
围绕 11
三国 11
吁 11
而生 11
口中 11
近视 11
就让 11
不知道为什么 11
过多久 11
兜 11
理的 11
▁季 11
无知 11
喜爱的 11
这里有 11
山谷 11
这些都是 11
御 11
四川 11
心生 11
失败了 11
傲慢 11
椅子上 11
条的 11
学子 11
我问 11
两根 11
绿水 11
黑白 11
宝贵 11
▁但他 11
齐声 11
▁人类 11
怒火 11
左脚 11
俭 11
连接 11
洞口 11
预示着 11
心愿 11
综合 11
本人 11
六十 11
赛道 11
睡不着 11
岩石 11
时机 11
的态度 11
在雨中 11
小声 11
这一个 11
政治 11
竭 11
冷清 11
蜀 11
闷热 11
▁她在 11
而出的 11
放到 11
身心 11
似是 11
孤独的 11
观光 11
姆 11
公鸡 11
几个月 11
风在 11
郁郁 11
难怪 11
伫 11
发球 11
一共 11
光秃 11
一来 11
衔 11
太慢 11
在树上 11
交错 11
完毕 11
你的心 11
如果不 11
的男人 11
博大 11
尽量 11
遍地 11
去参加 11
于心 11
哩 11
南方 11
第一天 11
成人 11
但是它 11
是她的 11
安静地 11
打架 11
也曾 11
发起 11
霓虹 11
希望能 11
不一定要 11
以待 11
身在 11
的能力 11
高尚 11
▁都 11
k 11
万一 11
茅 11
内的 11
我无法 11
还算 11
45 11
了三 11
▁大家都 11
跳到 11
出现了一个 11
进行着 11
袋子 11
扇子 11
送给 11
法律 11
细心 11
比我们 11
▁这样的 11
最深 11
歌词 11
你呢 11
碎片 11
斧 11
尽快 11
昭 11
到这里 11
攻击 11
夜间 11
膝 11
的事物 11
地发现 11
宣传 11
象征 11
富贵 11
▁我叫 11
一年的 11
银色的 11
果园 11
▁望 11
▁米 11
的响声 11
耗 11
性命 11
方便 11
莫及 11
渐行 11
篇章 11
▁我看到 11
封建 11
▁总之 11
车站 11
数字 11
珊 11
的出现 11
家门口 11
英俊 11
液体 11
挥舞 11
掬 11
骨头 11
你又 11
的女人 11
洗澡 11
每人 11
换上 11
不了的 11
翻身 11
▁真的 11
辆 11
受益 11
妥协 11
当年的 11
人去 11
▁空 11
▁身 11
也只能 11
悠长 11
生气了 11
▁萧 11
进球 11
特殊 11
我们还是 11
这幅 11
姹 11
评价 11
一中 11
痛的 11
心动 11
例如 11
我曾 11
回应 11
颜色的 11
迷惑 11
伶 11
神奇的 11
我去了 11
的对手 11
▁每当我 11
吮吸 11
也为 11
之外的 11
吆 11
晰 11
峻 11
憨 11
这些人 11
新一 11
疆 11
资源 11
甚至是 11
而来的 11
是否有 11
酒店 11
的责任 11
▁作为 11
这几天 11
他去 11
咳 11
岔 11
杜 11
单调 11
▁听说 11
自古 11
都不能 11
柔和的 11
管理 11
受伤了 11
an 11
出汗 11
各有 11
▁华 11
汲取 11
爱因斯坦 11
这两 11
银色 11
微不足道 11
都用 11
学习成绩 11
我们很 11
我正在 11
核桃 11
企业 11
居住 11
恋爱 11
全年 11
田间 11
运动服 11
▁台 10
玉米 10
作出 10
▁理想 10
宠物 10
壮观的 10
蕴含 10
天安 10
▁竹 10
瞅 10
廷 10
坏人 10
会让你 10
赐 10
敲击 10
留念 10
保证 10
罚 10
一帆风顺 10
轰鸣 10
便开始 10
明了 10
使她 10
几条 10
街道 10
环境的 10
▁会 10
龄 10
凭着 10
人人 10
欢乐的 10
愈发 10
冲刷 10
谈论 10
牢牢 10
的开 10
比以前 10
日在 10
颁奖 10
压制 10
标准 10
开幕式 10
花粉 10
百分之 10
能把 10
交易 10
涧 10
崇拜 10
会让 10
有空 10
措手不及 10
漂浮 10
自卑 10
换来 10
▁中华 10
尹 10
夸奖 10
传授 10
共同努力 10
个孩子 10
协 10
在他身上 10
取得成功 10
心惊 10
下场 10
▁车 10
交响乐 10
昔 10
瓶子 10
咀嚼 10
淋漓 10
放出 10
不公平 10
干干净净 10
棚 10
秧 10
是十分 10
课后 10
带领下 10
新奇 10
▁体育 10
▁坚持 10
散落 10
把人 10
不愿意 10
▁它是 10
贵族 10
80 10
禁止 10
他可以 10
体的 10
一字 10
庄严 10
饥饿 10
可谓是 10
我们却 10
毛茸茸 10
开始在 10
卵石 10
已经有 10
踏上了 10
惊人的 10
去世了 10
沸 10
竟然是 10
电子 10
村里 10
▁。 10
我们不能 10
认识到 10
燃烧的 10
在这儿 10
流动的 10
向人们 10
皮球 10
我得 10
踢球 10
捶 10
放学后 10
小张 10
阴霾 10
摄 10
亲密 10
剪刀 10
来之 10
证明了 10
陋 10
热火 10
的语言 10
地震 10
安宁 10
出水 10
年中 10
天哪 10
人所 10
相同 10
您对 10
可以用 10
人不 10
并未 10
▁多少 10
这封信 10
技能 10
拍拍 10
墨水 10
成年 10
对面的 10
一个是 10
窒息 10
衣着 10
车在 10
▁翻 10
语中 10
边说 10
和睦 10
足足 10
水是 10
转到 10
淹 10
庞大的 10
就一直 10
惑 10
的大脑 10
打工 10
后腿 10
显眼 10
对的 10
▁正是 10
对自己的 10
保护环境 10
一是 10
先后 10
技巧 10
我吧 10
人员 10
地区 10
咸 10
不稳 10
也比 10
甚至连 10
琉 10
他才 10
就用 10
的自 10
但是却 10
不失 10
开始时 10
▁个 10
指甲 10
快速的 10
偻 10
就来 10
运动项目 10
衬衫 10
不好的 10
回想起 10
我曾经 10
驱散 10
金子 10
制作 10
▁等到 10
服装 10
▁受 10
但是她 10
真是个 10
▁紫 10
▁你在 10
有意思 10
不通 10
创伤 10
交换 10
障碍 10
却有 10
干了 10
延伸 10
另一只 10
都不敢 10
基石 10
它可以 10
收藏 10
竞选 10
咯咯 10
山西 10
找个 10
▁我们应该 10
最终还是 10
写下了 10
消耗 10
很多的 10
见证了 10
括 10
放纵 10
蜡 10
交谈 10
的一条 10
有一份 10
期末 10
但我还是 10
暂时 10
缥缈 10
的手臂 10
凭借 10
旅途中 10
世俗 10
手下 10
带到了 10
材料 10
商量 10
国家的 10
慷慨 10
让自己的 10
人心的 10
袋鼠 10
盒子 10
艇 10
不敢相信 10
更多的是 10
和人 10
年老 10
长期 10
开头 10
印象深刻 10
能让 10
不忘 10
连衣裙 10
翻转 10
瘫 10
觅 10
也是如此 10
▁上帝 10
锄 10
爱好 10
蓬松 10
口味 10
隐藏 10
带动 10
灯泡 10
想和 10
一套 10
依恋 10
支柱 10
乐乎 10
温泉 10
▁好了 10
这是我的 10
高雅 10
所能 10
也随之 10
称赞 10
年年 10
帐 10
窥 10
艰难的 10
喝茶 10
惊险 10
头是 10
将在 10
的理由 10
保卫 10
了这些 10
进攻 10
只在 10
俗话说 10
相对 10
丈夫 10
倔 10
引人注 10
地讲 10
五年 10
有一对 10
扩大 10
走过了 10
全体 10
的一名 10
科目 10
想不到 10
京 10
我的爱 10
不走 10
男女 10
长久 10
话语 10
无愧 10
何况 10
正直 10
砌 10
推荐 10
讲故事 10
丐 10
头戴 10
▁假 10
放慢 10
腆 10
说再见 10
/ 10
婚 10
特意 10
高度 10
毁灭 10
结尾 10
的尽头 10
轰轰 10
访 10
上一个 10
惊慌 10
的性格 10
貌似 10
器材 10
乡下 10
的伟大 10
你一 10
籍 10
别墅 10
飞出 10
是无法 10
▁一张 10
仪式 10
靡 10
这个世界上 10
可以看出 10
就等于 10
▁首先是 10
其实是 10
请求 10
▁因为我 10
孩子们的 10
糊涂 10
时尚 10
提到了 10
三个人 10
一栋 10
赛场上 10
在手 10
的人类 10
漫画 10
其他的 10
启示 10
不公 10
外地 10
中小 10
捐 10
村庄 10
想象的 10
交给了 10
的一份 10
冒出 10
了一种 10
产生了 10
就像在 10
霉 10
河岸 10
了一颗 10
家庭的 10
就是因为 10
才华 10
佳人 10
展现在 10
集合 10
明珠 10
组成的 10
都具有 10
相反 10
讽 10
这是我们 10
▁好像 10
分析 10
萍 10
▁考 10
书写 10
晓明 10
号角 10
大陆 10
做些什么 10
纠结 10
祝贺 10
下坡 10
镜头 10
来时 10
誓言 10
非常好 10
震惊 10
但现在 10
的感情 10
聪明的 10
的事实 10
瞄 10
不放 10
礼仪 10
解放 10
果子 10
实际上 10
稳稳 10
也开始 10
读过 10
盾 10
en 10
掏 10
伴随 10
种的 10
从没 10
呕 10
白马 10
考上 10
雪地 10
蟋 10
步步 10
刑警 10
乏 10
结构 10
主人公 10
小李 10
严格 10
签 10
她不 10
摇摇头 10
棒了 10
会把 10
我决定 10
腑 10
建立 10
越是 10
▁赛 10
做错了 10
烛光 10
病房 10
提前 10
部队 10
步行 10
上门 10
收集 10
拿出来 10
请不要 10
蘑菇 10
焕 10
绰 10
华夏 10
在后 10
后果 10
总是会 10
掉下来 10
酸的 10
在社会 10
▁银 10
贬 10
你再 10
的那样 10
愚 10
狸 10
从现在 10
了不起 10
栖 10
在人 10
傅 10
感触 10
拉到 10
涤 10
这篇文章 10
一台 10
洗衣 10
肥沃 10
坦然 10
塑造 10
闪亮 10
碑 10
吃得 10
催促 10
出手 10
秒的 10
我们必须 10
外国 10
都会有 10
18 10
▁昨天 10
热情的 10
下去的 10
▁经 10
髻 10
而降 10
▁正在 10
秀丽 10
民间 10
▁新的 10
瞄准 10
大楼 10
大厅 10
再也不会 10
都已经 10
▁我方 10
发力 10
傻子 10
时就 10
等了 10
曰 10
▁灵 10
先进 10
考试成绩 10
发生在 10
而现在 10
的真 10
味地 10
相依 10
跟他 10
生命中的 10
据 10
早有 10
D 10
观的 10
这篇 10
琼 10
家里的 10
我的话 10
两次 10
▁余 10
若无 10
情侣 10
吃饱 10
红线 10
问她 10
矜 10
能将 10
欠 10
雷声 10
直下 10
将他 10
对战 10
贼 10
的重要性 10
下去了 10
埋头 10
复兴 10
缰 10
饮 10
要走 10
拿来 10
过一个 10
偶像 10
点钟 10
贴在 10
颇有 10
还真 10
▁) 10
比的 10
长袍 10
趣事 10
蒂 10
阵风 10
挖掘 10
▁至于 10
如果我们 10
骄傲的 10
▁同样 10
会像 10
上面写着 10
各异 10
给人们 10
中带 10
邓 10
煎熬 10
多种 10
美味的 10
当做 10
冲到 10
你应该 10
件事情 10
痣 10
取代 10
接到 10
抹去 10
▁你知道 10
就知道 9
X 9
包含 9
下面的 9
按照 9
日是 9
把这些 9
重大的 9
不光 9
情节 9
就是为了 9
的低 9
我听 9
而活 9
长大后 9
增长 9
▁自己 9
你的人 9
也应该 9
向她 9
我要去 9
Y 9
景观 9
风声 9
充足 9
看不起 9
房里 9
飒 9
而他 9
晨曦 9
天赋 9
贱 9
▁天气 9
逃离 9
雕像 9
800 9
丢掉 9
自己想 9
太难 9
老年 9
不过了 9
蠕 9
老是 9
烧烤 9
地说道 9
低声 9
的道路上 9
礼服 9
捐款 9
看她 9
▁游戏 9
莫名其妙 9
翻滚 9
乓 9
▁世界 9
藉 9
成群 9
的都是 9
还需要 9
多远 9
打动了 9
这三 9
叫道 9
困难和 9
偌 9
猜想 9
恢复了 9
也只是 9
▁今天下午 9
附近 9
状的 9
之手 9
的英雄 9
希望在 9
恰好 9
之物 9
一击 9
鄙视 9
他认为 9
黝 9
将是 9
凭什么 9
浮躁 9
杰作 9
敦 9
它还 9
的刘 9
自我的 9
憎 9
沮丧 9
之后的 9
抛开 9
来临时 9
的人说 9
勾勒 9
见状 9
打造 9
心怀 9
的男孩 9
的人来说 9
能不能 9
主义的 9
寺庙 9
幕降临 9
饭后 9
物质 9
粉丝 9
杀了 9
▁去 9
冲进 9
敌人的 9
极大的 9
超越了 9
力量的 9
安妮 9
物品 9
装满了 9
▁在我看来 9
养成 9
弟子 9
澡 9
一波 9
▁许多 9
昨晚 9
有不同的 9
寻觅 9
肯定是 9
淹没 9
践踏 9
▁唐 9
一幕 9
求你 9
叫他 9
灵感 9
跟前 9
和我的 9
保安 9
▁待 9
顽 9
惶 9
衣裙 9
自身的 9
入场 9
共有 9
隧道 9
泳 9
▁上次 9
的痕迹 9
笔记 9
崎 9
▁从前 9
叼 9
眼球 9
赞同 9
园林 9
重庆 9
毫不犹豫地 9
从这 9
而是在 9
向上的 9
轻蔑 9
▁军 9
求救 9
敏感 9
我也会 9
得起 9
羞愧 9
唠 9
不会在 9
三七 9
跑出 9
植树 9
溺 9
▁表 9
沓 9
▁毛 9
的汽车 9
赋予 9
初级 9
物体 9
棕色 9
似乎是 9
家务 9
吸收 9
团的 9
演唱会 9
花盆 9
粟 9
点多 9
让你的 9
都不是 9
到底是 9
可在 9
节的 9
应是 9
哪怕是 9
让世界 9
漂流 9
到你 9
开放的 9
也更 9
走得 9
地球上 9
这是一种 9
是吗 9
耻辱 9
踮 9
清晰的 9
无需 9
最快的速度 9
皇宫 9
必须要 9
黄瓜 9
只需要 9
其中一个 9
沙发上 9
▁似乎 9
籽 9
玩游戏 9
娓 9
厚重的 9
很有趣 9
记载 9
是用来 9
▁我有 9
光泽 9
恍惚 9
细长 9
牡 9
忍耐 9
枚 9
水分 9
乞 9
下令 9
有限 9
我妈妈 9
双方的 9
滕 9
堪 9
足球场 9
的口号 9
究 9
酷暑 9
本文 9
蛛 9
丰满 9
与其 9
跟上 9
库 9
和你一起 9
做好了准备 9
▁船 9
近的 9
每年 9
就在眼前 9
夺得 9
演出 9
惊艳 9
跟我说 9
金山 9
足够 9
轮到 9
赶忙 9
我们才 9
蔬菜 9
感觉很 9
不正 9
靥 9
公平 9
厌倦 9
工厂 9
相爱 9
杯子 9
农夫 9
的游戏 9
在河 9
军人 9
想说 9
的两个 9
装备 9
最重要 9
我们知道 9
班和 9
对人 9
受到了 9
也不错 9
越过 9
凝视 9
他很 9
能为 9
当他们 9
需要我们 9
嫁 9
质的 9
招呼 9
大火 9
,3 9
橡皮 9
较量 9
乒乓球 9
还有一些 9
不在意 9
我们开始 9
肮脏 9
粮食 9
纂 9
培 9
主人的 9
地平线 9
到学校 9
隆隆 9
冰淇淋 9
不清楚 9
说这 9
山东 9
睡在 9
观点 9
▁她是 9
有序 9
街道上 9
漓 9
在它的 9
居民 9
手法 9
熊熊 9
权利 9
▁我非常 9
嘀 9
的男子 9
上过 9
拜访 9
要不是 9
大吃一惊 9
简直就是 9
起飞 9
▁苹果 9
时有 9
太好 9
奴 9
接受了 9
看好 9
微弱 9
下雪 9
嚼 9
▁童 9
坚决 9
又把 9
赌 9
如愿 9
▁他那 9
也可能 9
噢 9
只是想 9
▁紧接着 9
它将 9
▁从小 9
然后把 9
浙 9
最伟大的 9
全球 9
是什么呢 9
因为这 9
重叠 9
灌溉 9
上方 9
王朝 9
个人的 9
鱼缸 9
洗涤 9
盖上 9
襄 9
哭声 9
新生 9
这张 9
▁将 9
砍伐 9
侵袭 9
净化 9
保留 9
分之一 9
将她 9
整洁 9
吵架 9
酥 9
国旗 9
是一把 9
这部 9
许愿 9
▁再说 9
侯 9
线条 9
缺陷 9
氧气 9
孔子 9
一派 9
来吧 9
并肩 9
西安 9
游乐园 9
不难 9
纪律 9
震惊了 9
▁跑步 9
熟练 9
空旷 9
时在 9
得住 9
指责 9
大半 9
不受 9
歉意 9
捕食 9
淘汰 9
与她 9
凝结 9
需要的 9
多人 9
四肢 9
▁男孩 9
鑫 9
健康的 9
住宿 9
人大 9
结识 9
鲜活 9
高挑 9
叫你 9
提起 9
玩得 9
戚 9
凹 9
仇恨 9
天文 9
塑料袋 9
的酒 9
核 9
他们会 9
▁我记得 9
是好 9
煌 9
▁每一次 9
就只有 9
发射 9
优越 9
的是什么 9
稍稍 9
见她 9
聚在一起 9
结晶 9
服务 9
很紧张 9
公布 9
国度 9
打动 9
因而 9
偷偷地 9
作斗争 9
给学生 9
▁可惜 9
脚的 9
▁眼睛 9
我们已 9
岁的小 9
直流 9
走动 9
凳子 9
的冰 9
不要再 9
也使 9
传承 9
笼罩在 9
冲冲 9
而后 9
的天气 9
这让 9
自大 9
展望 9
转变 9
呼喊 9
理解的 9
删 9
军事 9
钻石 9
向他们 9
区别 9
人格 9
围墙 9
亲近 9
瑾 9
烽 9
他不知道 9
蚁 9
做得 9
制度 9
考虑 9
荔枝 9
碾 9
狰狞 9
心目中的 9
不休 9
没有一个人 9
创造出 9
最后一次 9
期中 9
她没有 9
不会有 9
杠 9
发生的事 9
有味 9
运气 9
然后就 9
▁我是一个 9
层楼 9
议 9
代价 9
斌 9
疑问 9
诱 9
行程 9
另一边 9
撮 9
摇摇 9
妈的 9
袜 9
鼓起勇气 9
迷宫 9
了他们 9
而感到 9
都无法 9
见识 9
树荫 9
内部 9
花都 9
要和 9
摆在 9
尸体 9
坟 9
有位 9
造成的 9
那几 9
遐想 9
的钱 9
你和 9
谈起 9
而奋斗 9
磨灭 9
妈妈在 9
蛋黄 9
松软 9
穿透 9
太久 9
上一层 9
像他 9
我每天 9
17 9
▁往 9
形态 9
一段时间 9
反对 9
专业 9
人意 9
高科技 9
剧烈 9
留给 9
视觉 9
发自 9
▁同时 9
,( 9
可以做 9
没有人能 9
那头 9
不同于 9
参加比赛 9
的身材 9
一本书 9
不可及 9
经济 9
纠缠 9
她还 9
的一个小 9
精华 9
前途 9
褐色 9
张开双臂 9
越过了 9
越高 9
山羊 9
过来了 9
在哪里 9
男人的 9
还不是 9
滋养 9
▁千 9
的这 9
摇篮 9
的任务 9
还是一个 9
蜷 9
人性 9
崇高 9
不应 9
盟 9
挽留 9
排练 9
员的 9
雨季 9
规矩 9
不仅仅是 9
花生 9
不高兴 9
流失 9
▁这里的 9
特长 9
靓 9
▁森林 9
稠 9
} 9
酷热 9
到大 9
妖娆 9
用一个 9
萤 9
折不 9
哪一个 9
▁一只 9
蒜 9
高级 9
筐 9
有一张 9
▁久 9
埋葬 9
唧 9
使他们 9
鄙 9
都想 9
的世界中 9
在其中 9
会对 9
咛 9
谁在 9
忠诚 9
▁江 9
蜿 9
在他们 9
着她的 9
篇文章 9
都有一个 9
这么大的 9
轮廓 9
帮助我 9
牌子 9
压在 9
可以使 9
量的 9
领悟 9
的要 9
畜 9
了些 9
eng 9
的象征 9
指向 9
赞赏 9
晌 9
醒悟 9
▁想想 9
好几个 9
满载 9
▁教师 9
都比 9
一切的 9
袭击 9
反射 9
说的是 9
这点 9
奋进 9
勋 9
不要让 9
休闲 9
螃蟹 9
就是要 9
体现了 9
的一座 9
回忆起 9
▁大约 9
发动 9
是可以 9
栈 9
不明白 9
的国家 9
演唱 9
经营 9
公交车 9
废墟 9
还是不 9
一说 9
那是我 9
桥梁 9
镀 9
配上 9
温馨的 9
界的 9
真诚的 9
趣味 9
湖泊 9
希望我 9
二字 9
昆明 9
破烂 9
遇到的 9
评委 9
▁谢谢 9
对于我们 9
出于 9
把这个 8
就从 8
28 8
落幕 8
辙 8
总理 8
五一 8
乍 8
发誓 8
失误 8
▁朱 8
腕 8
不改 8
席上 8
梳妆 8
在对 8
▁内 8
可乐 8
迅速地 8
脸色苍白 8
风云 8
缓慢的 8
也算 8
方形 8
成名 8
孰 8
▁这座 8
回归 8
最深的 8
怨言 8
不做 8
手段 8
混乱 8
▁另外 8
我们大家 8
认为自己 8
汝 8
屈原 8
活在 8
南京 8
< 8
患上 8
航海 8
倔强 8
ie 8
在马 8
冲着 8
犯了 8
乱的 8
伸进 8
恐怖的 8
太阳光 8
我不喜欢 8
不等 8
写得 8
辫子 8
出现的 8
毫不犹豫 8
悲观 8
上也 8
的信息 8
干活 8
▁早 8
根据 8
▁据说 8
相机 8
她用 8
捆 8
汉字 8
不全 8
捕捉 8
掺 8
很小的 8
围绕着 8
▁木 8
这么快 8
小组 8
们说 8
灶 8
事故 8
个好 8
的食物 8
一项 8
主义 8
上台 8
发表 8
主的 8
周六 8
之道 8
吓坏了 8
蚊 8
加入了 8
三次 8
灭绝 8
▁吴 8
抽搐 8
年后 8
() 8
派的 8
交替 8
落成 8
传说中的 8
做出了 8
忏悔 8
▁猫 8
漱 8
也不用 8
▁哇 8
原始 8
电梯 8
一顶 8
人士 8
男孩子 8
▁您的 8
不过是 8
▁凌 8
用小 8
野草 8
一遍又一遍 8
变得很 8
涓涓 8
愚蠢 8
然无 8
狈 8
耐烦 8
气体 8
喝酒 8
射门 8
腾的 8
这个消息 8
▁许 8
谈话 8
上山 8
带我们 8
举动 8
不只是 8
汽车的 8
假的 8
船上 8
责备 8
郁金香 8
情怀 8
牢记 8
劣 8
我一直在 8
岁的时候 8
三分 8
医务 8
两百 8
查看 8
特地 8
炙烤 8
一个不 8
斗篷 8
渗透 8
里最 8
在里面 8
赶到 8
大会 8
充斥 8
的小男孩 8
抚慰 8
况且 8
啡 8
我必须 8
第七 8
一个新的 8
听话 8
这个时候 8
▁我们从 8
高等 8
拙 8
在西 8
也是一个 8
排在 8
你把 8
泡沫 8
▁打 8
▁但这 8
在白 8
他自己 8
茸 8
同行 8
70 8
▁我发现 8
句话说 8
合的 8
拥有一个 8
看到一个 8
▁这件事 8
琢 8
市场 8
资格 8
▁鱼 8
自己的命运 8
外衣 8
体内 8
▁现在我 8
这些话 8
并不代表 8
了一天 8
▁但它 8
游行 8
▁...... 8
现实中 8
首领 8
H 8
围住 8
▁球 8
继承 8
娴 8
米特 8
咏 8
要用 8
找一个 8
概念 8
上是 8
说实话 8
梳理 8
看一眼 8
庚 8
那边的 8
放射 8
拆 8
烘 8
病了 8
第一位 8
制的 8
▁甚至 8
上楼 8
作一 8
五百 8
晗 8
为人民服务 8
发黄 8
沿途 8
浓郁 8
文化的 8
杜甫 8
▁独 8
奖牌 8
动手 8
团队 8
迟迟 8
但是在 8
红灯 8
从来没 8
的追求 8
▁《 8
▁星期五 8
▁无论是 8
富裕 8
为荣 8
单薄 8
不许 8
大爷 8
吒 8
杀的 8
也不例外 8
大概是 8
高和 8
趋 8
元钱 8
一无 8
丫头 8
调侃 8
得来 8
加大 8
▁没想到 8
换上了 8
比起 8
轼 8
拿下 8
响亮的 8
有一辆 8
赚 8
葛 8
便可 8
奇异的 8
乘坐 8
他能 8
那个小 8
又是一个 8
谅 8
条约 8
又被 8
广大 8
(4) 8
以致 8
登场 8
肩膀上 8
命令 8
▁呵呵 8
南北 8
等的 8
▁继续 8
▁灰 8
受苦 8
诵 8
杜鹃 8
腿上 8
变成了一个 8
嗓音 8
来做 8
刹车 8
很漂亮 8
夏日的 8
跟他们 8
普通人 8
钳 8
自己的力量 8
鸟的 8
更何况 8
我需要 8
松懈 8
冲锋 8
江湖 8
扩散 8
一直都是 8
我这个 8
▁透过 8
薛 8
两步 8
广州 8
存在于 8
▁河 8
可否 8
一只手 8
萤火虫 8
跳下 8
对他们 8
卓越 8
院子 8
一节 8
各色 8
前往 8
在被 8
损 8
娥 8
葩 8
认识了 8
醋 8
自己也 8
▁门 8
好消息 8
书上 8
▁参加 8
搜索 8
唾 8
挞 8
孙子 8
感觉自己 8
睬 8
地方的 8
农田 8
诈 8
再到 8
也同样 8
不明 8
中没有 8
要想 8
迟到了 8
开出了 8
任何人 8
厚重 8
保存 8
超级 8
读完 8
生产 8
也是有 8
血管 8
小吃 8
就越 8
佐 8
区的 8
相交 8
甜蜜的 8
宾馆 8
为我的 8
我们俩 8
环保 8
采摘 8
的一件事 8
看待 8
亩 8
领地 8
撞击 8
是他的 8
盐 8
虐 8
▁不能 8
大小的 8
边上 8
▁仔细 8
90 8
爱着 8
壁上 8
▁就算 8
建成 8
抉择 8
序幕 8
孝顺 8
引人 8
第一步 8
打水 8
的情景 8
授 8
惧怕 8
残缺 8
上都 8
的中间 8
逛街 8
说我们 8
糯 8
二人 8
的照片 8
辽 8
我不要 8
细致 8
出自 8
▁言 8
▁拥有 8
就走 8
夷 8
地被 8
灵魂的 8
,7 8
登山 8
猖 8
国民 8
的文化 8
圾 8
落下的 8
第四名 8
划船 8
▁立 8
相信我 8
稼 8
倒入 8
▁本来 8
钻进 8
推进 8
出生的 8
这些小 8
理论 8
召 8
病人 8
轰动 8
一条线 8
的王 8
浑然 8
轨道 8
飞船 8
干脆 8
蜕变 8
▁并且 8
逛 8
后卫 8
提升 8
电线 8
说些什么 8
你是谁 8
不可缺少 8
拖鞋 8
的保护 8
的姿势 8
辛苦了 8
▁如果说 8
奢侈 8
了就 8
单纯的 8
昙花 8
试着 8
顶峰 8
空了 8
虫子 8
无数次 8
危害 8
第六 8
看到他 8
奸 8
大桥 8
有意 8
▁前面 8
的不同 8
蔼 8
成立 8
走了出来 8
磁 8
毯子 8
了下 8
遍布 8
?, 8
脖子上 8
瞒 8
振兴 8
▁回首 8
喔 8
摆脱了 8
穴 8
赶来 8
黑洞 8
就更 8
杀手 8
干旱 8
极点 8
很短 8
的要求 8
坐上 8
也已经 8
辩论 8
随处可见 8
粥 8
很像 8
卿 8
最高的 8
交叉 8
棂 8
用手指 8
天津 8
静止 8
虽然是 8
却没 8
增加 8
效应 8
智慧和 8
今年的 8
西装 8
钟声 8
腼 8
▁刚刚 8
感人 8
剥 8
跋涉 8
西门 8
一侧 8
就成了 8
由此 8
杭州 8
迪士尼 8
靴 8
▁里 8
侃 8
用水 8
挽回 8
杂草 8
戟 8
洗脸 8
▁南 8
从他的 8
口气 8
愈合 8
▁野 8
轴 8
能使 8
引来 8
砾 8
衰老 8
长相 8
装的 8
伸长 8
是说 8
难关 8
▁如果没有 8
乃至 8
加强 8
名字叫 8
亲手 8
▁乐 8
我也不知道 8
这是什么 8
口哨 8
有着不同的 8
只需 8
壁画 8
▁感谢 8
最不 8
抑制 8
穿行 8
览 8
▁她们 8
凝视着 8
匀 8
叩 8
一共有 8
中国人的 8
有名的 8
▁胡 8
象的 8
的古 8
的那些 8
多岁的 8
不作 8
专门 8
为主 8
都得 8
过上 8
唯独 8
的胜利 8
和朋友 8
了一座 8
拉手 8
我以前 8
▁少 8
琶 8
▁两人 8
在床上 8
惩罚 8
在没有 8
厘 8
走时 8
新生的 8
小提琴 8
▁这就是我们 8
擀 8
您在 8
观望 8
的人才能 8
▁起初 8
是自己 8
谅解 8
太阳的 8
喜欢他 8
保持警惕 8
僵尸 8
湿地 8
一艘 8
在新 8
山上的 8
生涯 8
肤色 8
度过了 8
事了 8
尊敬的 8
真相 8
采用 8
回家后 8
我呢 8
磐 8
挥动 8
靠在 8
揍 8
老爷 8
的记者 8
构 8
我们最 8
是世界上最 8
据说 8
的空间 8
促使 8
猿 8
坑里 8
取得胜利 8
不下去了 8
这些事 8
嘎嘎 8
能与 8
倾盆 8
涸 8
感冒 8
为一个 8
和一些 8
事件 8
数学家 8
迈向 8
越好 8
昆 8
▁国 8
▁写 8
不惜 8
的叶 8
爆发了 8
发达 8
雕塑 8
特有的 8
紫罗兰 8
辉映 8
亦是 8
芭蕾 8
北方 8
一律 8
无话 8
众多 8
离家 8
楼里 8
二号 8
我以为 8
了一套 8
给人以 8
致的 8
▁致 8
▁什么 8
户户 8
拥有着 8
会更 8
人与 8
虚构 8
对他说 8
贴近 8
都有自己的 8
糟糕 8
说有笑 8
的职业 8
锯 8
分钟后 8
侵犯 8
防止 8
出一种 8
虚荣 8
翼翼 8
更重要 8
到他 8
几张 8
村的 8
我自己的 8
▁我曾经 8
▁进 8
一线 8
阅 8
以最 8
狡 8
若有 8
海洋中 8
波动 8
闭上了 8
江边 8
面前的 8
细胞 8
它就会 8
绒毛 8
天数 8
让孩子 8
酱 8
医学 8
米多 8
每个人都有 8
他们没有 8
自己喜欢的 8
没想到的是 8
风景如画 8
栀 8
太大了 8
惮 8
过多 8
伍 8
面纱 8
显然 8
或者说 8
的那种 8
坚固 8
挡不住 8
风扇 8
的代表 8
客厅 8
亲眼 8
于是就 8
告诉他 8
看作 8
土豆 8
我想要 8
碰到了 8
流行 8
人们对 8
礼貌 8
▁顾 8
几句 8
温和的 8
▁兰 8
威严 8
袒 8
情人 8
到此 8
▁火 8
怒气 8
的爱情 8
给了他 8
绝不会 8
生命力 8
明朗 8
券 8
一个星期 8
▁我已经 8
山是 8
金黄色 8
飞跃 8
前几 8
笼子 8
获取 8
金的 8
▁我现在 8
烨 8
▁游 8
蓉 8
绢 8
犷 8
也得 8
讲究 8
转了 8
召唤 8
衡量 8
另一只手 8
最重要的 8
的亲 8
之前的 8
山脉 8
抒 8
潘 8
顺畅 8
一辈 8
野外 8
马的 8
驮 8
都已 8
▁并 8
华山 8
任何一个 7
制定 7
吭 7
仍旧 7
荚 7
你这个 7
的动作 7
准确 7
一站 7
的光线 7
桌上的 7
帮她 7
▁伊 7
前锋 7
效果 7
▁孔子 7
河上 7
成就了 7
这事 7
本该 7
杯水 7
娄 7
复杂的 7
画笔 7
几个小时 7
▁该 7
突如其来的 7
3。 7
了一段时间 7
踪迹 7
灾区 7
养的 7
首先要 7
失利 7
武汉 7
荏苒 7
每一处 7
默契 7
赔 7
乏味 7
谁都 7
绅士 7
报告 7
圆润 7
解脱 7
橙色 7
▁在那里 7
今晚 7
困惑 7
一书 7
回答道 7
手腕 7
想到的 7
就是这个 7
张口 7
冯 7
掂 7
会比 7
钓 7
平原 7
我给你 7
作了 7
深刻的印象 7
钻研 7
永远无法 7
您是 7
我有一个 7
辜负 7
之遥 7
之歌 7
口吃 7
之类的 7
体贴 7
玷 7
为止 7
慌乱 7
人物的 7
这个故事 7
而这 7
创造的 7
就和 7
篱笆 7
有很大的 7
消极 7
更重要的是 7
多岁 7
爱和 7
看到它 7
五六 7
触角 7
,8 7
自己已经 7
船长 7
形成的 7
的经济 7
变迁 7
党的 7
会看到 7
清朝 7
公共 7
很久以前 7
松了一口气 7
肆无忌 7
险峻 7
▁看来 7
嘎 7
多大的 7
那场 7
添加 7
装着 7
历代 7
机遇 7
吸入 7
一听到 7
经历的 7
结合 7
中挣扎 7
烦躁 7
付诸 7
▁我国 7
紧急 7
模仿 7
明日 7
屈服于 7
吸引人的 7
品德 7
多少个 7
我们都会 7
寝 7
黑板 7
▁由 7
只有一 7
▁所有的 7
真的有 7
杨梅 7
轻松的 7
法宝 7
无常 7
茜 7
有一个小 7
触动 7
、4 7
各国 7
▁明天 7
教学中 7
英文 7
▁亚 7
▁既 7
又长 7
说了什么 7
冲洗 7
半小时 7
里头 7
微不足道的 7
▁你说 7
都不要 7
焕发 7
手可 7
茅草 7
千万别 7
电视机 7
衣服上 7
换取 7
失败者 7
国歌 7
是一群 7
后再 7
来得及 7
对生活 7
词语 7
精美 7
哈利 7
不情愿 7
收割 7
带的 7
宝座 7
蜕 7
行星 7
1, 7
▁但在 7
职责 7
谨慎 7
皇后 7
媳妇 7
袅袅 7
丁香 7
后来的 7
增加了 7
扮演 7
自我介绍 7
的影响 7
每位 7
他正 7
▁我不想 7
军队 7
昔日的 7
暴力 7
的思想 7
王晓 7
兆 7
诊 7
申 7
坐在一起 7
地面上 7
者都 7
满分 7
优异的成绩 7
让大家 7
朔 7
小腿 7
各项 7
均匀 7
否 7
毁了 7
街头 7
噔 7
邱 7
将大 7
发扬 7
多米 7
与他们 7
而知 7
敬畏 7
还不够 7
他都 7
第三个 7
璧 7
温室 7
▁百 7
冲击 7
与小 7
抵抗 7
同志 7
然后是 7
胜过 7
皇冠 7
有多大 7
耳机 7
光照 7
更多的人 7
代替 7
即将来临 7
是一块 7
珍宝 7
主宰 7
员说 7
不相信 7
住的 7
期待与 7
的死 7
而是一 7
茗 7
点评 7
已经到了 7
坏事 7
闲着 7
诣 7
听觉 7
一直是 7
逞 7
你的生活 7
▁思 7
煜 7
差别 7
叛 7
齿轮 7
夫斯基 7
奇特 7
懒惰 7
片段 7
像往常一样 7
是指 7
这个名字 7
▁见 7
高跟鞋 7
参加过 7
撞到 7
她们的 7
型的 7
的音 7
大腿 7
小的时候 7
▁无奈 7
是一段 7
倘若 7
极端 7
翰 7
萤火 7
教练 7
人能 7
无关 7
家喻户晓 7
犬 7
2, 7
患上了 7
留下了深刻的印象 7
戮 7
垃圾桶 7
:( 7
它已经 7
有小 7
分子 7
前几天 7
淼 7
通俗 7
光线 7
雏 7
▁所以说 7
以为是 7
辗转 7
做的是 7
不是在 7
霸王 7
虹 7
运动的 7
显示 7
奢 7
多大 7
都一样 7
流言 7
为人类 7
比他 7
琵 7
为一 7
观念 7
她和 7
恰恰 7
▁这不是 7
灵的 7
方面的 7
张大 7
从没有 7
寓言 7
击中 7
▁c 7
是不能 7
向东 7
冰山 7
让你们 7
▁夏季 7
年幼 7
她把 7
农家 7
引起了 7
遮掩 7
有时会 7
昨日 7
同在 7
昏昏 7
义务 7
描述 7
风顺 7
解决了 7
纯粹 7
琢磨 7
稳重 7
踪影 7
▁医生 7
谐 7
小麦 7
的人才 7
给自己的 7
抢救 7
春节 7
奖励 7
责怪 7
一场比赛 7
辜 7
太少 7
即便是 7
河北 7
报应 7
▁左 7
碗里 7
冰块 7
陷阱 7
的失败 7
铅球 7
做法 7
重伤 7
遍了 7
崇敬 7
婚纱 7
,。 7
捅 7
归根 7
种类 7
爬行 7
构成了 7
和其它 7
驯 7
夸张 7
▁玉 7
人多 7
迟到 7
缩在 7
的传统 7
使你 7
当代 7
房顶 7
逃跑 7
点半 7
整体 7
环节 7
项链 7
是一个人 7
▁狼 7
的儿子 7
冤 7
问自己 7
一定有 7
姨妈 7
令我们 7
仅有的 7
禅 7
还说 7
): 7
走后 7
流连 7
帮助我们 7
进来了 7
三年前 7
客气 7
传播 7
▁为此 7
搜 7
他已 7
人工 7
能以 7
幢 7
有很多人 7
的民族 7
分别是 7
天后 7
有一名 7
丝毫没有 7
听不懂 7
奶油 7
摇动 7
拉开了 7
挽救 7
便被 7
承受着 7
牵着手 7
关门 7
花样 7
反省 7
中是 7
便在 7
机场 7
她对 7
黏 7
被人们 7
歌舞 7
麻痹 7
贫穷 7
死亡的 7
他将 7
霹 7
订 7
无能 7
更别 7
星期五 7
垂涎 7
23 7
脱离 7
是怎么回事 7
不注意 7
▁随后 7
一趟 7
是把 7
感谢您 7
赏心悦 7
城市中 7
花和 7
意想不到 7
施展 7
身披 7
不料 7
白日 7
也需要 7
树林里 7
▁他用 7
变化的 7
陨 7
▁我以为 7
个体 7
槽 7
直视 7
萦 7
要进行 7
提示 7
一个小时 7
风头 7
荣幸 7
我这次 7
积累 7
不在乎 7
年仅 7
作为一个 7
风景区 7
模型 7
会成为 7
她为 7
做了一个 7
经过了 7
麦田 7
并用 7
的空 7
我们从 7
浇水 7
不那么 7
超市 7
呆子 7
下车 7
有能力 7
僻 7
▁我就 7
悲痛 7
架起 7
泓 7
是以 7
▁分 7
推着 7
我们自己的 7
参赛选手 7
陨石 7
坚毅 7
站的 7
已成 7
▁穿着 7
遣 7
门上 7
一万 7
场合 7
上个 7
血迹 7
依据 7
▁她说 7
语句 7
的情况 7
销 7
300 7
听不见 7
某种 7
的最好 7
结交 7
志愿者 7
大声说 7
少许 7
叫好 7
万年 7
厨房里 7
难得的 7
流转 7
也可能是 7
在全 7
向来 7
前三 7
的挑战 7
房门 7
▁空气 7
见到他 7
出身 7
绿化 7
必不可少的 7
的绿色 7
是何 7
表面上 7
还带着 7
探险 7
要开始 7
脚踩 7
壮志 7
的热爱 7
,10 7
以一种 7
给人的 7
对自己说 7
▁【 7
圈的 7
路程 7
这个机会 7
强国 7
的决心 7
泯 7
重量 7
的冷 7
从哪里 7
就走了 7
弘扬 7
▁成 7
钰 7
要从 7
源于 7
褂 7
也一样 7
▁上午 7
文明的 7
什么都没有 7
征程 7
相同的 7
举世 7
爱人 7
人要 7
海面 7
凉亭 7
宫殿 7
传球 7
星期三 7
船的 7
▁那位 7
▁星 7
忪 7
这是为什么 7
在哪 7
救了 7
取而代之的是 7
旺盛 7
的森林 7
这个问题 7
可以去 7
椰 7
获奖 7
愉快的 7
生前 7
后天 7
▁冰 7
到家 7
推出 7
广阔的 7
在无 7
螂 7
九月 7
不吃 7
是它 7
戴上了 7
仓 7
瑕疵 7
把钱 7
年里 7
觉醒 7
▁哈 7
机械 7
这条路 7
他不是 7
认可 7
出去了 7
▁十年 7
你真 7
一两 7
打成 7
破旧 7
具备 7
不认识 7
乡间 7
更远 7
就结束了 7
见不到 7
蛤 7
人人都 7
霍 7
一意 7
的运动员 7
迸 7
蒙古 7
▁头 7
第一时间 7
就行 7
99 7
子孙 7
阎 7
芯 7
不是什么 7
的心声 7
饱受 7
使自己 7
▁调 7
启动 7
也十分 7
之后又 7
弘 7
渍 7
困扰 7
能用 7
笔记本 7
强烈 7
清洗 7
看起来很 7
露水 7
大好 7
▁其次 7
乐观的 7
在的 7
追求的目标 7
疫 7
之计 7
▁这本书 7
非常喜欢 7
年前的 7
专家 7
打球 7
晦 7
风度 7
血肉 7
注意力 7
我还有 7
天啊 7
▁每一个 7
▁带着 7
圆形 7
很多人都 7
人在一起 7
着想 7
内心深处 7
的冲动 7
▁贝 7
捺 7
过多的 7
火炬 7
的时候了 7
这么大 7
▁我没有 7
人性的 7
瘸 7
最小的 7
却要 7
河南 7
差的 7
说话了 7
巨石 7
堆积 7
遐 7
的事业 7
肚皮 7
我担心 7
▁上面 7
五千 7
短的 7
出自己的 7
矢 7
更没有 7
三角 7
侵 7
月饼 7
是需要 7
雍 7
看成 7
馅 7
位置上 7
引人注目的 7
的青年 7
控 7
讨好 7
要靠 7
太好了 7
喘不过气来 7
这个词 7
日本的 7
薄荷 7
时发现 7
席卷 7
的习惯 7
形成了 7
发现的 7
青菜 7
狡猾 7
推向 7
许多人都 7
中的一个 7
消灭 7
小牛 7
而成 7
完善 7
哪些 7
装扮 7
要不然 7
莞 7
瞎 7
七个 7
▁: 7
雪中 7
了什么 7
妨 7
蜻 7
纸张 7
体温 7
最多的 7
准时 7
向自己 7
刻意 7
叮当 7
进去了 7
开拓 7
师父 7
高低 7
身体里 7
的时间里 7
反映 7
曲线 7
希望自己 7
蹒跚 7
突然间 7
的节奏 7
T 7
的魅力 7
审 7
▁而是 7
一如 7
无奈地 7
两句 7
调节 7
迟早 7
呼吁 7
▁国家 7
留住 7
日常 7
可以为 7
期许 7
向右 7
惊心动魄 7
书记 7
帷幕 7
祖先 7
忠于 7
坚持了 7
喀 7
选出 7
美好的时光 7
符 7
听我说 7
有价值 7
讥 7
出路 7
▁未来 7
她喜欢 7
的重 7
有这么 7
已经成为 7
杀死 7
我不会再 7
沉闷 7
每每 7
迭 7
▁换 7
这是个 7
他们把 7
简陋 7
有钱 7
▁随 7
▁特别是 7
干净的 7
说明了 7
米和 7
大鱼 7
狭 7
们纷纷 7
迷恋 7
就得 7
研 7
诗歌 7
蒋 7
本来就是 7
航行 7
标本 7
但他的 7
来往 7
自语 7
告诉大家 7
微小的 7
站起身 7
踱 7
没多久 7
脯 7
用钱 7
骑车 7
媒体 7
固定 7
长老 7
紧锁 7
试图 7
结婚 7
屋顶上 7
的成功 7
佣 7
纪念馆 7
之声 7
本次 7
浆 7
自己喜欢 7
带回家 7
的人的 7
中只有 7
她的手 7
▁田 7
娱乐 7
就行了 7
冰冻 7
戒指 7
▁下面 7
了口气 7
徜徉 7
的开始 7
in 7
调整 7
下落 7
从她 7
重视 7
肉体 7
触电 7
多月 7
▁情 7
吃喝 7
敞 7
▁而现在 7
杀人 7
▁淡 7
每一步 7
励 7
长而 7
坤 7
国外的 7
烟雾 7
▁哈哈 7
汤姆 7
,2 7
青龙 7
类的 7
牛顿 7
狗狗 7
▁霍 7
有多少人 7
关在 7
过他 7
回顾 7
阻碍 7
抖动 7
如意 7
答道 7
吃到 7
走来走去 7
一个字 7
每天的 7
找回 7
▁主 7
的本 7
开水 7
替代 7
黝黑 7
皂 7
▁可能是 7
的那天 7
ang 7
审判 7
名声 7
悲惨 7
的沙漠 7
▁冷 7
丸 7
教书 7
无缘 7
小偷 7
▁机会 7
鲤鱼 7
涟 7
对他的 7
月中 7
略显 7
▁... 7
而至 7
滥 7
了一本 7
角色 7
上衣 6
有时间 6
问你 6
劝告 6
策略 6
再过 6
的单 6
的新生 6
充分 6
新颖 6
▁我有一个 6
乘客 6
在用 6
我们被 6
▁宝 6
但我想 6
回的 6
桩 6
失败后 6
买到 6
报纸 6
打到 6
倏 6
是任何 6
有事 6
回答问题 6
径直 6
靖 6
象征着 6
田径 6
而放弃 6
挂起 6
我们只 6
会变 6
本是 6
▁易 6
广场的 6
悬挂 6
愕 6
女神 6
崇尚 6
来过 6
着实 6
和有 6
没有想到 6
不关心 6
2012 6
悲伤的 6
于此 6
之中的 6
对社会 6
修改 6
太阳系 6
谎言 6
从现在开始 6
的决定 6
公平的 6
帕 6
补习班 6
孤儿 6
桦 6
结论 6
无名 6
证 6
中途 6
是最重要的 6
的小说 6
这首歌 6
南山 6
飞行 6
▁说到 6
我们曾经 6
其上 6
绍 6
学科 6
城里 6
科学的 6
的建筑 6
焦躁 6
的价值 6
有自己的 6
七星 6
无所畏惧 6
作的 6
卷曲 6
崭新 6
常常在 6
世纪的 6
是可 6
我记得 6
上升 6
搜寻 6
人或 6
我们都是 6
波特 6
的林 6
了解了 6
修辞 6
钟情 6
是高 6
场上的 6
吠 6
沉迷 6
时间去 6
宅 6
学术 6
手提 6
方能 6
完成的 6
不问 6
聚集 6
我听到 6
上岸 6
滑板 6
二氧化碳 6
是什么样 6
彰 6
终日 6
慌了 6
没有被 6
的玻璃 6
法师 6
取而代之 6
时才 6
皮带 6
几何时 6
塑料 6
回合 6
也许会 6
咒 6
析 6
一群人 6
改善 6
最低 6
养活 6
气和 6
地带 6
来这里 6
食品 6
污垢 6
与众不同 6
轨 6
很热 6
生根 6
复仇 6
传到 6
挺身而出 6
信赖 6
不容 6
只有这样 6
癫 6
争吵 6
龚 6
霓 6
光影 6
的龙 6
毒的 6
事后 6
菜的 6
永远地 6
人群中 6
朽 6
天空的 6
下水 6
他以 6
无辜 6
拱 6
会更加 6
▁现实 6
质量 6
看在 6
茶叶 6
用你的 6
缸 6
多余 6
二十一 6
想让我 6
苍蝇 6
更新 6
看见的 6
平平 6
排放 6
埃 6
忙碌的 6
▁但现在 6
走入 6
场所 6
曙光 6
珂 6
▁我们有 6
日益 6
都不一样 6
惊人 6
珍爱 6
▁不料 6
第九 6
瓷 6
转悠 6
是人们 6
哭了起来 6
▁由此 6
排的 6
美酒 6
的反 6
更喜欢 6
所带来的 6
这颗 6
老大 6
离婚 6
造成了 6
▁不论 6
云南 6
瑕 6
得失 6
▁这一切 6
立足 6
邪恶的 6
才行 6
吸血鬼 6
室内 6
安定 6
却因 6
长远 6
体操 6
三名 6
瘪 6
化了 6
开到 6
的不是 6
横跨 6
▁我没 6
下一代 6
拉扯 6
本来就 6
石板 6
才是最 6
昔日 6
佑 6
或在 6
之余 6
当下 6
扮 6
长度 6
关切 6
弱者 6
遗失 6
强行 6
两名 6
▁几个 6
▁我们会 6
制成 6
快看 6
男子的 6
撕裂 6
却因为 6
成就感 6
还要多 6
局势 6
都将 6
不便 6
来说是 6
▁y 6
▁伴随着 6
su 6
出现过 6
坪 6
高举 6
晔 6
移到 6
锲 6
▁在一次 6
山区 6
中去 6
剩下的 6
留意 6
锡 6
不值得 6
星期四 6
将我的 6
,100 6
一新 6
起步 6
戎 6
把所有 6
拄 6
噩梦 6
边际 6
一枚 6
恣 6
升的 6
是不可能的 6
▁一定 6
毕业后 6
每天都会 6
潮流 6
和那些 6
的一举一动 6
同事 6
年在 6
苑 6
有益 6
36 6
推翻 6
淋漓尽致 6
枫树 6
对抗 6
浓密 6
蹋 6
奠 6
能不 6
高压 6
卷发 6
年初 6
本事 6
解决问题 6
变得越来越 6
抗拒 6
98 6
施肥 6
解开 6
同时也是 6
判断 6
为别人 6
▁我不能 6
阶段的 6
* 6
水了 6
▁方 6
一连 6
帅哥 6
不良 6
有其 6
政府 6
这几个 6
耕地 6
椿 6
官员 6
她总是 6
珍藏 6
商店 6
笼子里 6
出行 6
巅 6
同类 6
过早 6
处理 6
谭 6
偏向 6
一间 6
路标 6
侄 6
准备了 6
勺子 6
搞得 6
会让人 6
应该做的 6
过马路 6
隐形 6
岖 6
细微 6
一整天 6
照顾好 6
救灾 6
山坡上 6
二中 6
两支 6
的行动 6
做一些 6
孜孜 6
妾 6
机的 6
共产党 6
烙 6
茉 6
才能让 6
快感 6
趟 6
不会被 6
两分钟 6
▁今日 6
瑙 6
俐 6
客人 6
茬 6
注视 6
根本没有 6
的未来 6
乞求 6
黄豆 6
被打破 6
取决于 6
变质 6
淫 6
把她的 6
负面 6
囚 6
名胜 6
▁给 6
花上 6
一长 6
打入 6
峡 6
偏见 6
目前 6
高中的 6
美观 6
和母亲 6
书店 6
成才 6
医治 6
拉起 6
学分 6
两三 6
港 6
部落 6
医院的 6
▁1 6
背诵 6
西红柿 6
风暴 6
心血 6
当一名 6
是学校 6
下手 6
播放 6
不断提高 6
为他人 6
▁宋 6
铃铛 6
老百姓 6
不带 6
脚石 6
滔 6
▁艾 6
用户 6
敲响 6
过山车 6
州的 6
盘子 6
污泥 6
杂志 6
奇异 6
饮料 6
被吓 6
没有人会 6
近在 6
或不 6
的活动 6
浪漫的 6
新疆 6
物理学家 6
▁桂 6
搁 6
给你的 6
绵延 6
就以 6
最初 6
出色的 6
不至于 6
总决赛 6
▁男子 6
实现的 6
自己的孩子 6
多名 6
仁慈 6
掌握了 6
▁哎 6
佝 6
点击 6
他们又 6
彦 6
地平 6
提高了 6
恶作剧 6
发生过 6
为大家 6
越发 6
可以吗 6
却不是 6
过大 6
破裂 6
自家 6
自学 6
稀少 6
则在 6
掌控 6
与之 6
yn 6
对你的 6
背面 6
▁即便 6
堂课 6
赛后 6
宸 6
如下 6
信号 6
地用 6
美满 6
式的 6
忽视 6
喜欢上 6
现在我们 6
老人家 6
地努力 6
纸巾 6
和高 6
雷雨 6
马龙 6
一部分 6
各种各样 6
鸥 6
呈现出 6
▁我来 6
也跟 6
的发现 6
但却是 6
矿 6
大型 6
年的时间 6
回答说 6
虚拟 6
清楚地 6
脑筋 6
铮 6
某一 6
梦见 6
逼近 6
蒸发 6
下班 6
旋风 6
P 6
村落 6
侧面 6
擎 6
发生的 6
借鉴 6
正面 6
循环 6
喜剧 6
又将 6
是一本 6
不再有 6
站稳 6
主任 6
的山峰 6
思想的 6
过度 6
倩 6
要与 6
无色 6
他开始 6
哈欠 6
觅食 6
有何 6
去向 6
亢 6
正是在 6
阡 6
外星人 6
苒 6
固定的 6
济南 6
你们要 6
是那些 6
圆的 6
▁我当时 6
堵墙 6
也更加 6
维护 6
所学校 6
西方 6
请您 6
的白色 6
遍及 6
的心里 6
太热 6
磊 6
四海 6
本质 6
呛 6
森林中 6
我是个 6
发生了什么 6
座上 6
阴天 6
郑重 6
整齐地 6
干吗 6
的服务 6
收入 6
中山 6
讶 6
只能用 6
杂质 6
一举 6
侮辱 6
坷 6
之所 6
正坐在 6
敖 6
都是一个 6
有些事情 6
太棒了 6
桌布 6
最爱的 6
高昂 6
珊瑚 6
送上 6
坐在椅子上 6
中一个 6
敢不敢 6
开始就 6
一个人在 6
繁多 6
仙人 6
第一眼 6
▁是不是 6
死去的 6
等奖 6
大白 6
果肉 6
卵 6
的准备 6
▁都说 6
杂乱 6
还会有 6
泥泞 6
做成 6
制服 6
穿的 6
▁周围 6
▁善 6
十几个 6
眩 6
曾说 6
在我看来 6
还在继续 6
玻 6
出生于 6
挑选 6
▁郑 6
东风 6
当了 6
断定 6
画出 6
两人的 6
她又 6
也可 6
去吧 6
湖中 6
显得很 6
只是一种 6
博士 6
田地 6
宿命 6
种族 6
我认识 6
要说 6
死于 6
然后再 6
可想而知 6
篙 6
在一间 6
龙的 6
93 6
他与 6
一亮 6
他因 6
▁盛 6
文具 6
应付 6
昼夜 6
低调 6
也因为 6
落后了 6
尽显 6
做些 6
阳光和 6
菡 6
血流 6
作风 6
振作 6
天都 6
▁道 6
绺 6
警告 6
深陷 6
各大 6
污水 6
种植 6
想再 6
撞上 6
垮了 6
更需要 6
奥秘 6
企 6
r 6
协调 6
▁原 6
符合 6
字典 6
出去玩 6
直射 6
平局 6
的第一天 6
这笔 6
就会被 6
智者 6
纲 6
消融 6
骇 6
眼睁睁 6
▁他又 6
打得 6
这会 6
物种 6
廉 6
它们都 6
并在 6
岗位 6
钟头 6
成败 6
▁南京 6
在这条 6
▁他们是 6
尽职 6
亮点 6
喜欢吃 6
▁阳 6
经常会 6
所以就 6
落于 6
军的 6
走开 6
面向 6
越长 6
捋 6
火光 6
岸上 6
土地上 6
感知 6
劳作 6
分担 6
主流 6
原创 6
书房 6
盲人 6
假想 6
收获了 6
友好的 6
没收 6
结冰 6
对我们来说 6
谜 6
口渴 6
将这 6
三一 6
两个月 6
用我的 6
总统 6
舍得 6
示意 6
非常有 6
▁这个时候 6
的一大 6
鳃 6
破碎的 6
大学生 6
的命运 6
香港 6
琥珀 6
重现 6
满足了 6
旨 6
▁文章 6
事实上 6
围棋 6
一瓶 6
跟在 6
我买 6
不仅有 6
这才是 6
炬 6
则是一 6
母鸡 6
知道她 6
轻巧 6
▁或者 6
手枪 6
恃 6
跑来跑去 6
王一 6
件衣服 6
点上 6
他突然 6
当选 6
介绍了 6
我们把 6
顺手 6
为国 6
桨 6
当地 6
▁再次 6
他只 6
智慧的 6
暴躁 6
非常高兴 6
▁你是 6
三点 6
游到 6
点钱 6
激动人心的 6
把所有的 6
▁我们是 6
能有 6
荒野 6
很可能 6
更应该 6
吃亏 6
▁话 6
理解和 6
金属 6
已有 6
天花板 6
的一员 6
都给 6
徊 6
篓 6
抵御 6
不同意 6
C 6
自己要 6
校的 6
摇了 6
如果不是 6
▁已经 6
暗示 6
在人们 6
▁那样 6
4, 6
税 6
地板上 6
连成 6
坚实的 6
离开时 6
扰乱 6
键盘 6
含义 6
▁他总是 6
奋战 6
修饰 6
海盗 6
豆子 6
什么地方 6
白痴 6
个多 6
氧 6
盛大的 6
剃 6
浓郁的 6
外国人 6
在校 6
排列 6
他知道 6
(7 6
可以被 6
还是被 6
我从未 6
护士 6
拿下了 6
躺下 6
庞大 6
锋利 6
低谷 6
能得到 6
结伴 6
相差 6
庭院 6
典型 6
扼杀 6
类似 6
在外面 6
人文 6
尉 6
的最后一 6
米粉 6
板凳 6
的做法 6
我写 6
就应该 6
他时 6
得非常 6
转角 6
各地 6
舒缓 6
帮助他 6
是一对 6
揭 6
好奇的 6
事迹 6
口袋 6
昊 6
近代 6
标题 6
篷 6
经典 6
▁也是 6
行列 6
认识你 6
看一下 6
的边缘 6
斋 6
九龙 6
石的 6
倍感 6
资本 6
你将 6
在北京 6
箱子 6
舍弃 6
▁才 6
女孩的 6
▁日本 6
建造 6
探讨 6
堪称 6
再好 6
豪华 6
儿了 6
树皮 6
迈进 6
1. 6
鲜明的 6
都有着 6
五四 6
有机 6
呜呜 6
工作的 6
而变得 6
匪浅 6
▁我可以 6
▁在没有 6
▁麦 6
坐在那里 6
离家出走 6
流向 6
躯体 6
得要 6
6) 6
在整个 6
教育的 6
狭窄 6
领取 6
扇门 6
上厕所 6
筋疲力尽 6
破旧的 6
钱包 6
嗒嗒 6
他的心 6
圆圈 6
死在 6
看得出 6
陡峭 6
结束后 6
也是个 6
▁耶 6
豫 6
接近尾声 6
三个月 6
河畔 6
行李 6
的啊 6
▁山东 6
婚礼 6
衣柜 6
想问 6
威胁 6
家具 6
第十 6
永远不会忘记 6
赘 6
▁所 6
是不会 6
让小 6
落泪 6
所长 6
感想 6
没法 6
恢 6
焕然 6
封锁 6
所欲 6
绘画 6
黯 6
渡过 6
被迫 6
日晒 6
而成的 6
告诉她 6
没有在 6
能够在 6
频频 6
的房子 6
北极 6
对准 6
典范 6
三号 6
他现在 6
讨人 6
常说 6
石头上 6
草和 6
游离 6
地是 6
蜓 6
加以 6
架上 6
▁正当 6
售 6
音乐的 6
墓 6
也希望 6
的正 6
有天 6
始至终 6
前辈 6
大臣 6
公交 6
上百 6
打磨 6
多余的 6
心声 6
羚 6
时也 6
火星 6
走下 6
有无 6
两面 6
色彩的 6
一袋 6
车辆 6
的家庭 6
是我国 6
圆梦 6
发狂 6
这块 6
的温度 6
的帮助下 6
七点 6
锈 6
将我们 6
燃烧着 6
救赎 6
遥不可及 6
爱吃 6
对人类 6
的关系 6
他们已经 6
我们只是 6
将自己的 6
的麦 6
色泽 6
临时 6
▁s 6
是将 6
舒适的 6
事情的 6
的作用 6
鞠躬 6
▁p 6
制止 6
古怪 6
盗 6
当场 6
我们这里 6
就是他 6
▁但是如果 6
这里面 6
▁沙 6
号码 6
一现 6
粪 6
给我看 6
他们能 6
使用了 6
也不愿 6
救我 6
却也 6
泛滥 6
诱人 6
管理员 6
必要 6
在课堂上 6
▁家里 6
大帝 6
不仅要 6
运球 6
带给你 6
▁讲 6
有可能 6
的东 6
龙头 6
顺势 6
反倒 6
香蕉 6
像你 6
台词 6
长处 6
韵律 6
观众的 6
江山 6
敞开 6
奔赴 6
同意 6
不能在 6
版 6
自然地 6
菜园 6
领域 6
▁纯 6
钦 6
合理 6
号的 6
不小的 6
法国 6
的内 6
那我就 6
一角 6
强迫 6
的文字 6
拒 6
肥胖 6
ú 6
来帮助 6
动荡 6
它有 6
表现出 6
写出 6
赢得比赛 6
矿泉水 6
听过 6
▁泰 6
衣领 6
F 6
手套 6
死后 6
菌 6
全神 6
涅 6
午餐 6
怎么做 6
凝聚 6
是金 6
注定要 6
嘭 6
越来越少 6
坐下来 6
障 6
▁楼 6
暴露 6
会变成 6
就是我们的 6
的包 6
确定 6
住着 6
颐 6
办公室里 6
那把 6
一直到 6
过时 6
切的 6
熠 6
▁动物 6
那么简单 6
很差 6
准备的 6
阴凉 6
深思 6
后才 6
▁七 6
蚂 6
嵌入 6
床铺 6
山路 6
也会在 6
萧条 6
诗词 6
的人民 6
全面 6
这样的话 6
的勇气 6
切勿 6
流传 6
▁电 6
发泄 6
的人都会 6
光是 6
没用 6
虐待 6
无事 6
契 6
吸引着 6
六月 6
很棒 6
精神上的 6
这个节目 6
魔术 6
预测 6
和她的 6
盛夏 6
解的 6
那家 5
巅峰 5
旁观 5
岚 5
清晰可见 5
都为 5
水中的 5
更强 5
模糊的 5
涡 5
写在 5
的答案 5
的研究 5
可悲 5
教堂 5
和张 5
在哪儿 5
方可 5
到时 5
自由地 5
中国人民 5
也让 5
沙尘暴 5
| 5
不齐 5
是多 5
手表 5
丢下 5
当时我 5
吉他 5
摹 5
动物的 5
的伤害 5
遵 5
呕吐 5
我是谁 5
是向 5
点左右 5
▁植物 5
熟的 5
田园 5
愈来愈 5
要为 5
朝的 5
攒 5
亲身 5
钝 5
▁神 5
▁j 5
请大家 5
否定 5
感兴趣 5
和所有 5
过渡 5
麦兜 5
发音 5
劝说 5
毛绒 5
唧唧 5
在向 5
匙 5
招来 5
心目 5
带头 5
教材 5
社区 5
▁右 5
应对 5
认为是 5
还不错 5
便宜 5
纽 5
西北 5
南瓜 5
因病 5
要知道 5
▁与其 5
年头 5
重拾 5
我们正在 5
还原 5
的局面 5
深信 5
即使是 5
来参加 5
典雅 5
明代 5
▁但愿 5
深远 5
仍然是 5
的自然 5
衿 5
路边的 5
长裤 5
可以将 5
是老 5
杂技 5
价格 5
你可能 5
放松了 5
尔的 5
▁算 5
女朋友 5
▁气 5
中都 5
在他们的 5
浓厚的 5
褪色 5
非同 5
之风 5
基本的 5
▁音乐 5
已经过去 5
1、 5
找我 5
日复一日 5
桥的 5
急速 5
一如既往 5
6000 5
的最佳 5
健儿 5
▁问 5
治病 5
▁一群 5
洋溢 5
一张纸 5
无从 5
缆车 5
结束时 5
当它 5
触及 5
洁净 5
像我们 5
漳 5
指出 5
▁黑暗 5
全非 5
懒散 5
是否能 5
多一点 5
行者 5
学校在 5
刚从 5
嫂 5
争斗 5
飞天 5
不准 5
刹 5
打折 5
解释道 5
张照片 5
知觉 5
2013 5
某人 5
常常会 5
的对象 5
奶粉 5
黠 5
以来的 5
统一 5
每次都 5
作战 5
无休止 5
你想要 5
情谊 5
▁跨 5
噎 5
则会 5
可从 5
是因为它 5
杜绝 5
并不难 5
住院 5
作弊 5
还有个 5
▁与此同时 5
盘的 5
会场 5
捻 5
浪费了 5
长途 5
块的 5
的最后 5
会更好 5
一改 5
替他 5
晚餐 5
今天下午 5
腐烂 5
在过去 5
出色 5
气味 5
回复 5
体现出 5
告示 5
产品 5
因为没有 5
紧要 5
浏览 5
他只是 5
房间的 5
一贯的 5
排斥 5
电动车 5
歉 5
损失 5
法则 5
大妈 5
但其 5
活了 5
毕竟是 5
祟 5
学习和 5
中外 5
78 5
伤害了 5
比拼 5
达成 5
打断 5
钓鱼岛 5
褶皱 5
面部 5
幺 5
我完全 5
土壤 5
潜入 5
恳 5
和鼓励 5
始终没有 5
什么样 5
溃 5
照料 5
递给 5
风情 5
人头 5
镯 5
取暖 5
寇 5
就很 5
热心 5
听音乐 5
渠 5
浃 5
时间来 5
预言 5
的信心 5
认错 5
很重要 5
口袋里 5
党和 5
岛屿 5
将你 5
在它 5
现在也 5
凶猛 5
▁越 5
弗 5
喳喳 5
迈出 5
在地面 5
味儿 5
满足于 5
有如 5
起大 5
一个孩子 5
即将到来的 5
也正 5
战争的 5
雨衣 5
追随 5
凿 5
临近 5
屏障 5
下滑 5
遥控器 5
▁不用 5
特产 5
趾 5
荒唐 5
陈嘉 5
桥下 5
片断 5
将来的 5
不要太 5
新娘 5
先生的 5
▁另 5
甘蔗 5
不合 5
坐了 5
喜欢在 5
痛苦地 5
非常重要 5
仅有 5
太平 5
上万 5
鲸 5
石上 5
清明 5
救出 5
二是 5
浙江 5
▁这里是 5
减轻 5
00 5
某些 5
拟 5
ui 5
声势 5
保佑 5
促进 5
再三 5
两千 5
村子 5
骷髅 5
年以来 5
▁记者 5
话题 5
大批 5
▁入 5
医生的 5
麽 5
出名 5
呆在 5
生存的 5
好几次 5
修剪 5
人际 5
干燥的 5
对世界 5
运转 5
言不 5
学者 5
▁即 5
▁你不 5
你就可以 5
菲菲 5
带她 5
理智 5
她已经 5
我第一次 5
调的 5
礼节 5
▁苦 5
起码 5
梦想着 5
叹为观止 5
天黑 5
37 5
是什么时候 5
▁不会 5
钧 5
晾 5
其中有 5
几乎是 5
装修 5
地注视着 5
告诉你们 5
莽 5
×× 5
常见 5
科幻 5
珠宝 5
▁首 5
却不能 5
▁他也 5
li 5
与我们的 5
使我的 5
毛巾 5
的草原 5
就对 5
除非 5
宽大 5
大骂 5
大可 5
▁爱因斯坦 5
幡 5
因为它是 5
▁让人 5
在世界 5
22 5
顶层 5
外国语 5
常会 5
寅 5
ig 5
大有 5
阴雨 5
会为 5
内存 5
浦 5
▁这是我们 5
家中的 5
出生在 5
砚 5
e 5
平整 5
并无 5
焚 5
确实很 5
而要 5
吉祥 5
年间 5
早晚 5
将有 5
守在 5
全心全意 5
已经没有 5
前者 5
但后来 5
小时后 5
公式 5
当当 5
炭 5
▁比如说 5
福建 5
减少了 5
中天 5
但要 5
一幢 5
做成的 5
实行 5
就算是 5
宙 5
不用担心 5
收回 5
耘 5
▁等等 5
闻的 5
▁汉 5
效率 5
有多好 5
名牌 5
:1 5
怠 5
蔷 5
平庸 5
时被 5
就是不 5
对于那些 5
排挤 5
明显的 5
直径 5
往外 5
门票 5
▁简 5
放在了 5
的基础 5
洗衣服 5
相比之下 5
▁他是个 5
其次 5
帮他 5
猎人 5
▁一些 5
歌颂 5
该死的 5
风味 5
抚养 5
▁凯 5
山村 5
栗 5
窘 5
釜 5
就必须 5
棘 5
睡觉时 5
深蓝色 5
之间的关系 5
昏昏欲睡 5
打死 5
起到 5
做为 5
止步 5
庸俗 5
大同 5
似乎没有 5
棠 5
可比 5
送的 5
驶向 5
注入 5
于是他 5
是由于 5
集市 5
俞 5
▁根据 5
亏了 5
我们不会 5
漉漉 5
找他 5
勾勒出 5
要多 5
废话 5
决定了 5
咐 5
山里 5
想要什么 5
化肥 5
失恋 5
硬的 5
▁哎呀 5
威力 5
都有可能 5
成长为 5
▁就连 5
汇聚 5
全力以赴 5
圆形的 5
可见的 5
需要帮助 5
她是个 5
起初 5
尔摩 5
露面 5
有名 5
▁故事 5
喉 5
为他的 5
时期的 5
你什么 5
的一些 5
震动 5
独有的 5
掷 5
的各种 5
▁近日 5
取胜 5
碰撞 5
硬币 5
▁下次 5
拿去 5
▁去年的 5
应为 5
的百 5
土的 5
敲门 5
几种 5
格格 5
内向 5
两种 5
俏皮 5
跳入 5
矮小 5
尬 5
栩 5
不属于 5
者们 5
前三名 5
结合起来 5
▁我不会 5
但由于 5
浸透 5
也是为了 5
千万不要 5
抛在 5
置身于 5
家常 5
强调 5
这一段 5
折叠 5
和在 5
获得的 5
许诺 5
我刚刚 5
▁不仅 5
则被 5
就应 5
趁机 5
骑马 5
也是最 5
普通话 5
再多 5
火热 5
昨天的 5
▁它们是 5
受的 5
未尽 5
十二岁 5
▁数学 5
我经常 5
人中 5
名单 5
掺杂 5
三大 5
火了 5
我也不会 5
歼 5
通了 5
辅 5
请看 5
五次 5
得过 5
话筒 5
就是这么 5
鄂 5
婚姻 5
安全感 5
长有 5
涨潮 5
早起 5
语是 5
▁她用 5
之下的 5
凉快 5
巧妙 5
▁离开 5
坚定地 5
必将 5
蚀 5
本的 5
▁然后我们 5
中场 5
听从 5
七年 5
夙 5
传达 5
先生在 5
屠 5
过滤 5
鬃 5
国庆节 5
不败 5
知识和 5
永生 5
晃动 5
柠 5
拦住 5
无能为力 5
不以 5
容忍 5
知道他 5
交接 5
花边 5
宏伟 5
沮 5
你们能 5
琐碎 5
她所 5
蓝球 5
我愿 5
▁美国 5
前来 5
牧羊 5
薄弱 5
窍 5
焦虑 5
新的一天 5
一格 5
质疑 5
祝你 5
将球 5
灭亡 5
气温 5
压缩 5
凡事 5
松林 5
战场上 5
担任 5
然后用 5
者在 5
▁足球 5
应该在 5
新鲜空气 5
之城 5
▁枪 5
▁赵 5
解说 5
火灾 5
元素 5
常态 5
眼前一亮 5
▁实际上 5
也不太 5
处于 5
的经验 5
失败告终 5
找了 5
噙 5
▁我们必须 5
平静下来 5
驿 5
闪闪发光的 5
国外 5
的这些 5
希望您 5
特别喜欢 5
占了 5
▁在他的 5
涓 5
柏油 5
为国家 5
缩小 5
质问 5
白雪公主 5
之事 5
也不必 5
一直都 5
嘈杂 5
萌芽 5
会出现 5
稍微 5
会一直 5
谨 5
流利 5
步履 5
关上 5
▁几天后 5
也只 5
会再 5
之内 5
卸下 5
时髦 5
要坚持 5
我的想法 5
沟里 5
竞相 5
斑斑 5
任何事情 5
最适合 5
意在 5
一时的 5
寻常 5
你吗 5
两片 5
芦 5
全然 5
的家伙 5
到哪里 5
取的 5
39 5
的信 5
人体 5
我知道你 5
资质 5
概 5
宽敞 5
既往 5
▁很久 5
花期 5
他所 5
▁第五 5
缺失 5
不要把 5
粱 5
好日子 5
导游 5
的高度 5
部的 5
要先 5
知道的 5
玩乐 5
燎 5
疮 5
的小镇 5
担忧 5
著作 5
印证 5
自然界 5
还剩 5
使我们的 5
38 5
是如此的 5
点心 5
封面 5
摆弄 5
缺乏 5
不同的是 5
继续前进 5
不老 5
无须 5
小说家 5
新衣服 5
气泡 5
加倍 5
的西 5
和谐的 5
从她的 5
不知不觉中 5
地看到 5
的成长 5
上游 5
提倡 5
分出 5
开一个 5
▁打开 5
醒来时 5
想来 5
67 5
一些东西 5
光滑的 5
无论在 5
它被 5
设有 5
公众 5
的苹果 5
好些 5
她正在 5
重回 5
排名 5
怨恨 5
先去 5
位的 5
在班 5
举办了 5
往来 5
邻家 5
瓜果 5
饺 5
病情 5
可以吃 5
▁不到 5
一早 5
役 5
我会在 5
绿地 5
哀叹 5
绊脚石 5
要到 5
细心的 5
向北 5
▁女人 5
心神 5
暗中 5
降落 5
科普 5
不死 5
是我最喜欢的 5
脚趾 5
源自 5
一部 5
如果有 5
邀请 5
虽然有 5
也觉得 5
几句话 5
同样是 5
琐事 5
嘹 5
在音乐 5
认识的 5
▁小男孩 5
颇为 5
扎根 5
薰衣 5
肚子里 5
很长时间 5
自尊 5
一时间 5
自古以来 5
需求 5
牵手 5
▁经过一番 5
救援 5
关系的 5
湖畔 5
红梅 5
我们总是 5
闻名的 5
浓缩 5
电视台 5
▁酒 5
的意义 5
对她说 5
段时间 5
中秋 5
未必 5
明知 5
亚军 5
帮手 5
展现出 5
挥霍 5
春晚 5
果真 5
是一天 5
看起来像 5
为重 5
5, 5
充满活力 5
厮 5
跟她 5
他一直 5
机关 5
焚烧 5
对学生 5
树根 5
两个人的 5
上千 5
射击 5
阴云 5
扼 5
上学时 5
因为这是 5
大河 5
有点儿 5
拱桥 5
但从 5
等他 5
望远 5
严格要求 5
> 5
48 5
社会中 5
基本上 5
也不行 5
最短 5
会这样 5
去医院 5
冷落 5
虽已 5
穹 5
▁我们还 5
光盘 5
头晕 5
都希望 5
也并不 5
他太 5
回事 5
足球队 5
热浪 5
平地 5
启迪 5
器的 5
崇高的 5
嘀咕 5
组合 5
▁! 5
开发 5
以下 5
的身份 5
有信心 5
68 5
昨日的 5
难民 5
遢 5
广告 5
还有人 5
囚禁 5
捉摸 5
史上 5
赶走 5
家长的 5
观赛 5
车窗 5
吐痰 5
网络 5
献上 5
不要在 5
交代 5
在两 5
和外 5
断断续续 5
动弹 5
得分 5
我可以在 5
在未来的 5
▁在他 5
你为什么不 5
▁从那时起 5
地生活 5
相约 5
范围 5
医院里 5
但您 5
迟钝 5
的人格 5
淮 5
梵 5
称呼 5
靶 5
援助 5
听起来 5
不要紧 5
要看 5
生下 5
合适 5
▁这个故事 5
会长 5
希望与 5
西西 5
娘娘 5
▁那就是 5
敌的 5
便说 5
诞生了 5
新月 5
妇人 5
▁努力 5
垮 5
球队 5
实现梦想 5
钳子 5
输掉了 5
业的 5
辅导 5
八个 5
故事中 5
吹牛 5
一模一样 5
休息时间 5
期限 5
围巾 5
音乐会 5
给孩子 5
温暖和 5
大街 5
念叨 5
气喘 5
爱迪生 5
正常的 5
能源 5
高原 5
践行 5
绛 5
提议 5
森的 5
打字 5
质感 5
膜 5
消毒 5
遮蔽 5
▁作者 5
称的 5
无止境 5
舆论 5
▁偶 5
搬到 5
沙发 5
▁声音 5
愤怒地 5
过几天 5
精致的 5
的内涵 5
悸 5
恐慌 5
领头 5
糙 5
而且要 5
安迪 5
蜃 5
皮鞋 5
2、 5
火锅 5
▁故 5
边走边 5
相聚 5
去买 5
长征 5
辱骂 5
一至 5
新年的 5
受伤的 5
功绩 5
为李 5
海绵 5
是两个 5
类型 5
将被 5
余的 5
在场 5
还用 5
▁据 5
被选 5
既是 5
催眠 5
之行 5
诞 5
小平 5
哥们 5
慨 5
海市 5
膨胀 5
周的 5
什么也没说 5
雳 5
向您 5
热情地 5
看出来 5
瞟 5
衍 5
无法用 5
生活了 5
高粱 5
示范 5
一试 5
城市里 5
防守 5
过错 5
端正 5
机械的 5
▁x 5
不完美 5
有一段 5
疯子 5
放大 5
▁加 5
垢 5
陷入了 5
花钱 5
地道 5
▁内容 5
深受 5
迂 5
的手势 5
成千上万 5
子女 5
▁有一种 5
水龙头 5
见到你 5
力度 5
等级 5
理想和 5
的军 5
▁从那以后 5
咖 5
▁含 5
面上的 5
▁教 5
与自己 5
暂时的 5
影响着 5
疯了 5
的最大 5
丰硕 5
一年前 5
▁夏日 5
的数字 5
怪兽 5
欢欣 5
{ 5
程度 5
违背 5
门槛 5
的沙 5
午饭 5
该怎么 5
醒目的 5
谈谈 5
走好 5
跳水 5
明天的 5
就将 5
死人 5
缆 5
职务 5
造福 5
之忧 5
几天后 5
只用 5
药物 5
进出 5
融为一体 5
他们说 5
还不到 5
漩 5
万个 5
血腥 5
麻醉 5
我们说 5
对吗 5
码 5
的这个 5
刘翔 5
在这些 5
胶 5
深厚的 5
支离 5
一模 5
是件 5
深知 5
是真的 5
上都有 5
项目的 5
忽略了 5
鞠 5
在这种 5
这是在 5
你也许 5
俨然 5
连夜 5
匕首 5
▁鸡 5
房子里 5
不测 5
啜 5
光洁 5
脱颖而出 5
口令 5
先天 5
病的 5
度过的 5
女性 5
和白 5
这并不是 5
伤疤 5
睡眠 5
红军 5
毛笔 5
懿 5
橡 5
该如何 5
你今天 5
绝妙 5
四五 5
挎 5
的前面 5
▁遇到 5
妥 5
对她的 5
墙面 5
生来 5
源源 5
更长 5
了近 5
直到现在 5
另一个人 5
奥运 5
弯道 5
是新 5
只能靠 5
▁一边 5
热水 5
会用 5
就会变得 5
仍能 5
弱点 5
设法 5
▁信 5
看病 5
体育馆 5
绎 5
稍有 5
▁他把 5
谴责 5
增强 5
的举动 5
舒服的 5
逆流 5
神秘感 5
潸 5
芜 5
淅 5
一边说 5
以示 5
美化 5
我准备 5
再度 5
而无 5
▁z 5
第一项 5
看不出 5
事物的 5
奋起 5
盛装 5
看了一下 5
与众不同的 5
称之为 5
午夜 5
县城 5
文中 5
越来越高 5
桌面上 5
是对的 5
▁ch 5
以便 5
古迹 5
泪流满面 5
的愿望 5
化身 5
占据 5
氤氲 5
点是 5
更易 5
妓 5
家在 5
无法想象 5
他们都是 5
混浊 5
迷住了 5
名著 5
往往是 5
涌出 5
尚未 5
如有 5
但它们 5
实用 5
选中 5
▁这就 5
即是 5
免得 5
仆人 5
我并没有 5
细菌 5
肥皂 5
显露 5
报仇 5
烙印 5
背包 5
平了 5
地球上的 5
纪录 5
问过 5
做作业 5
与世 5
的父母 5
的行 5
西亚 5
到尾 5
帝国 5
澎 5
▁英国 5
名字的 5
它以 5
创业 5
盛大 5
岁左右 5
▁在她 5
绮 5
坚实 5
老子 5
▁任何 5
他有 5
你有什么 5
狗的 5
柠檬 5
很长的 5
不同的人 5
逊色 5
改变的 5
林肯 5
致敬 5
▁我为 5
的特点 5
也许我们 5
大手 5
荧光 5
越来越多的 5
▁身体 5
海军 5
之交 5
介绍一下 5
要注意 5
在其 5
绿豆 5
背负 5
的经历 5
▁于是他 5
风浪 5
最高分 5
天性 5
之首 5
跟我们 5
悉心 5
我给 5
这所 5
牌的 5
对未来 5
龙门 5
赚钱 5
世界中 5
一向 5
辆车 5
寡 5
睦 5
▁最近 5
的远 5
▁她还 5
严峻 5
优异 5
中也 5
▁血 5
金香 5
遇上 5
这些东西 5
着重 5
肯定的 5
都是为了 5
她时 5
随地 5
环境中 5
裂缝 5
惫 5
最让人 5
参考 5
小区的 5
共度 5
时日 5
太极 5
赞许 5
左右的 5
的第 5
探究 5
螳 5
▁第三个 5
我只是想 5
以前那样 5
更要 5
监 5
足够的 5
悍 5
很生气 5
野心 5
上大学 5
隆重 5
的男 5
得很好 5
蘑 5
吞下 5
时已经 5
▁轮 5
水深 5
添彩 5
▁第二次 5
3. 5
的差异 5
我的生活 5
好心 5
的圣 5
▁有一个 5
轮胎 5
人却 5
送给我 5
和无 5
氛 5
我很喜欢 5
街上的 5
致辞 5
只能是 5
▁但我们 5
行业 5
▁戴 5
上几 5
一个新 5
升到 5
这部电影 5
▁如果我们 5
胜地 5
石门 5
随之而来的 5
的优势 5
卢 5
抵达 5
这方面的 5
主要是 5
不在家 5
观景 5
也已 5
高速 5
他并没有 5
历史上 5
人家的 5
门卫 5
郸 5
墩 5
这股 5
耐心地 5
看上去像 5
▁人的 5
自行 5
胡萝卜 5
▁这只 5
队友们 5
(1 5
八九 5
虚假 5
袖子 5
▁福建 5
桠 5
几乎没有 5
给我一个 5
粘在 5
好起来 5
游历 5
蕴含着 5
昨 5
的孩子们 5
镌 5
好运 5
韶 5
不懈努力 5
统治 5
失望了 5
120 5
祈求 5
那个时候 5
比这 5
锣 5
匝 5
的一定 5
阳市 5
秦始 5
重建 5
的第二 5
我带 5
打交道 5
霸气 5
空闲 5
是哪 5
印在 5
战中 5
尖锐 5
段落 4
▁如果在 4
崔 4
后代 4
广泛 4
但我不 4
自律 4
我从来没有 4
▁你要 4
二十世纪 4
一回事 4
悯 4
好后 4
以此 4
很深的 4
监督 4
头疼 4
白日梦 4
一无所获 4
也有点 4
▁这是我的 4
▁他们在 4
拿出一 4
世代 4
狭小 4
比特 4
故宫 4
数以 4
更近 4
的家人 4
佩戴 4
松涛 4
增大 4
▁我们把 4
收容 4
做任何 4
似乎已经 4
呼声 4
爆裂 4
出差 4
全世界的 4
雯 4
几年来 4
不同了 4
平日里 4
专利 4
施舍 4
他每天 4
▁我们可以 4
最先 4
活力的 4
你是一个 4
说有 4
抵抗力 4
人命 4
我的灵魂 4
而死 4
潜水 4
米远 4
他们两个 4
馅饼 4
遏 4
经理 4
休息一下 4
次数 4
敷 4
尽管如此 4
茨 4
的帽子 4
刻画 4
▁之前 4
第三天 4
要紧 4
老公 4
用在 4
75 4
的表 4
白菜 4
坊 4
的联系 4
谢幕 4
体重 4
不大的 4
想象力 4
转向 4
依照 4
悬浮 4
地和 4
及格 4
四百 4
方正 4
潮湿的 4
▁或 4
表现得 4
解放军 4
大炮 4
很清楚 4
物资 4
停滞 4
芋 4
使之 4
就跟 4
相信你 4
▁平时 4
簸 4
一个问题 4
都市 4
爱德华 4
璇 4
前所未有的 4
▁在你 4
事例 4
确实是 4
意料 4
冰雹 4
先锋 4
▁可见 4
想成为 4
胶水 4
熟练的 4
临终 4
他是个 4
其余 4
战火 4
计时 4
佞 4
年时 4
与大 4
在桌子上 4
传统文化 4
▁; 4
恋人 4
啧啧 4
很奇怪 4
朋友和 4
在您的 4
可能不 4
银子 4
我们想 4
嗜 4
共同的 4
彻底的 4
特的 4
我听说 4
漩涡 4
篇幅 4
托出 4
已从 4
唔 4
发现了一个 4
下半场 4
家住 4
抱有 4
姝 4
我说的 4
外界 4
的生活中 4
油画 4
手持 4
狂欢 4
激起了 4
十字路口 4
的权利 4
几十年 4
厨 4
杰伦 4
的真实 4
奄 4
二楼 4
说服 4
的火焰 4
我们一直 4
也因此 4
后在 4
le 4
歌星 4
礼堂 4
脱下 4
委会 4
当人们 4
按时 4
流离 4
一开始就 4
体育运动 4
相隔 4
游轮 4
▁十五 4
只有少数 4
的帮助 4
壮举 4
耗费 4
清了 4
馒头 4
讴 4
学习了 4
▁科技 4
他们从 4
留在了 4
不多的 4
相对论 4
风俗 4
你和我 4
一碗 4
遁 4
同一种 4
瞩目的 4
的实验 4
寓 4
被爱 4
是该 4
蛹 4
▁各位 4
乾坤 4
怪异的 4
出版 4
挑衅 4
透气 4
有害 4
极少 4
让学生 4
是爱 4
睡衣 4
一些小 4
归属 4
它可能 4
罗斯福 4
▁许多人 4
室的 4
用什么 4
苛 4
妃 4
由来 4
白杨 4
守法 4
显得有些 4
球场上 4
曳 4
150 4
交汇 4
▁在这样的 4
袅 4
不是那么 4
再用 4
民国 4
破灭 4
周边 4
▁而今 4
苇 4
芝麻 4
▁辛 4
写过 4
点燃了 4
▁我和我的 4
着装 4
学问 4
大肆 4
抢先 4
咀 4
的海水 4
孩子在 4
启蒙 4
族人 4
蠕动 4
汇总 4
那会 4
▁继 4
李小 4
曾是 4
粽子 4
》; 4
而导致 4
还挺 4
他发现 4
桔 4
变成一个 4
那是在 4
千斤 4
▁他还 4
遭受了 4
过关 4
一枝 4
作出了 4
此处 4
▁在那个 4
菩 4
牛仔裤 4
个数 4
没有一个 4
这应该 4
购 4
唯一一个 4
▁列 4
干部 4
▁尤 4
▁非常 4
琳琳 4
纠 4
行动起来 4
的支持 4
找到自己 4
▁爱情 4
与爱 4
相当于 4
▁至今 4
▁曲 4
夜之间 4
挡在 4
严冬 4
一方面 4
所见 4
重新开始 4
之乡 4
然后将 4
费劲 4
▁卢 4
火药 4
风沙 4
波的 4
身亡 4
实验室 4
匹马 4
名词 4
宣誓 4
▁至 4
女教师 4
另一个人的 4
宇航员 4
璨 4
全部是 4
装置 4
到时候 4
治愈 4
在未来 4
的最高 4
投入到 4
清理 4
换回 4
这个城市 4
宝马 4
谁先 4
猛兽 4
值得的 4
标志着 4
并把 4
米奇 4
顶部 4
▁老虎 4
达人 4
他自己的 4
的情形 4
顺序 4
▁成为 4
中能 4
糜 4
周围的人 4
敬礼 4
色和 4
希腊 4
只吃 4
臃 4
倡导 4
的非 4
胜出 4
▁这里有 4
作者的 4
翌 4
受害者 4
界线 4
履 4
元的 4
真的想 4
星期一 4
梦之 4
助力 4
翻译 4
享用 4
马蹄 4
破的 4
地下室 4
我当然 4
萎缩 4
新中国 4
动机 4
通道 4
表演的 4
二年 4
冷水 4
的状态 4
播报 4
儋 4
这种感觉 4
▁赛后 4
与其它 4
索取 4
快餐 4
地步 4
混杂 4
不前 4
政府的 4
但同时 4
叽叽喳 4
要离开 4
句名言 4
很容易被 4
un 4
▁总而言之 4
▁发现 4
野生 4
在场上 4
心烦 4
▁动 4
抡 4
克服了 4
海岸 4
77 4
qu 4
日期 4
丧失了 4
厨师 4
天了 4
了他们的 4
不仅可以 4
与他人 4
成都 4
华北 4
正则 4
态的 4
驰骋 4
栽培 4
现在就 4
一夜之间 4
激情的 4
如愿以偿 4
敲响了 4
E 4
万户 4
根本就 4
匪 4
佼 4
有一套 4
逃生 4
▁严 4
这样一来 4
▁在这一 4
的部分 4
扔在 4
堕 4
臭味 4
污渍 4
▁天津 4
瞬息 4
▁过去的 4
功效 4
宝库 4
迥 4
希望能够 4
毒品 4
▁特 4
▁我今天 4
逮 4
节日的 4
,20 4
和花 4
看不见的 4
蝇 4
切成 4
接下来的 4
滂 4
我在这里 4
妒 4
万股 4
迈出了 4
掰 4
中不 4
无关紧要 4
操控 4
▁经历 4
▁之所以 4
月份 4
体质 4
绝不能 4
小伙 4
上路 4
▁一个人的 4
染上 4
出众 4
兜里 4
的人也 4
中原 4
在一次 4
形势 4
投入了 4
这并不 4
最小 4
或许会 4
开枪 4
奂 4
每晚 4
不少人 4
▁昨 4
开端 4
可能要 4
的概念 4
隐居 4
山大 4
交通事故 4
二月 4
沛 4
▁上个 4
总比 4
数量 4
架子 4
派对 4
帮助你 4
的一小 4
比尔 4
膏 4
恶心 4
每个人都能 4
第二种 4
动画 4
模范 4
我忘了 4
穿衣服 4
端的 4
白糖 4
之星 4
时间都 4
何方 4
说话时 4
去那里 4
在第一 4
胃口 4
▁皇帝 4
母子 4
克隆 4
王的 4
榨 4
敌军 4
两层 4
去哪儿 4
费力 4
天花 4
介意 4
必须有 4
圣母 4
的船 4
咽喉 4
▁唱 4
ip 4
实在是太 4
的桥梁 4
时针 4
顽固 4
59 4
高位 4
馒 4
▁留 4
厄运 4
和对 4
几近 4
大城市 4
排球 4
富翁 4
耗尽 4
想办法 4
傻瓜 4
三条 4
缅 4
突然出现 4
口服 4
▁他开始 4
小军 4
▁傅 4
头大 4
握手 4
带了 4
自杀 4
在平 4
写信 4
灵活的 4
嚣张 4
刺耳 4
已无 4
欣然 4
的事儿 4
在工作 4
而这一 4
▁记 4
怎么说 4
隅 4
就能看到 4
折断 4
麦子 4
加尔 4
一阵子 4
比拟的 4
帮助他们 4
饲料 4
说这个 4
多数 4
▁以往 4
说那 4
▁齐 4
看望 4
浮动 4
▁我们首先 4
彭 4
▁它没有 4
地表 4
压倒 4
反击 4
庐 4
抽屉 4
be 4
它从 4
恒星 4
只是因为 4
的五 4
▁如果有人 4
便可以 4
撼 4
之作 4
崩溃 4
一页 4
野兽 4
咿咿 4
我们非常 4
缨 4
裸露 4
沼泽 4
娅 4
对外 4
减肥 4
▁前几天 4
便利 4
是这个 4
▁元 4
大胆的 4
能成为 4
刺伤 4
未知数 4
只说 4
赛的 4
▁虽然没有 4
开场 4
四人 4
▁我正在 4
限制 4
▁关于 4
中游 4
严谨 4
并不像 4
▁如同 4
切开 4
绯 4
胆量 4
闭上了眼睛 4
▁依 4
惊慌失措 4
店里 4
不了解 4
我再次 4
负担 4
投影 4
答复 4
通透 4
外出 4
都不愿意 4
K 4
的姐姐 4
打来 4
洞穴 4
漪 4
蓑 4
驱赶 4
时间和 4
淙淙 4
破坏了 4
少数 4
几点 4
亲戚 4
估 4
仅是 4
洗碗 4
▁到达 4
他们知道 4
办公 4
更替 4
冰的 4
甜心 4
佛山 4
狂野 4
抽烟 4
工资 4
链条 4
城区 4
及时的 4
敲了 4
的现实 4
巧合 4
更换 4
最终的 4
落后的 4
鲤 4
霭 4
棍子 4
难堪 4
大致 4
光临 4
27 4
之多 4
风气 4
在本 4
牺 4
到底在 4
万缕 4
不计 4
万种 4
的可爱 4
以一个 4
已经把 4
恰当 4
晚会 4
攀爬 4
在我国 4
J 4
一个有 4
璞 4
▁除 4
▁在国家 4
康乃 4
行驶在 4
什么样的 4
内容是 4
▁纵观 4
成千 4
和发展 4
组成了 4
29 4
很近 4
穷人 4
提供 4
今后的 4
闭嘴 4
麦格 4
淡化 4
▁公元 4
婪 4
的肉 4
人民政府 4
▁一种 4
香水 4
陀 4
村里的 4
就是如此 4
▁听着 4
蕾丝 4
吃一 4
也算是 4
张家 4
侵蚀 4
▁圆 4
▁所以我 4
▁要说 4
以外 4
监视 4
憬 4
缺钱 4
的女子 4
良知 4
更不用说 4
▁你喜欢 4
漉 4
占地 4
▁大家好 4
开辟 4
平坦 4
生气地 4
鱼类 4
褴 4
瓢 4
餐桌 4
采集 4
着眼于 4
一直没有 4
丝绸 4
凯撒 4
她没 4
底层 4
担负 4
渺茫 4
在阿 4
绦 4
筛选 4
非常快 4
5000 4
功劳 4
衬衣 4
数千 4
▁农 4
重返 4
这么好 4
嗡 4
我们需要 4
▁带 4
轻微 4
侧的 4
几周 4
在各 4
向南 4
清晰地 4
噌 4
玩起了 4
周到 4
与现实 4
屏幕上 4
也是一样 4
人道 4
日晚 4
气概 4
到脚 4
▁好吧 4
上时 4
在医院 4
年的历史 4
着火 4
牛的 4
图形 4
自己的生活 4
敲打 4
现状 4
所以他 4
买来 4
a 4
湮 4
溯 4
同龄人 4
模式 4
放置 4
600 4
自己和 4
2。 4
进而 4
接纳 4
向左 4
经常在 4
潮湿 4
傣 4
徒步 4
毫无疑问 4
不会因为 4
奇特的 4
举行的 4
两端 4
老王 4
俺 4
两行 4
关心和 4
会议 4
舱 4
大头 4
出水面 4
林木 4
荠 4
几年前 4
人数 4
红宝石 4
电脑前 4
运作 4
▁到处 4
家属 4
▁这也 4
阂 4
+ 4
羚羊 4
会因为 4
袱 4
利害 4
你是怎么 4
应有 4
95 4
▁今天上午 4
▁既然如此 4
鸟笼 4
▁是一个 4
万能 4
月上 4
印象中 4
▁鼓励 4
俯卧 4
天里 4
走进去 4
本能 4
大开 4
火炉 4
航向 4
而且是 4
正轨 4
大多是 4
在看 4
知晓 4
建立了 4
肯德基 4
这几年 4
▁当天 4
栅 4
真的吗 4
分娩 4
别处 4
泪流 4
用于 4
帮助了 4
想用 4
翟 4
安全的 4
铺着 4
按钮 4
融合 4
奶牛 4
的可怕 4
蔑视 4
完好 4
▁桥 4
深意 4
每天早上 4
成为我们 4
翼龙 4
匿 4
歧视 4
和别人 4
陕西 4
▁有个 4
▁准备 4
过一次 4
的这种 4
发起了 4
和尊重 4
记起 4
五大 4
就变得 4
招牌 4
妊 4
含有 4
发达的 4
▁关 4
▁重 4
起落 4
因为它们 4
一反 4
靠自己 4
音量 4
的印象 4
有条 4
堰 4
输送 4
上对 4
清洁 4
褶 4
想一下 4
的大部分 4
▁相 4
需要你 4
▁我问 4
▁他们用 4
赢家 4
我什么 4
存在着 4
风格的 4
戏剧 4
老实 4
的具体 4
R 4
清纯 4
第一场 4
胞 4
处境 4
胆怯 4
健身 4
对联 4
烬 4
人没有 4
酱油 4
宁可 4
从不同的 4
字的 4
炖 4
对付 4
邢 4
而使 4
药水 4
明朝 4
厦 4
一战 4
文物 4
瞻 4
▁他喜欢 4
搏斗 4
团结一致 4
嶂 4
惦 4
有困难 4
雷霆 4
其实就是 4
记者问 4
一代 4
全面发展 4
涌现 4
出卖 4
优异的 4
看到他的 4
绅 4
关心的 4
言行 4
船上的 4
扳 4
觉悟 4
褴褛 4
来一次 4
大街小巷 4
皙 4
的排 4
起着 4
意向 4
一起吃饭 4
▁4 4
说法 4
都应该 4
构成的 4
率领 4
一个在 4
照明 4
八月 4
的高级 4
警示 4
看到她 4
理所当然 4
虚弱 4
回想起来 4
在第 4
积极的 4
精通 4
警戒 4
消化不良 4
互联网 4
不当 4
挤满了 4
指标 4
严重的 4
困苦 4
老太 4
更容易 4
突出的 4
代人 4
滑冰 4
寺院 4
耽 4
认识到了 4
双重 4
茏 4
此后 4
肥料 4
进入到 4
全城 4
发布 4
边缘 4
国会议员 4
枉 4
企图 4
符号 4
各方面 4
在空 4
疤痕 4
的进程 4
而行 4
烧伤 4
伯特 4
天然的 4
闲聊 4
力所能及 4
不讲 4
不入 4
葱葱 4
▁接下来的 4
的困难 4
煎 4
敬业 4
洗手 4
时会 4
名副其实 4
奶酪 4
的机器 4
▁b 4
从这里 4
都认为 4
西部 4
秩序 4
太早 4
车祸 4
八年 4
扔掉 4
一切顺利 4
奥运会 4
又回到了 4
营养不良 4
在全国 4
子是 4
捕鱼 4
因为他是 4
▁我必须 4
凡是 4
后方 4
过半 4
仅仅是 4
甚至比 4
他俩 4
不是因为 4
地进行 4
▁使 4
权力 4
寓意 4
你是个 4
老太太 4
灯的 4
▁幸好 4
远大 4
给了她 4
包含了 4
小康 4
▁机器 4
领导下 4
山东省 4
▁3 4
潜能 4
学生在 4
的腿 4
▁潘 4
得出 4
▁郭 4
▁塔 4
篮子 4
正义的 4
脆弱的 4
太太 4
民主 4
麋 4
▁点评 4
取得了成功 4
毫米 4
写一个 4
三位 4
楷 4
鸳鸯 4
砥 4
函 4
▁应 4
步走 4
骗子 4
我们还有 4
轰炸 4
并不知道 4
火种 4
▁知道 4
它正在 4
师的 4
° 4
矛 4
农药 4
出国 4
给他人 4
都是从 4
计算 4
▁我不喜欢 4
▁失 4
几千 4
潦 4
大局 4
郡 4
幸运的 4
埋伏 4
ǒ 4
阿婆 4
莫名 4
的电影 4
日后 4
电风扇 4
语和 4
全部都是 4
跑出来 4
机智 4
争相 4
对他来说 4
仓库 4
可说 4
林荫 4
性感 4
▁众 4
醒目 4
把水 4
浪费时间 4
挺好 4
如果他 4
办公楼 4
的好奇 4
胸部 4
永远不要 4
因为这些 4
生长的 4
的性 4
八十 4
层次 4
拼凑 4
因为这样 4
工的 4
萄 4
我就可以 4
上用 4
了一个新 4
▁我正 4
很久了 4
听说过 4
又以 4
手电 4
任意 4
上色 4
的水平 4
矩 4
包扎 4
▁长城 4
地热 4
石碑 4
害虫 4
聚会 4
表白 4
纱布 4
非常大 4
纷呈 4
小飞 4
引来了 4
创作了 4
容纳 4
卜 4
琦 4
一下午 4
的情绪 4
重复的 4
还不如 4
▁去年夏天 4
》、《 4
▁各个 4
因为他的 4
一般在 4
行车 4
价值的 4
年轻的时候 4
定义 4
贡 4
▁常 4
的年 4
商人 4
中秋节 4
础 4
学到的 4
就来了 4
非常非常 4
才能实现 4
▁年轻 4
亲切地 4
人手 4
的一项 4
氢 4
▁穿 4
老婆 4
性情 4
男子汉 4
垂直 4
他总是 4
被困 4
情况下 4
辅助 4
隋 4
2018 4
我所能 4
总体 4
邃 4
应用 4
女王 4
便捷 4
发现在 4
▁汽车 4
这种事 4
▁有多少 4
调色 4
沸腾了 4
傻了 4
甚至可以 4
安娜 4
粗暴 4
后者 4
和自己的 4
芒果 4
境地 4
打理 4
馈 4
XX 4
我们是否 4
▁某 4
烘烤 4
相关 4
报复 4
几年里 4
第三次 4
每天都有 4
▁湖南 4
市民 4
▁偶然 4
流中 4
中被 4
变得更好 4
这么做 4
特别大 4
饭店 4
孤立的 4
紧紧抓住 4
不必要的 4
他们对 4
苦恼 4
这使 4
没事的 4
如人意 4
扩 4
▁安徽 4
词的 4
轻的 4
的关键 4
有了新的 4
令人惊讶 4
轮流 4
数十 4
为什么还要 4
上帝的 4
就可以了 4
后被 4
映射 4
千米 4
随处 4
蚌 4
在过去的 4
它们是 4
路线 4
透彻 4
每天晚上 4
地而 4
知名的 4
厌倦了 4
救人 4
▁一名 4
吸引人 4
省的 4
球队的 4
▁刺 4
麻麻 4
表面的 4
嗟 4
芮 4
对三 4
市东 4
早上好 4
吞咽 4
待遇 4
庄子 4
它为 4
▁凡 4
俯瞰 4
终于可以 4
▁湖北 4
旅行的 4
终于找到了 4
贫瘠 4
很难过 4
合格 4
▁来自 4
的李 4
镇定 4
推力 4
伴侣 4
幸福和 4
提出了 4
▁在我们的 4
消除 4
否认 4
炙 4
混沌 4
如其 4
在那些 4
自己做 4
犀牛 4
节是 4
大规模 4
多年了 4
奔走 4
的水泥 4
我们以 4
摆放 4
比他们 4
渴求 4
的血液 4
毕生 4
所在的 4
▁主持人 4
责任感 4
节拍 4
逝世 4
果汁 4
和他一起 4
漫不经 4
已经有了 4
▁》 4
此事 4
积蓄 4
指的 4
▁波 4
我们不得不 4
椒 4
浒 4
看重 4
年一 4
我愿意 4
细微的 4
▁湘 4
博览 4
改革开放 4
围栏 4
性和 4
酝酿 4
散布 4
在课堂 4
东北 4
图片 4
的攻击 4
什么吗 4
AT 4
小熊 4
连贯 4
合适的 4
2010 4
加深 4
危急 4
你觉得 4
的心理 4
是自 4
活动中 4
有哪些 4
一盘 4
3、 4
▁在此 4
的日 4
方丈 4
我不得不 4
差不多了 4
拴 4
格的 4
购买 4
睿智 4
清除 4
适中 4
在面对 4
要向 4
完全是 4
镰刀 4
来自于 4
我们只能 4
▁学生 4
对这 4
它不会 4
本身就 4
航天员 4
绝不是 4
高中生 4
包包 4
请让我 4
送到了 4
成千上万的 4
都喜欢 4
薯 4
给您 4
率的 4
道理的 4
很快被 4
然后在 4
包装 4
见过的 4
▁图书馆 4
体能 4
厦门 4
占有 4
杀伤 4
大麻 4
非要 4
芭蕾舞 4
而久之 4
装饰品 4
种种原因 4
国庆 4
已经很 4
挑起 4
往日 4
之家 4
▁噢 4
檀 4
原理 4
涔 4
共进 4
心和 4
这座城市 4
平行 4
宽的 4
集团 4
格兰 4
捐了 4
▁另一个 4
奢望 4
评论 4
选拔 4
颔 4
表明 4
料的 4
孕 4
你在哪里 4
现今 4
格林 4
理性的 4
其所 4
生理 4
痰 4
看上去很 4
▁洛 4
房子的 4
前就 4
他不会 4
的考验 4
笨蛋 4
微小 4
逃走 4
火如 4
才开始 4
聚集在 4
还是以 4
增益 4
柚 4
骨架 4
带回 4
的大象 4
拣 4
很早 4
就出现了 4
非常感谢 4
商品 4
能做到 4
本站 4
不用说 4
蹑 4
乐意 4
牵引 4
▁露 4
▁罗 4
什么也没 4
2019 4
打倒 4
柜子 4
窑 4
▁机 4
可就 4
的神秘 4
鼻孔 4
遭到 4
大到 4
尴 4
▁然后是 4
自己的身体 4
江西 4
生还 4
▁我将 4
以对 4
的光明 4
下垂 4
的错误 4
空气中的 4
风波 4
雾霾 4
座的 4
备受 4
甚至还 4
极高 4
一筹 4
在美国 4
▁是否 4
胡同 4
极力 4
多云 4
性质 4
他说话 4
她将 4
建筑物 4
镐 4
超凡 4
截肢 4
捧起 4
作为一名 4
纹理 4
电线杆 4
很幸运 4
收成 4
都是由 4
箍 4
2014 4
根本就没有 4
天生的 4
禄 4
的公路 4
自然风光 4
中看到 4
▁徐 4
1。 4
剪纸 4
的中心 4
在以 4
牢骚 4
团体 4
他们自己的 4
会和 4
▁毕业 4
责骂 4
玮 4
荣获 4
一个国家 4
记者们 4
▁知 4
下决心 4
倪 4
群众 4
▁而如今 4
的念头 4
存钱 4
渔夫 4
领带 4
解答 4
无缺 4
人事 4
吃什么 4
出乎 4
译 4
战术 4
▁不同 4
剩余 4
左侧 4
市长 4
近乎 4
独一无二 4
实心 4
沱 4
汰 4
长安 4
炎炎夏日 4
新区 4
纽带 4
儿子的 4
在床 4
和黑 4
惯性 4
召开 4
可达 4
涌动 4
一局 4
站出来 4
养分 4
▁想要 4
汽油 4
钗 4
多一些 4
一个电话 4
消沉 4
▁每年 4
的理想 4
就在于 4
搭乘 4
拿破仑 4
芯片 4
并不重要 4
一出 4
鹭 4
四点 4
在这场 4
微波 4
幸存 4
是从哪里 4
▁色 4
常规 4
厢 4
盘上 4
化学 4
更像是 4
评判 4
自以为 4
严厉的 4
狭窄的 4
群体 4
▁我感到 4
鸟巢 4
的根本 4
改革 4
母亲节 4
菇 4
低矮 4
碟 4
镂 4
控制着 4
降下 4
第二大 4
阐 4
挣钱 4
东南 4
截然不同 4
▁孟 4
抗击 4
钢丝 4
黄土 4
钱了 4
栓 4
画像 4
与其他 4
的效果 4
吃了一 4
完整的 4
500 4
倘 4
▁以上 4
帆布 4
专属 4
直观的 4
▁每个人都 4
遗弃 4
稳健 4
屋内 4
休息时 4
可以成为 4
将近 4
借助 4
有如此 4
到之处 4
笨拙 4
有大 4
祝福你 4
对大 4
答案是 4
我倒 4
牛肉 4
跟风 4
辗 4
记忆力 4
▁提 4
▁—— 4
视力 4
▁现代 4
可有 4
桅 4
红火 4
封闭 4
逗留 4
手足 4
,4 4
我们这个 4
时间里 4
后会 4
▁一场 4
卖的 4
成立了 4
远古 4
等一下 4
蜂蜜 4
区域 4
活生 4
草稿 4
双方都 4
爱她 4
▁比起 4
2008 4
红酒 4
▁坐 4
维也纳 4
少有的 4
请问 4
平均 4
恭喜 4
的形状 4
调查 4
天籁 4
尖叫声 4
遇难 4
殖民 4
园的 4
我们就可以 4
像我一样 4
首都 4
即刻 4
希望大家 4
▁且 4
无聊的 4
比喻 4
姻 4
的街道 4
都需要 4
共舞 4
歆 4
的形成 4
仅供参考 4
嫉 4
这样一种 4
身手 4
正在为 4
广东 4
逃跑了 4
这个大 4
领袖 4
的一半 4
年轻时 4
大地震 4
地对待 4
26 4
▁呃 4
店的 4
叭 4
酣 4
具体 4
听不到 4
已经过去了 4
激光 4
不会像 4
倦怠 4
还是会 4
很忙 4
魔术师 4
有效的 4
▁有着 4
的说法 4
▁除了 4
颠簸 4
太重 4
无礼 4
郊 4
因此而 4
也会被 4
荒凉 4
卑鄙 4
庶 4
蓝宝石 4
对它的 4
略微 4
▁我不是 4
也纷纷 4
风险 4
鸡翅 4
掉到 4
比划 4
嗤 4
的窗户 4
圣人 4
▁狮子 4
信的 4
有声 4
舞会 4
共计 4
三岁 4
拖拉 4
上写 4
为小 4
▁奥 4
我几乎 4
速度快 4
钊 4
闪耀着 4
试管 4
顺便 4
找寻 4
险些 4
再生 4
浸泡 4
蜗 4
企业家 4
顺利地 4
肺炎 4
午间 4
车轮 4
奇怪的是 4
执行 4
让它们 4
明确的 4
危机 4
可怜的 4
那个女孩 4
却以 4
为实现 4
保姆 4
000 4
文学作品 4
承认自己 4
舵 4
刀子 4
跳过 4
技艺 4
亲身体验 4
要比 4
的选择 4
大夫 4
于事 4
金银 4
罪人 4
正忙着 4
而入 4
粗鲁 4
金刚 4
对手是 4
无与伦比 4
垛 4
▁他们有 4
火爆 4
粉红色 4
无能为 4
组长 4
想见 4
干燥 4
卖了 4
缠着 4
书签 4
可能就是 4
进水 4
月在 4
说谎 4
交了 3
木板 3
为大 3
非常高 3
要让 3
暄 3
感到紧张 3
分配 3
最后一位 3
又如何 3
施加 3
那座 3
国强 3
失业 3
一般是 3
因其 3
也最 3
溢出 3
惋 3
本着 3
自己可以 3
余地 3
的小麦 3
▁当她 3
商场 3
可知 3
减速 3
▁保护 3
谁愿意 3
疗 3
没人会 3
大国 3
五月 3
▁参观 3
那么就 3
钞票 3
充满信心 3
▁如果是 3
很聪明 3
小板 3
煤气 3
利奥 3
又没有 3
跟着你 3
问问 3
架飞机 3
颁 3
先知 3
寥寥无几 3
不过气 3
44 3
▁l 3
滴答 3
▁个人 3
无非 3
不利 3
您能 3
指数 3
增添了 3
招人 3
自己对 3
也都在 3
汛 3
到下 3
绰号 3
被撞 3
另一半 3
螺丝 3
但是你 3
可做 3
斑点 3
融入了 3
来进行 3
出来时 3
烟熏 3
年之后 3
▁桑 3
一部电影 3
贫困 3
富含 3
慑 3
金币 3
尖端 3
灭火 3
密码 3
竞争的 3
另一方 3
访问 3
藻 3
未见 3
单车 3
抗日 3
百万富翁 3
乡的 3
圣诞 3
做不到 3
转机 3
羊肉 3
大盘 3
在一块 3
利伟 3
▁北京 3
我告诉你 3
贩 3
每个学生 3
想得到 3
他们也会 3
我父亲 3
百事 3
小到 3
几秒钟 3
书架上 3
将永远 3
撅 3
▁只有这样 3
▁它在 3
he 3
所有的人 3
问题时 3
安东 3
几十个 3
第一章 3
用地 3
毫无意义 3
▁今晚 3
示威 3
的一件 3
▁当它 3
最强 3
接班人 3
不愉快 3
卫星 3
动情 3
有不少 3
覆盖着 3
对一个 3
乱扔 3
建于 3
是他们的 3
疲乏 3
报道 3
纳斯 3
出乎意料 3
付了 3
有良好的 3
廓 3
▁几乎 3
每一种 3
代言 3
的节日 3
做客 3
官兵 3
礼帽 3
全市 3
欠缺 3
胜的 3
骨折 3
适当的 3
目录 3
中对 3
正与 3
主意 3
极具 3
在您 3
国民党 3
的秘密 3
购买了 3
有力地 3
大大小 3
倾倒 3
倒闭 3
数目 3
街边 3
也得到了 3
三个小时 3
榻 3
方案 3
慈善机构 3
跆拳道 3
漂浮在 3
了该 3
灌木丛 3
需要一个 3
憧 3
凹凸 3
竞技场 3
110 3
听到这个消息 3
窈窕 3
一剑 3
狂热 3
地震中 3
天宫 3
挑剔 3
获得成功 3
幸的 3
变慢 3
氨 3
▁因为他们 3
以为然 3
内涵 3
分之 3
▁沉默 3
水手 3
早在 3
一小部分 3
工作者 3
一月 3
的唯一 3
填补 3
轧 3
他们还 3
不切 3
勇气和 3
▁我只是 3
和红 3
丰盛 3
考察 3
分布 3
想要的东西 3
我们可以看到 3
保住 3
云龙 3
至高 3
耳语 3
发挥的 3
尾声 3
大使 3
发生了什么事 3
引线 3
天人 3
中与 3
由其 3
铺垫 3
▁至少 3
打进了 3
悼念 3
游泳池 3
还将 3
断裂 3
视频 3
创立 3
合作社 3
友人 3
可以与 3
▁尽管在 3
▁行 3
▁十几 3
就有可能 3
底线 3
有不同 3
▁男 3
殆尽 3
超人 3
撤 3
恼火 3
夺取 3
输掉 3
不管怎样 3
摁 3
是专门 3
看清楚 3
达的 3
洗了 3
早年 3
无济于事 3
是一家 3
现在还 3
智能 3
食物中毒 3
铺路 3
内政 3
▁普 3
▁陆 3
日下午 3
自尊心 3
扬州 3
计时器 3
潜艇 3
的那个人 3
交际 3
现在都 3
▁一般 3
对我来说是 3
他们只 3
是提高 3
修建 3
怖 3
▁剩下的 3
▁没有人 3
▁教学 3
赶往 3
有失 3
味觉 3
灵活地 3
转移 3
瘤 3
的头脑 3
考生 3
精神和 3
拟人 3
更有趣 3
让座 3
我们将会 3
保暖 3
向西 3
和自己 3
连环 3
上放 3
鞘 3
ian 3
两年前 3
了一个新的 3
外壳 3
旗鼓 3
较多的 3
埋藏 3
全靠 3
比赛前 3
自己的想法 3
边走 3
绵羊 3
掌管 3
卫士 3
尔兹 3
仞 3
开创 3
如果再 3
的飞机 3
但他还是 3
识别 3
吃药 3
考核 3
▁你会 3
不及格 3
淤 3
无视 3
有好处 3
城镇 3
但我的 3
▁我以 3
之年 3
可可 3
之大 3
经久 3
竭力 3
是让 3
妻子的 3
单一 3
可以让 3
大姐 3
是同 3
压低 3
季军 3
是时候 3
也没用 3
不以为然 3
说来 3
马拉松 3
和王 3
别再 3
伦理 3
的话题 3
我们可以在 3
在冬天 3
名列前茅 3
就是说 3
骚动 3
上级 3
清楚的 3
教育家 3
易事 3
伸缩 3
岩石的 3
改为 3
建功 3
丢失了 3
▁可以说 3
无阻 3
留有 3
地认为 3
不符合 3
囵 3
眼睛的 3
下个 3
这一举动 3
严格的 3
但有 3
就可 3
斯坦 3
环顾 3
把手放在 3
哈尔滨 3
却是一个 3
女人的 3
法学院 3
而形成的 3
的理解 3
干练 3
废物 3
别扭 3
就是对 3
沂 3
∴ 3
▁高考 3
筷 3
就是她 3
也正在 3
的人员 3
惝 3
但这些 3
和安 3
美感 3
轩逸 3
方面都 3
轻而易举 3
未能 3
难逃 3
上有个 3
与朋友 3
衢 3
待在 3
仪器 3
▁诗 3
的劳动 3
会给 3
组和 3
理科 3
黄岩 3
大理石 3
点小 3
更快乐 3
搬家 3
上涂 3
垣 3
支离破碎 3
翕 3
门后 3
胡言 3
真是太好了 3
胸腔 3
河马 3
水能 3
术语 3
白兰 3
死刑 3
媛 3
▁圣 3
▁真正 3
▁我还要 3
疲劳 3
水资源 3
埂 3
极强的 3
题材的 3
转折点 3
最重要的是 3
姓名 3
这么多年 3
节节 3
物质上的 3
乐团 3
藏族 3
不振 3
方方面面 3
令人惊叹 3
她是一个 3
弄脏 3
叟 3
变脸 3
其身 3
也用 3
以上的 3
酮 3
长龙 3
曾多次 3
还行 3
但如果 3
泰国 3
噬 3
觉察 3
盖子 3
蹒 3
实习 3
也向 3
我可能 3
)( 3
笨重 3
以小 3
目睹 3
氮 3
剿 3
邵 3
▁倘若 3
形式 3
写道 3
抱负 3
变化多端 3
东西都 3
仓促 3
形成一个 3
置于 3
沙漠中 3
你就能 3
档 3
发现自己的 3
火车站 3
:' 3
无几 3
中有多少 3
博物 3
要保持 3
小儿 3
整日 3
则为 3
傍 3
可以减少 3
切换 3
码头 3
大家可以 3
在墙上 3
一新的 3
每个人都在 3
之夜 3
收敛 3
▁他曾 3
180 3
流行的 3
鳌 3
▁杜 3
分到 3
弄清 3
状况 3
收回了 3
星座 3
通讯 3
中说 3
裕 3
我的妻子 3
他们有 3
提早 3
艰苦奋斗 3
规模 3
你太 3
还被 3
▁当时的 3
把他的 3
娜娜 3
刀刃 3
向阳 3
甜食 3
护卫 3
腋下 3
如果能 3
开始后 3
并进 3
夫的 3
▁回顾 3
李世 3
吹口哨 3
实际行动 3
双人 3
取代了 3
▁这也是 3
末端 3
是一个好 3
极度 3
的大小 3
媒 3
中断 3
历时 3
情书 3
姊 3
vs 3
体型 3
更难 3
违法 3
敦煌 3
社会发展 3
两个小时 3
水土 3
欺凌 3
各个方面 3
把握住 3
极致 3
▁最为 3
场外 3
维度 3
中的每个 3
宠爱 3
一个小男孩 3
抠 3
哀悼 3
尽责 3
来越 3
建议 3
六七 3
竖起大拇指 3
捷径 3
不足之处 3
人认为 3
到底是什么 3
咳嗽 3
把你的 3
吃午饭 3
的原 3
爱丽丝 3
原位 3
▁因为她 3
汶川 3
啰 3
叫什么名字 3
的街道上 3
莓 3
黔 3
想当 3
的兴趣 3
▁沿 3
第二场 3
在不久的将来 3
会怎样 3
▁如果是这样 3
纠正 3
羿 3
戳 3
消磨 3
就不是 3
小丑 3
第二轮 3
一言不发 3
卡在 3
便已 3
外人 3
环卫工人 3
应该有 3
剥削 3
利于 3
▁史 3
保险 3
有效 3
▁小李 3
有用的 3
频 3
▁这段 3
他们来 3
没好 3
看哪 3
并为 3
摇滚 3
手来 3
胯 3
体现在 3
并没 3
有足够 3
分校 3
航行的 3
得体 3
夺走 3
▁怎样 3
咫尺 3
乐队 3
▁他们认为 3
果断 3
对我而言 3
▁给我 3
▁包 3
了四 3
准备工作 3
您是否 3
影像 3
换成 3
自制 3
毕业生 3
刚过 3
垃圾箱 3
造的 3
史蒂芬 3
滦 3
的羊 3
官的 3
公布了 3
▁陶 3
▁它们在 3
唐人 3
拉锯 3
我不需要 3
井底 3
与教育 3
其间 3
日历 3
阴谋 3
喇 3
卡通 3
排除 3
的次数 3
详细 3
利亚 3
▁从来 3
毛细 3
伙食 3
究竟是 3
丢失 3
皎皎 3
台的 3
竭尽 3
涣 3
铁链 3
赛前 3
活动的 3
▁瘦 3
拍下 3
同情心 3
放松一下 3
后脑 3
李大 3
咎 3
▁春节 3
隐瞒 3
感和 3
难以置信 3
铠 3
时许 3
评选 3
攻破 3
玉树 3
▁应该 3
,14 3
广州的 3
踉 3
情有 3
必经 3
发型 3
▁秦 3
既不 3
▁钟 3
既有 3
停靠 3
也失去了 3
以其 3
没必要 3
时间在 3
▁伟大的 3
最佳 3
跳上 3
低级 3
如期 3
他们之间 3
的强大 3
掣 3
他面前 3
跪在 3
争论 3
奖项 3
番茄 3
▁升 3
入狱 3
一等 3
▁她没有 3
第一轮 3
不强 3
▁上半场 3
康复 3
▁队长 3
东部 3
O 3
无耻 3
船只 3
自己的行为 3
不含 3
口罩 3
充满希望 3
将这些 3
白山 3
受人 3
收尾 3
宪 3
▁自由 3
挫败 3
抗议 3
粗略 3
供人 3
思想和 3
粤 3
执意 3
教育部 3
前天 3
嗅觉 3
提琴 3
大屠杀 3
一生中最 3
的是一种 3
自然而 3
卸 3
桎梏 3
培训班 3
▁一段时间 3
模特 3
▁我已 3
种了 3
的训练 3
使人们 3
牢固 3
一成 3
奇观 3
他喜欢 3
称作 3
都是有 3
有所不同 3
治疗 3
图纸 3
我的父母 3
—5 3
▁欧 3
脚跟 3
的反应 3
化妆 3
面团 3
桅杆 3
每个人都会 3
宣读 3
借用 3
不符 3
假设 3
学院的 3
的高峰 3
权威 3
投了 3
长沙 3
位子 3
高空 3
合一 3
朝鲜 3
还对 3
▁也有 3
盲目 3
先辈 3
磷 3
留情 3
▁丽 3
我简直 3
▁' 3
的哥 3
垃 3
蜒 3
家长和 3
宠儿 3
很感兴趣 3
努力工作 3
恩赐 3
可以从 3
我们只有 3
更好地 3
信用 3
煲 3
镣 3
周五 3
穿好 3
自己的工作 3
在最后 3
县的 3
意志力 3
人称 3
委员会 3
行动的 3
的不满 3
精英 3
批判 3
熬夜 3
栋楼 3
中的每一个 3
江苏 3
壑 3
一楼 3
幼苗 3
调到 3
底部 3
银河系 3
碗中 3
are 3
哽 3
反而会 3
全家人 3
宝藏 3
强化 3
此人 3
要来 3
无止 3
詹 3
此番 3
丞 3
海鲜 3
混混 3
不论是 3
历史悠久 3
▁孩子们 3
疵 3
世界上的 3
潸潸 3
加紧 3
的另一 3
一经 3
给出了 3
圃 3
揭露 3
者说 3
部长 3
偷走 3
太远 3
开战 3
上等 3
发问 3
退后 3
五月的 3
随机 3
神州 3
的欲望 3
疙瘩 3
苏菲 3
▁你应该 3
的一套 3
匀称 3
但是从 3
末日 3
格列 3
急躁 3
做任何事情 3
多为 3
单独 3
消失的 3
▁直 3
烈士 3
痘 3
账 3
人与人之间 3
庄园 3
的教育 3
的技术 3
有人问 3
海鸥 3
耽误 3
陆地 3
和中国 3
的成就 3
有趣的是 3
认同 3
的作者 3
转而 3
作业的 3
偏僻 3
能够做到 3
▁所以我们 3
挟 3
居高 3
米饭 3
告诫 3
剧烈的 3
的能量 3
分布在 3
小林 3
谊 3
有更多 3
太高 3
集团的 3
安装 3
端庄 3
的主角 3
不得而知 3
兑 3
积水 3
到另一个 3
分班 3
2020 3
了然 3
护栏 3
防御 3
正朝着 3
不等于 3
无一人 3
但是它们 3
井然 3
两组 3
财产 3
丽莎 3
螃 3
点到 3
窒 3
多年前 3
隐藏着 3
和家人 3
磁铁 3
王文 3
时却 3
▁那只 3
相亲 3
灵敏 3
圣地 3
九寨沟 3
▁书中 3
▁在中国 3
将一 3
这都是 3
的形象 3
时所 3
高峰 3
河道 3
耕作 3
自言 3
大学的 3
的小屋 3
和情感 3
▁确实 3
历史文化 3
输入 3
▁要知道 3
统计 3
古装 3
▁喜 3
最令人 3
感应 3
用电 3
中选择 3
正对着 3
碰碰 3
ua 3
呆在家里 3
上调 3
妇女的 3
▁这让 3
卞 3
幻灭 3
拖到 3
服从 3
他似乎 3
汹汹 3
▁但是他们 3
▁那天晚上 3
向世界 3
在日常 3
蕴藏着 3
和刘 3
文静 3
无法理解 3
宫廷 3
同行的 3
加工 3
会从 3
的一部 3
也很少 3
鸡肉 3
▁第一章 3
赛车 3
中美 3
▁放下 3
击败 3
▁临 3
里说 3
听闻 3
▁金钱 3
撒谎 3
后继 3
某个人 3
▁求 3
白热 3
亲朋好友 3
▁广东省 3
烟灰 3
慷 3
网球 3
规律的 3
不顺 3
bi 3
地区的 3
和学习 3
头颅 3
锦标 3
因如此 3
非常好的 3
I 3
就不会再 3
名选手 3
居住的 3
冰箱里 3
的弟弟 3
变小 3
▁我们将 3
很低 3
剁 3
手工 3
检讨 3
有什么关系 3
虽然在 3
▁站 3
白头 3
指令 3
夺冠 3
认真对待 3
▁我们已经 3
凰 3
▁习 3
皇室 3
并没有被 3
追击 3
嫡 3
一级 3
檬 3
▁学生们 3
常常是 3
决定着 3
扩展 3
▁武 3
共鸣 3
打不 3
是与 3
的房间 3
都以 3
武士 3
嫁给 3
源的 3
虚假的 3
岸边的 3
璀 3
秆 3
助手 3
迢 3
公道 3
▁奇 3
憩 3
裾 3
叶草 3
问题是 3
不见踪影 3
的后果 3
做到的 3
措施 3
炸弹 3
辣椒 3
测试 3
无动于衷 3
▁而这 3
机枪 3
▁我只 3
深思熟虑 3
很正常 3
丽江 3
的现场 3
作品中 3
分散 3
倒塌 3
简洁 3
良的 3
窖 3
多少钱 3
游戏中 3
另类 3
公牛 3
恶意 3
献给 3
沉迷于 3
也不可能 3
劝他 3
并不多 3
玩意 3
就够了 3
复制 3
来证明 3
出一些 3
是必不可少的 3
韭 3
动植物 3
难度 3
台湾 3
帆船 3
尤为 3
尖锐的 3
的声音和 3
的罗 3
无害 3
深切 3
就把它 3
只是个 3
东亚 3
杞 3
淇 3
日志 3
你有没有 3
最简单的 3
中还 3
暴风 3
州市 3
同日 3
不可缺少的 3
享受到 3
滑稽 3
致意 3
甚者 3
无论如何 3
▁巨 3
方便面 3
倒进 3
哲学家 3
太短 3
上身 3
窠 3
闭门 3
▁g 3
ha 3
曾经是 3
展示自己的 3
什么原因 3
?。 3
▁我们今天 3
电视节目 3
新华 3
董事长 3
▁经常 3
主教 3
体内的 3
存的 3
各处 3
北海 3
将就 3
条纹 3
记录下来 3
参观了 3
素材 3
不幸的是 3
陕 3
▁要想 3
他的作品 3
毛衣 3
都属于 3
上刻 3
只要不 3
一点吗 3
意愿 3
一整 3
犯罪 3
▁事情 3
持续 3
已将 3
坍 3
文件 3
可以改变 3
人与人 3
流入 3
腐蚀 3
▁以此 3
令他 3
▁塞 3
停电 3
而且也 3
我们看到了 3
八方 3
首位 3
鸵 3
来为 3
制成的 3
的战争 3
房的 3
撸 3
一窝 3
中文 3
比较好的 3
导致了 3
得其 3
我想到了 3
不间断 3
怎样才能 3
濒临 3
所措 3
酸痛 3
32 3
歌迷 3
大公 3
瞥见 3
密封 3
举办的 3
琥 3
的铁 3
飞越 3
▁哪里 3
俊杰 3
▁众所周知 3
愚昧 3
佃 3
小行星 3
的生存 3
沙粒 3
审视 3
常有 3
安理 3
之日 3
的健康 3
伟说 3
多元 3
被捕 3
并让 3
挂了 3
罗兰 3
时间是 3
抬高 3
粽 3
▁原因 3
▁它还 3
对这个 3
罐子 3
毡 3
▁钱 3
邻里 3
束手无策 3
的舞台 3
这名 3
缤 3
水管 3
荒原 3
▁简单的 3
深呼吸 3
没有丝毫 3
文化遗产 3
产生的 3
能做 3
启程 3
意义的 3
异常的 3
抢夺 3
▁甲 3
星期日 3
消解 3
板的 3
洗手间 3
告诉我的 3
众多的 3
竞赛 3
▁皮 3
的最终 3
发自内心的 3
印刷 3
描述了 3
赛上 3
一毛 3
两人都 3
苔藓 3
间隙 3
挡风 3
很高的 3
在历史 3
注意的是 3
工程 3
宽恕 3
用完 3
很远的地方 3
卦 3
整个社会 3
不妨 3
冷藏 3
亘 3
苯 3
布利 3
一直以来 3
发育 3
源头 3
屡 3
舀 3
完成任务 3
二次 3
阅兵 3
不识 3
大马 3
那将 3
某件事 3
▁利 3
过冬 3
不得不承认 3
拦截 3
通常 3
志愿 3
自负 3
系统 3
的冠军 3
去年的 3
人造 3
的气味 3
也有可能 3
常见的 3
标记 3
飞行的 3
▁诚然 3
▁水果 3
罕见 3
第二位 3
瑛 3
加大了 3
当中的 3
败给 3
槛 3
泥沙 3
观看比赛 3
复制的 3
非常有趣 3
人参加 3
划伤 3
▁十二 3
岁的孩子 3
不仅能 3
神庙 3
新年 3
发疯 3
独具 3
相望 3
轻松地 3
君主 3
邑 3
肴 3
教科书 3
两大 3
差异 3
愠 3
洛克 3
听取 3
一列 3
▁我们用 3
培训 3
大众 3
他们要 3
不在于 3
前一天 3
班加 3
昵 3
损害 3
是给 3
天鹅绒 3
集中 3
驱使 3
他们以 3
公认的 3
楷模 3
述了 3
调味 3
升高 3
做了什么 3
写给 3
缺席 3
急着 3
看起来非常 3
和为 3
使他的 3
温文尔 3
每秒 3
但对于 3
是在一个 3
要经过 3
维修 3
财源 3
反感 3
什么都没 3
菠萝 3
的一张 3
本身就是 3
才能在 3
关头 3
失控 3
从他们 3
走出去 3
亨 3
德意志 3
长方 3
▁各种 3
客观 3
色调 3
狄 3
▁他认为 3
炸药 3
的各项 3
▁家长 3
因为它的 3
很强 3
▁那是我 3
▁你能 3
叽 3
价值观 3
住房 3
关照 3
大餐 3
倒计时 3
亦有 3
同意的 3
王后 3
微妙 3
平板 3
第一大 3
店铺 3
和李 3
也有很多 3
离散 3
传统的 3
见你 3
π 3
无家可归 3
防线 3
一球 3
来庆祝 3
56 3
是一样的 3
借钱 3
推广 3
飞往 3
决不能 3
致命的 3
▁不久前 3
热带 3
不慎 3
位上 3
之类 3
中得到 3
词汇 3
收到了 3
▁干 3
周年 3
64 3
用他的 3
的科学 3
头巾 3
忠实的 3
这两者 3
和二 3
来表达 3
看台 3
万的 3
过夜 3
伸直 3
缩影 3
一个没有 3
规划 3
会员 3
木偶 3
指导下 3
感染了 3
▁借 3
和平的 3
活到 3
电脑上 3
弃权 3
倒地 3
名额 3
形势下 3
贯穿 3
团结起来 3
天线 3
佛教 3
合作的 3
吸食 3
产的 3
轿车 3
噗 3
院子里的 3
搁浅 3
镜片 3
猥 3
失眠 3
构造 3
放回 3
". 3
注射器 3
不信任 3
一直很 3
刚刚结束 3
▁景 3
铁路 3
也正是 3
尽致 3
蛐 3
饥渴 3
▁种 3
船在 3
将不会 3
霸道 3
继承了 3
奥会 3
头盔 3
窦 3
冲入 3
留下来 3
智力 3
在晚上 3
围观 3
垫子 3
以此来 3
火中 3
典型的 3
嘶哑 3
▁也就是说 3
开始前 3
擅长的 3
另外的 3
为中心 3
以赴 3
的环境中 3
▁雅 3
最杰出的 3
比拟 3
牧师 3
加油站 3
心意 3
中国在 3
币 3
也有着 3
大都是 3
每个月 3
是一所 3
处子 3
迁徙 3
书架 3
▁他已经 3
留言 3
真爱 3
的练习 3
荐 3
山和 3
望远镜 3
唤起 3
并列 3
体系 3
中队 3
兴奋剂 3
很长一段时间 3
紧身 3
但是那 3
獭 3
雌雄 3
水稻 3
悼 3
的妻子 3
不是为了 3
习惯的 3
▁他没有 3
和五 3
叠加 3
马桶 3
爵 3
互动 3
芥 3
▁柯 3
新时代 3
级别的 3
角形 3
是什么意思 3
极大 3
拉近 3
▁再加上 3
公民 3
旅客 3
争抢 3
是使 3
徒劳 3
被誉为 3
的风格 3
但仍然 3
观看了 3
是因为我们 3
是一部 3
在北 3
流血 3
充分利用 3
说得对 3
▁n 3
催化 3
道里 3
最想 3
之一的 3
盘中 3
影响了 3
特效 3
放宽 3
每隔 3
长达 3
编辑 3
做出的 3
犯错 3
像这样 3
电力 3
涮 3
的发生 3
意乱 3
是全 3
句子 3
创造一个 3
法官 3
的一家 3
分钟的 3
澹澹 3
箫 3
▁当人们 3
延长 3
▁如果他 3
无法接受 3
一所 3
运动员的 3
送你 3
我们如何 3
不言而喻 3
袤 3
面积 3
分离的 3
做工 3
短裙 3
竭尽全力 3
莫属 3
奥比 3
了一辆 3
两点 3
为什么没有 3
成龙 3
我们与 3
的质量 3
得更好 3
警觉 3
上半场 3
▁此次 3
绡 3
韧 3
嬉皮 3
屎 3
∵ 3
榴 3
▁假期 3
提供了 3
为其 3
石和 3
▁随即 3
服饰 3
屏住 3
老先生 3
段时间里 3
渔民 3
食肉 3
还活着 3
毒蛇 3
的作品 3
高潮 3
与世界 3
国和 3
人被 3
传言 3
翻天 3
车前 3
尤为重要 3
维艰 3
启发 3
检查了 3
统一的 3
的线 3
过得很 3
抵制 3
虚拟的 3
仕 3
准备和 3
如约 3
是一门 3
瑚 3
侵占 3
中年男子 3
夸大 3
试验 3
六点 3
坐落在 3
银牌 3
为我们的 3
病患者 3
要高 3
他还在 3
搞笑 3
女士 3
大相 3
水壶 3
巴西 3
新一代 3
湍 3
的车辆 3
匡 3
理性 3
随时准备 3
喙 3
免费的 3
斗牛 3
摒 3
要点 3
薯片 3
我亲爱的 3
筠 3
苗族 3
板栗 3
▁牛 3
古镇 3
被拒绝 3
指明 3
责任的 3
迟疑 3
接踵 3
有人来 3
却无法 3
千年的 3
拒绝了 3
亿人 3
由一个 3
沉没 3
这样的问题 3
人们的生活 3
作准备 3
受欢迎 3
又长又 3
就显得 3
让观众 3
朕 3
▁相反 3
社会主义 3
是不可 3
误导 3
大家庭 3
得益 3
迷你 3
避开 3
中和 3
皆是 3
摄像头 3
意识到自己 3
▁茶 3
新世纪 3
邮 3
的真正 3
诚心 3
这样就 3
父子 3
的评价 3
排骨 3
开过 3
大不了的 3
教的 3
√ 3
高喊 3
重担 3
现在这个 3
发现他们的 3
疤 3
短裤 3
忿 3
鞍 3
占上风 3
平稳 3
雄心 3
▁根 3
竞争对手 3
▁他向 3
▁在每个 3
一问 3
加的 3
▁工作 3
打消 3
▁土 3
不负责任 3
QQ 3
▁毛泽东 3
的含义 3
叙述 3
余生 3
抽奖 3
乡亲 3
这么多的 3
无遗 3
一再 3
一息 3
开展了 3
气候 3
都对 3
重力 3
个性的 3
出版社 3
后期 3
长时 3
顶尖 3
语言的 3
吃点 3
又叫 3
俘虏 3
卒 3
为背景 3
爱心的 3
发明了 3
纽扣 3
会觉得 3
癖 3
零花钱 3
血红 3
无非是 3
搞定 3
轻视 3
的狗 3
但也有 3
阀 3
问号 3
迈入 3
这在 3
钱的 3
靓丽 3
演出的 3
病床 3
想象中的 3
者不 3
落空 3
中药 3
罐头 3
月前 3
这对于 3
的距离 3
酬 3
一棵树 3
胜于 3
文的 3
▁在她的 3
其中一位 3
名称 3
倾向 3
的批评 3
所受的 3
重来 3
有益的 3
是正确的 3
维系 3
各界 3
▁您是 3
悠久 3
好多了 3
饼干 3
回答了 3
他觉得 3
艾伦 3
▁告诉 3
电源 3
重病 3
瞰 3
▁感觉 3
▁下一个 3
骥 3
破解 3
东门 3
地球的 3
人都知道 3
的一般 3
▁外国 3
▁嘉 3
公开 3
鹉 3
的成 3
要小 3
箕 3
每逢 3
慢跑 3
先生对 3
开了个 3
振动 3
▁这对 3
他是一位 3
锦标赛 3
另一方面 3
的目的 3
买彩票 3
头部 3
国内 3
充沛 3
女作家 3
▁我渴望 3
的兄弟 3
她的儿子 3
商议 3
狞 3
魔法师 3
我把它 3
面临着 3
樽 3
精髓 3
遵循 3
定居 3
手势 3
局面 3
痴迷 3
显示出 3
偏远 3
我希望你 3
根据自己的 3
脑细胞 3
中含 3
▁大概 3
用手机 3
生化 3
山体 3
中找到 3
锹 3
办公室的 3
的分 3
幸福生活 3
猾 3
的水果 3
壹 3
而没有 3
耐力 3
几乎都是 3
紧密 3
十年前 3
▁他经常 3
他的名字 3
来源于 3
▁喂 3
让他在 3
这些都 3
保留着 3
商业 3
镇静 3
射出 3
▁这幅 3
▁这儿 3
双双 3
一等奖 3
探头 3
是第 3
的文章 3
和现实 3
感性 3
激发了 3
没有用 3
▁周末 3
了所有 3
现实生活中 3
邹 3
还是有 3
飒飒 3
发笑 3
才能使 3
两者 3
爱他 3
瘦肉 3
父母亲 3
的比赛中 3
三星 3
如今的 3
特洛伊 3
转入 3
簿 3
学会的 3
▁即将 3
域的 3
儒家 3
蝠 3
变大 3
资源的 3
当今 3
半个世纪 3
▁他们总是 3
宣称 3
在新的 3
罂粟 3
潜力 3
马达 3
证实 3
钥 3
夫妻 3
缺口 3
骚 3
已经变得 3
温度的 3
祈福 3
▁儿子 3
却将 3
本色 3
造型 3
就相当于 3
离开这里 3
笃 3
坚定不移 3
上就 3
辛辣 3
干涉 3
这样的一个 3
逍遥 3
太大的 3
新闻的 3
笠 3
变得如此 3
▁这只是 3
不屑一顾 3
如此之 3
道德的 3
一个非常 3
继续向 3
深厚 3
来改变 3
多半 3
粮 3
指示 3
自己能 3
感到骄傲 3
孙女 3
茱 3
花瓶 3
打仗 3
窿 3
承受的 3
开会 3
发给 3
▁我们不能 3
母女 3
名誉 3
什么也 3
武力 3
住所 3
▁如果有 3
at 3
日可 3
发散 3
麦克风 3
融洽 3
短信 3
旅馆 3
因素 3
度和 3
注意事项 3
所吸引 3
畸形 3
玖 3
涂抹 3
能听到 3
的超 3
呃 3
溜冰 3
拗 3
河堤 3
一个项目 3
个月的 3
障碍物 3
钦佩 3
一词 3
梯子 3
冲上 3
更加强大 3
营造 3
相传 3
以防 3
烹 3
仰卧 3
考试的 3
世博 3
之王 3
显示了 3
自称 3
四月 3
投资 3
在一家 3
有点像 3
杵 3
张杰 3
▁拿 3
流浪汉 3
输掉了比赛 3
▁一起 3
报名参加 3
霾 3
做的就是 3
大巴 3
我真的很 3
动摇 3
珞 3
有很 3
眩晕 3
那些在 3
家时 3
北京的 3
责任和 3
导航 3
后便 3
而他的 3
他们不会 3
全长 3
▁贾 3
能达到 3
士气 3
颧 3
偿 3
有礼 3
盛世 3
大型的 3
公元 3
能像 3
大豆 3
自嘲 3
球后 3
的表演 3
缓解 3
纠纷 3
考试中 3
青海 3
不一定是 3
▁地面 3
才智 3
少有 3
还会在 3
晚安 3
全部的 3
藏匿 3
谩 3
闯入 3
缘由 3
慈悲 3
不需 3
恕 3
▁我怎么 3
嘈 3
湖北省 3
▁为了让 3
▁第四 3
来保护 3
工作人员 3
叫醒 3
便将 3
女生的 3
始终保持 3
还给 3
路面 3
怪异 3
粗糙的 3
乞讨 3
载人 3
歌手 3
年夏天 3
绝对不能 3
中医 3
找到工作 3
如实 3
生活和 3
有一定的 3
▁除此之外 3
求助 3
擅长 3
也就是说 3
墨镜 3
而对 3
全神贯注 3
双子 3
癌症 3
海峡 3
畏缩 3
关节 3
琐 3
踌躇 3
女孩儿 3
对吧 3
无味 3
动漫 3
淡水 3
我讨厌 3
进展 3
合并 3
引得 3
三角洲 3
海滩 3
裴 3
回到家中 3
回家时 3
与自然 3
黑烟 3
特曼 3
肯定不会 3
就喜欢 3
有帮助 3
这里是 3
逃脱 3
晤 3
逵 3
五天 3
进来的 3
但有时 3
你得 3
刷牙 3
拯 3
面条 3
支架 3
罂 3
常年 3
弈 3
银行 3
铐 3
宝塔 3
不存在 3
喜欢去 3
感到十分 3
喽 3
在经过 3
鲁莽 3
叫来 3
是做 3
先前 3
是巨大的 3
形成了一个 3
就需要 3
曜 3
鱼肉 3
付钱 3
浪潮 3
弹出 3
下半 3
▁安妮 3
布尔 3
报名的 3
他看到 3
▁我当然 3
石块 3
的每个 3
冲撞 3
富丽 3
全地 3
的起点 3
发作 3
殖民地 3
落选 3
缺少的 3
▁相比 3
▁事后 3
战神 3
左转 3
却从未 3
点和 3
事儿 3
最长 3
腹部 3
大货车 3
▁这条 3
选择不 3
抗战 3
和自 3
言辞 3
簪 3
降落伞 3
光和 3
我们看到 3
发现有 3
救世主 3
身体上 3
超出了 3
沟壑 3
事先 3
但是没有 3
▁大部分 3
创建 3
也有人 3
文科 3
齐全 3
You 3
▁杭州 3
一个叫 3
过境 3
往常一样 3
不允许 3
滑动 3
头痛 3
打断了 3
挤出 3
的几个 3
俄 3
掘 3
匣 3
可能的 3
的许多 3
▁一对 3
以往的 3
太子 3
山丘 3
的新鲜 3
普遍 3
尔斯 3
手握 3
薪 3
还经常 3
的重新 3
表现的 3
▁这些都是 3
独有 3
点什么 3
高达 3
陷害 3
▁托 3
取笑 3
总是有 3
西服 3
水桶 3
网站 3
舞台上的 3
这是一场 3
认定 3
当前 3
计的 3
解决的 3
听器 3
安康 3
扫描 3
转转 3
友善 3
▁重庆 3
吞吐 3
而应 3
膝盖上 3
为名 3
品行 3
企鹅 3
指定的 3
接连 3
这番 3
了一支 3
椰子 3
水洗 3
丰盛的 3
▁因 3
的油 3
刺绣 3
▁令人 3
小块 3
到手 3
圈子 3
胳 3
了一瓶 3
的体验 3
ia 3
行为的 3
语调 3
为那些 3
九江 3
笙 3
崭 3
▁我想在 3
我猜 3
苔丝 3
和可 3
外星 3
的渴望 3
详细的 3
签字 3
一系列 3
葬礼 3
的大学 3
煤炭 3
一些的 3
好奇心 3
关卡 3
伙子 3
他可 3
月球上 3
路虎 3
禽 3
城门 3
买不到 3
球赛 3
▁所谓 3
西岸 3
沙丘 3
▁司 3
超出 3
东西的 3
密切的关系 3
要求我 3
投机 3
在金 3
丙 3
缨珞 3
放荡 3
右侧 3
变色 3
纳凉 3
衰落 3
酌 3
艺术品 3
复活 3
平方公里 3
变态 3
命名的 3
变异 3
万元 3
晚年 3
在三 3
密集 3
啧 3
去处 3
婿 3
飞机的 3
尧 3
破损 3
一门 3
一定的 3
翻阅 3
几何 3
颗粒 3
大呼 3
进一步 3
紧随其后 3
鲲 3
▁X 3
认为这是 3
跋 3
了之 3
远比 3
空前的 3
神秘的面纱 3
基地 3
滑翔 3
中也有 3
损坏 3
遛 3
▁现 3
伪 3
掏出 3
苛刻 3
他不得不 3
毛孔 3
一九 3
不能用 3
新的挑战 3
遗址 3
首先是 3
噪音 3
的村庄 3
少不了 3
无误 3
抗震 3
腐败 3
植入 3
早晨的 3
送入 3
空军 3
汲 3
车子的 3
安家 3
借口 3
存活 3
是中 3
检验 3
籁 3
浸润 3
公共汽车 3
▁自然 3
代的 3
▁曹 3
刁 3
舞者 3
阴郁 3
上半 3
文献 3
继续说道 3
▁T 3
被水 3
单人 2
下对 2
之称 2
备战 2
我的车 2
无缝 2
伸张 2
户人家 2
萃 2
集中在 2
过道 2
▁否则 2
值的 2
货车 2
买书 2
门徒 2
大约有 2
▁鹰 2
者是 2
聚居 2
她比 2
Z 2
▁肉 2
几乎每个 2
准备在 2
可以达到 2
莉莉 2
电视上 2
▁我个人 2
,12 2
多长时间 2
臂的 2
必修课 2
如果是 2
日和 2
的主题 2
的不错 2
▁每一 2
哈佛 2
试了 2
刽 2
与新 2
辨别 2
年又 2
孺 2
刚一 2
▁在那些 2
的广告 2
俑 2
到新 2
场地的 2
▁他正 2
自恋 2
▁万一 2
调度 2
卡片 2
▁创新 2
打来的 2
生态系统 2
开球 2
接替 2
加勒比 2
大增 2
蛊 2
的形式 2
是真正的 2
过高 2
给你一个 2
灼热 2
的高中 2
头大汗 2
所做的 2
▁如果不是 2
两个小时的 2
索要 2
基因的 2
的数量 2
七天 2
将会在 2
魇 2
与他的 2
契约 2
身份证 2
十分重要 2
气管 2
好处的 2
味甘 2
祎 2
年度 2
遮阳伞 2
鹫 2
▁奥运 2
麻辣 2
壁纸 2
中枢 2
发胖 2
重新回到 2
工作时 2
360 2
▁在整个 2
希望她 2
百里 2
三地 2
此一 2
发到 2
要继续 2
信任和 2
解剖 2
和国家 2
来寻找 2
我的工作 2
储存 2
侵入 2
的斗争 2
证书 2
审美 2
万柳 2
外援 2
▁在美国 2
老朋友 2
江阴 2
傀儡 2
小鼠 2
西山 2
报刊 2
不能够 2
计数 2
起火 2
衰退 2
也对 2
道路上的 2
几天前 2
▁也就是 2
的南 2
损坏了 2
咻咻 2
▁为什么不 2
回落 2
的故乡 2
经常有 2
几年的 2
都不可能 2
白银 2
血缘 2
说话吗 2
切断 2
喷出 2
头发和 2
免费 2
病历 2
饰品 2
制定的 2
了一项 2
保密 2
派出了 2
桢 2
的结果是 2
平方 2
▁了解 2
▁只有在 2
这对夫妇 2
▁浮 2
的表面 2
法术 2
闰 2
▁小区 2
▁我们也 2
多元化 2
从未见过 2
丛林 2
小长假 2
意料之中 2
涂上 2
愫 2
嫦 2
射线 2
▁她是个 2
公顷 2
值钱 2
有一个很好的 2
睑 2
外部 2
最著名的 2
卓尔 2
擅 2
安乐 2
适量的 2
▁蔡 2
亦可 2
郝 2
平面 2
如何在 2
核心 2
哈佛大学 2
攫 2
正在向 2
撂 2
▁他似乎 2
预料 2
风范 2
一女 2
俩都 2
抽取 2
最起码 2
▁达 2
圈套 2
或她 2
中国共产党 2
▁乔 2
瓦解 2
76 2
专门为 2
召集 2
庐山 2
是一些 2
之死 2
党和政府 2
胆汁 2
有助于 2
劈腿 2
不俗 2
光束 2
警官 2
每年的 2
催泪 2
储 2
大街上 2
它们都是 2
外形 2
楔 2
对我国 2
完全可以 2
克斯 2
富人 2
填充 2
▁数 2
算出 2
作好 2
四分 2
▁董 2
仍然没有 2
逐一 2
幸的是 2
餐桌上 2
▁但他们 2
▁帕 2
之以鼻 2
菏 2
广西 2
挤压 2
公司的 2
内蒙古 2
▁(1) 2
女性的 2
抨 2
牛仔 2
干劲 2
为一种 2
贫富 2
夫妇 2
德国 2
平台 2
交由 2
它对 2
浮肿 2
唏 2
捐献 2
清华 2
球场 2
义的 2
付出多少 2
▁近年来 2
之战 2
▁我们去 2
这是他 2
设计师 2
欢迎你 2
酪 2
级别 2
淆 2
专业的 2
混蛋 2
再继续 2
撞上了 2
背道而驰 2
也给 2
喘不过气 2
▁时隔 2
屡屡 2
妨碍 2
垄断 2
暂停 2
也一直 2
恰逢 2
金沙 2
累计 2
站起身来 2
起动 2
▁但这些 2
理应 2
鼾 2
▁有些人 2
悠久的历史 2
和行为 2
未经许可 2
车里 2
的张 2
心悸 2
人选 2
彭帅 2
把那些 2
▁选择 2
落实到 2
买票 2
撷 2
补习 2
有缺陷 2
len 2
的前提 2
伙计 2
信封 2
碉 2
护理 2
间断 2
猬 2
发表的 2
象征性的 2
斥责 2
重演 2
效益 2
保护和 2
路径 2
当即 2
▁当年 2
制作的 2
▁不仅如此 2
的尸体 2
▁幸运的是 2
较好 2
理发店 2
可能会被 2
莎莎 2
单位 2
时间了 2
my 2
有资格 2
服务员 2
海豚 2
青春期 2
博客 2
这个结果 2
颇丰 2
任何人都 2
看着它 2
逛逛 2
几乎所有 2
这么久 2
次助攻 2
充当 2
三部分 2
涎 2
留了 2
上角 2
国情 2
成年人 2
第一种 2
完全相同 2
▁真正的 2
▁幸 2
尽可能 2
国家政策 2
▁受到 2
版的 2
渲 2
车外 2
救世 2
▁抗 2
伤势 2
他并不 2
教养 2
而让 2
祈 2
他正在 2
说的那样 2
毙 2
精密 2
相提并论 2
如果在 2
放在一起 2
决定性的 2
橄榄 2
橡树 2
前五 2
深度 2
警报 2
破灭了 2
意为 2
去哪里 2
满月 2
▁登山 2
碎玻璃 2
业已 2
拉出来 2
学者的 2
揭示 2
比普通 2
势在必 2
粒子 2
犊 2
不亚于 2
敏锐 2
一则 2
命名为 2
有意义的 2
晚点 2
打牌 2
墓碑 2
不久的将来 2
直通 2
深爱 2
得手 2
搞笑的 2
▁剧 2
在保护 2
印象是 2
毁坏 2
的重任 2
院的 2
堵住 2
商的 2
2000 2
合照 2
消退 2
你能够 2
一类 2
打包 2
绘制 2
和提高 2
已经准备好 2
你的名字 2
桌旁 2
程序 2
拿走了 2
泌 2
高速公路 2
将会有 2
▁教育 2
变得非常 2
极限 2
当时他 2
但依然 2
拉的 2
有责任 2
打乱 2
浓厚 2
很好奇 2
放任 2
但不是 2
做得更好 2
鸨 2
受到的 2
特勒 2
年奥运会 2
买东西 2
▁今年的 2
地主 2
回馈 2
▁如果一个 2
铂 2
个多小时 2
欲绝 2
文化传统 2
▁毫无疑问 2
酒精 2
媲美 2
来看待 2
龙卷风 2
的两大 2
摩托 2
饲 2
列入 2
训练的 2
戍 2
一个朋友 2
坠入 2
EX 2
进化 2
▁收 2
毛发 2
和两个 2
la 2
纲要 2
才将 2
帐篷 2
媳 2
厅里 2
变革 2
▁猪 2
的词 2
一封 2
圣诞树 2
老年人 2
▁他还说 2
修正 2
淡黄色 2
▁天哪 2
与方法 2
▁这片 2
蜂拥 2
楂 2
善意 2
投掷 2
采取了 2
不到一个月 2
合力 2
是一辆 2
场中 2
▁单 2
汉代 2
成正 2
诸如 2
香草 2
埃及 2
向内 2
一些关于 2
一端 2
es 2
▁这块 2
免疫力 2
例外 2
想而知 2
匣子 2
iz 2
邓小平 2
煽 2
战役 2
的情感 2
枯竭 2
不时地 2
有兴趣 2
之名 2
步态 2
太可怕 2
▁这在 2
中会 2
狭小的 2
相恋 2
扶持 2
不久前 2
砖头 2
台中 2
如果他们 2
售票 2
人气 2
率先 2
和自由 2
平房 2
具尸体 2
使我感到 2
▁随着时间的流逝 2
我将在 2
很少有人 2
而言之 2
手艺 2
地成为 2
当日 2
每周 2
为世界 2
大黄 2
▁黑龙江 2
▁什么时候 2
用这些 2
墙的 2
▁在接下来的 2
嶙 2
很强的 2
遮阳 2
松绑 2
其实在 2
郊外 2
是什么原因 2
有害气体 2
▁张家 2
57 2
▁有什么 2
爱情的 2
只允许 2
购物 2
部分的 2
得到一个 2
两块 2
无疑是 2
整套 2
栩栩如生的 2
千克 2
枷 2
这辆 2
把他们的 2
恫 2
解决这个问题 2
▁瓦 2
枪的 2
吁吁 2
深感 2
每只 2
创造了一个 2
在今天 2
日语 2
榔 2
南海 2
堤防 2
与发展 2
格里 2
已经结束 2
今天上午 2
各方 2
旌 2
看到有人 2
▁P 2
要害 2
环顾四周 2
部电影 2
和南 2
罕 2
强项 2
披头 2
我觉得自己 2
对新 2
的基本 2
自信心 2
多出 2
可以在这里 2
面积约 2
混凝土 2
干净净 2
南宁 2
典礼 2
圣诞节 2
开胃 2
们对 2
消防员 2
污染的 2
都感到 2
人情 2
录取通知书 2
倍增 2
了不起的 2
任何东西 2
在很多 2
门窗 2
木马 2
提问 2
撬 2
对决 2
骞 2
带他 2
≠ 2
白细胞 2
辞去 2
隔绝 2
缺水 2
音乐厅 2
并排 2
让这个 2
孽 2
族的 2
是如何 2
求婚 2
▁全市 2
必须的 2
从北 2
是具有 2
深海 2
排档 2
柜台 2
颂歌 2
他们用 2
运动鞋 2
▁几分钟后 2
合同的 2
的环境下 2
N 2
▁而那些 2
姑娘们 2
有一段时间 2
渠道 2
痞 2
卉 2
心得 2
工人们 2
没人能 2
界限 2
号召 2
并不容易 2
家用 2
指针 2
明确 2
共和国 2
衾 2
可以给 2
▁但她 2
因为如此 2
姚明 2
优胜 2
也成为了 2
那时起 2
分手了 2
自足 2
婧 2
是一件好事 2
地面的 2
他跟 2
架子上 2
▁谁能 2
蒙娜 2
、1 2
很多时候 2
看见他 2
福州 2
宿舍楼 2
相配 2
估量的 2
我所有的 2
带您 2
传送 2
德的 2
发动机 2
我们得 2
火车上 2
来决定 2
克拉 2
▁阅读 2
天敌 2
的担忧 2
还可 2
获得新的 2
很难说 2
合理的 2
魔幻 2
和这个 2
的农民 2
和父亲 2
鲜为人知 2
晚上的 2
椭圆 2
观音 2
为难 2
录取 2
流离失所 2
eg 2
垂钓 2
显示屏 2
总是以 2
呼叫 2
大军 2
离开家 2
黄连 2
拍的 2
别担心 2
阿玛 2
岱 2
▁在这些 2
带入 2
▁建 2
享有 2
的时候才 2
它所 2
之音 2
迷信 2
▁一切都 2
的前进 2
的高压 2
▁第二章 2
徽章 2
户口 2
积极地 2
▁但是现在 2
和水 2
中来 2
氧化 2
和各 2
桓 2
▁尤其是 2
的需要 2
▁预 2
直言 2
是中华民族 2
▁对比 2
南极 2
设想 2
幻觉 2
方向的 2
上海市 2
不可或缺 2
教学方法 2
针头 2
▁皮肤 2
蝗 2
对马 2
三思 2
他本人 2
条路 2
变黑 2
一无所有 2
工作中 2
为代表的 2
一分钱 2
另一位 2
擅自 2
、3 2
弊 2
珊珊 2
洞庭 2
交锋 2
当局 2
身体上的 2
ar 2
水源 2
年夜 2
是真 2
抑或 2
楼层 2
也能够 2
缄 2
汇报 2
侥幸 2
汉堡包 2
哪家 2
学年 2
充分的 2
唁 2
V 2
挥发 2
感到失望 2
之嫌 2
打掉 2
铸就 2
uy 2
▁套 2
▁一旦 2
豺 2
吸尘器 2
美国人 2
港澳 2
惨淡 2
有任何 2
旅游景点 2
特别高兴 2
140 2
奇才 2
是绝对 2
颜面 2
晓得 2
嵬 2
7. 2
半个月 2
狭隘 2
截然不同的 2
重获 2
不常 2
▁早在 2
高到 2
▁几年 2
文凭 2
伤寒 2
磋 2
臾 2
定做 2
未发现 2
上要 2
而如今 2
船尾 2
又与 2
获得冠军 2
休息室 2
插入 2
手机的 2
追问 2
▁合 2
剽 2
航线 2
登记 2
债 2
贩毒 2
铁的 2
的电话 2
的角色 2
下班后 2
65 2
半月 2
柔韧 2
曾一度 2
开局 2
思议 2
统治者 2
的中华 2
人以 2
断言 2
垃圾分类 2
斯基 2
微薄的 2
的电 2
支队 2
▁狗 2
药材 2
多项 2
闻起来 2
护照 2
▁广州市 2
医生说 2
这三个 2
昂贵的 2
送出 2
是去 2
追究 2
判决 2
如果她 2
局长 2
考古学家 2
背离 2
指南 2
太差 2
▁时至 2
类似的 2
即将到来 2
沉积 2
和木 2
什么才是 2
遗产 2
逐步 2
嗔 2
▁第六 2
总督 2
▁导演 2
▁B 2
政策 2
十多 2
悬挂在 2
买了一辆 2
▁物理 2
侦 2
家族的 2
本泽马 2
已经足够 2
不可否认 2
然后继续 2
还是对 2
创办 2
浔 2
史诗 2
的竞争 2
密不可分 2
了它的 2
赛中 2
珏 2
徘 2
物体的 2
青年人 2
用血 2
纳闷 2
证据 2
几个问题 2
扣留 2
就在这里 2
理念 2
垦 2
的神经 2
热量 2
确切 2
甫 2
花卉 2
行动不便 2
视同仁 2
侦查 2
正在与 2
▁和你 2
矿山 2
不适应 2
总是很 2
▁我不得不 2
牟 2
还为 2
美丽和 2
▁显然 2
徉 2
现在已经 2
不和谐 2
正为 2
令人兴奋 2
五湖 2
迎战 2
公正 2
清扫 2
▁他被 2
施工 2
▁舞 2
共产党的 2
癜 2
恳求 2
小米 2
她家 2
▁位 2
▁所有人都 2
较强的 2
决定在 2
柑橘 2
风琴 2
▁店 2
海藻 2
落定 2
的小伙子 2
▁我们现在 2
▁谢 2
鸢 2
界定 2
的承诺 2
自欺欺 2
有一处 2
弹簧 2
溪县 2
华的 2
▁西安 2
公然 2
一张照片 2
这已经 2
与日本 2
结果是 2
▁熊 2
野生动物 2
木屋 2
上街 2
系的 2
业务 2
腋 2
偷窃 2
坚挺 2
的事了 2
陂 2
的一侧 2
泞 2
剖 2
龙眼 2
2) 2
撕开 2
他们正在 2
理发 2
尴尬的 2
启动了 2
女儿的 2
的高低 2
▁共 2
来找我 2
不可避免的 2
端倪 2
的巨大 2
深圳 2
暗示着 2
干预 2
中就 2
状况下 2
军队的 2
偷猎 2
一致的 2
这意味着 2
新建 2
心境 2
青少年的 2
的周 2
流利的 2
武装 2
失地 2
吩咐 2
很受 2
力求 2
小伙子 2
▁卫生 2
五名 2
▁我讨厌 2
硝烟 2
和各种 2
会是什么 2
主干 2
的深度 2
吸毒 2
当一个 2
泥石流 2
呼应 2
建设的 2
不断上升 2
▁她希望 2
对手的 2
对他们的 2
暗杀 2
聒 2
赞誉 2
她以 2
硬化 2
你是在 2
根系 2
为代价 2
教育是 2
误入 2
姣 2
推动 2
只是说 2
钢筋 2
本应 2
小菜一碟 2
消遣 2
让他的 2
华南 2
的一系列 2
而富有 2
主席的 2
的基础上 2
是看 2
初始 2
纪念碑 2
明智 2
不代表 2
带来巨大的 2
论点 2
乘车 2
花费 2
巡 2
敬老院 2
在海上 2
它已 2
▁基 2
艾尔 2
您就 2
赂 2
▁那个人 2
扩张 2
趋于 2
体育比赛 2
人的话 2
快递 2
和六 2
的了解 2
常用 2
▁它是在 2
喂食 2
父亲节 2
蔫 2
绝大多数 2
毁于 2
而且可以 2
规范 2
搜集 2
熬过 2
常绿 2
水时 2
臧 2
的作用下 2
160 2
ong 2
查阅 2
穷人的 2
▁弗 2
生日礼物 2
2009 2
收养 2
多天 2
古典音乐 2
▁著名 2
档案 2
三层 2
▁过去 2
肢体 2
,' 2
▁杰克 2
亲子 2
▁嗯 2
简单地 2
山水画 2
关机 2
始于 2
邻近 2
▁这篇文章 2
海豹 2
泷 2
喳 2
相册 2
端午节 2
万公顷 2
高得 2
械 2
嗜血 2
▁午后 2
最佳的 2
▁然后我 2
的宣传 2
相干 2
加点 2
却只有 2
是社会 2
一堂 2
大体 2
但我们的 2
出战 2
秃头 2
▁现在是 2
格子 2
战线 2
面料 2
有这样的 2
始终坚持 2
一致 2
每天早晨 2
将整个 2
工地 2
各不相同 2
蜂巢 2
股的 2
时说 2
为中国 2
我才能 2
运行 2
头发是 2
并从 2
的不仅仅是 2
▁刘翔 2
来宾 2
迫于 2
而是被 2
团体的 2
直指 2
▁河南 2
辩证 2
帷 2
褛 2
心理健康 2
案的 2
孤立 2
吸引力 2
▁如果一个人 2
最大的问题 2
▁已 2
口腔 2
这四个 2
根本不 2
论证 2
刚刚从 2
uan 2
之最 2
原子弹 2
▁其他的 2
宣告 2
住宅 2
分界线 2
顶点 2
数次 2
对于一个 2
叽叽 2
大学毕业 2
水县 2
是一支 2
击打 2
和我们的 2
意象 2
圭 2
审讯 2
经济发展 2
之久 2
伽 2
相符 2
时都会 2
抽查 2
滑行 2
有一部分 2
针对 2
而感到自豪 2
扦 2
荞 2
享年 2
一车 2
选择一个 2
植物的 2
状元 2
突兀 2
的意思是 2
塞进 2
很早就 2
司令 2
▁冬季 2
传人 2
外流 2
偏爱 2
预报 2
是一项 2
颉 2
苏联 2
要以 2
止痛 2
难忍 2
揭开 2
也必须 2
认出 2
震颤 2
▁沈 2
度过难关 2
地工作 2
珠海 2
喝醉了 2
赛季 2
▁t 2
槿 2
相信她 2
能力和 2
已经失去了 2
瞥了一眼 2
的冲击 2
出游 2
这项 2
对峙 2
▁返回 2
▁丁 2
▁她被 2
新型的 2
历史性 2
主要的 2
▁正因如此 2
亥 2
▁刀 2
鸟类 2
▁还要 2
坍塌 2
繁琐 2
投票 2
十分之一 2
鼓励和 2
植被 2
告终 2
废品 2
酿造 2
问世 2
上任 2
号和 2
▁黎 2
▁宁 2
▁恐怕 2
这个目标 2
庆贺 2
明晰 2
▁稻草 2
联军 2
我仍然 2
约为 2
强劲 2
肮脏的 2
▁晋 2
的这一 2
▁彭 2
、8 2
和处理 2
推到 2
老一辈 2
▁扎 2
惚 2
共创 2
精湛 2
思想家 2
的高科技 2
淀 2
之于 2
成形 2
中国有 2
同步 2
欧洲 2
侏罗纪 2
深水 2
这种情况 2
供水 2
书信 2
信奉 2
她从 2
慎 2
▁充满 2
无一例外 2
尽一切 2
标致 2
稀薄 2
不佳 2
乌斯 2
在一张 2
特权 2
积分 2
的个人 2
洹 2
周恩来 2
同心 2
蛀 2
出去的 2
▁人们在 2
泵 2
做得很好 2
雅典 2
势必 2
法院 2
光大 2
脱落 2
看中 2
倭 2
为孩子 2
第一件事 2
Sh 2
车后 2
所作 2
是不好的 2
它是一个 2
金字塔 2
更具 2
到医院 2
▁演讲 2
前在 2
▁他们都 2
▁墨 2
er 2
▁病 2
的生长 2
而这些 2
阿里巴巴 2
受重伤 2
拐弯 2
比任何 2
锤子 2
国产 2
物和 2
多才 2
手术室 2
没有发现 2
那样做 2
可观 2
▁她想 2
地形 2
很满意 2
规章制度 2
的时间内 2
通知了 2
心智 2
所作的 2
多年来 2
红柿 2
所以他们 2
帜 2
一清 2
牲 2
繁殖 2
後 2
匿名 2
欧式 2
名家 2
虱 2
才能达到 2
和家庭 2
中国古代 2
炳 2
甚至在 2
有必要 2
联系到 2
飞机上 2
圣经 2
▁象 2
幽灵 2
洞察 2
水份 2
犹豫不决 2
可以以 2
必须要有 2
队列 2
开发了 2
回转 2
也包括 2
我们的身体 2
俱乐部的 2
一贯 2
孪生 2
和未来 2
但是现在 2
癸 2
最能 2
按下 2
氛围中 2
并说 2
呸 2
等不及 2
顾虑 2
可以用来 2
产出 2
▁贵州 2
盔甲 2
厚度 2
苹果的 2
弯曲的 2
▁圣诞节 2
某种意义 2
在此时 2
揭晓 2
伎俩 2
能及时 2
94 2
是能够 2
等什么 2
▁室内 2
白金 2
下期 2
存放 2
谷底 2
未成年 2
最终以 2
我很好 2
▁周五 2
恩的 2
沉入 2
▁极 2
的第二个 2
管的 2
▁】 2
五分钟 2
他们的生活 2
发生变化 2
上年 2
天一 2
▁熟悉 2
去见 2
第五届 2
城县 2
争辩 2
邮票 2
松动 2
最新 2
站在那儿 2
提防 2
花板 2
还需 2
▁有许多 2
员工 2
的整个 2
一倍 2
表现出来的 2
▁d 2
有这种 2
鹂 2
纸币 2
不平等 2
ue 2
海龟 2
士尼 2
新鲜事 2
功能 2
叛乱 2
滨江 2
漂移 2
适量 2
实践中 2
ut 2
正宗 2
拉面 2
▁这话 2
▁黄金 2
成功地 2
名运动员 2
几率 2
感染力 2
诶 2
41 2
洛阳 2
现代化 2
打发 2
异国 2
陶艺 2
时把 2
枇杷 2
神社 2
混合 2
发现问题 2
象棋 2
热衷 2
需要有 2
用车 2
贵宾 2
物流 2
席之地 2
能够让 2
盛宴 2
傍晚时分 2
画作 2
保护自己 2
会发生什么 2
最后一场 2
时辰 2
也应 2
96 2
扩充 2
李先生 2
来维持 2
▁以及 2
逃脱了 2
出版的 2
她被 2
领域的 2
他的父亲 2
▁要是 2
▁我们需要 2
裸 2
没有找到 2
▁我们只是 2
休止 2
边界 2
特色的 2
也意味着 2
舫 2
新陈代谢 2
又起 2
负责任 2
度日 2
毛骨 2
尿 2
网友 2
市中心 2
新人 2
阴阳 2
ron 2
朝下 2
我是你 2
上和 2
三轮车 2
该不该 2
在西方 2
又该如何 2
简约 2
振作起来 2
是你的 2
辨认 2
大一 2
草药 2
随着年龄 2
联合 2
没看到 2
模具 2
一辆车 2
更强的 2
廉洁 2
微博 2
形容词 2
感到非常 2
百家 2
后发现 2
也大 2
也是中国 2
期内 2
尤其 2
’ 2
三分之二 2
的角度 2
▁点 2
逼迫 2
再现 2
的良好 2
文本 2
以在 2
贵重 2
米外 2
也许可以 2
强势 2
喜事 2
国王的 2
文化中 2
生锈 2
的一篇 2
安全带 2
富人的 2
迷路了 2
人与人之间的 2
工艺品 2
的本质 2
成品 2
毫不留情 2
禁区 2
年级学生 2
引进 2
▁年轻人 2
天王 2
52 2
老区 2
音速 2
而从 2
自理 2
自救 2
▁得 2
所要 2
根深 2
碱 2
伸手去 2
离奇 2
自行车的 2
昂贵 2
军官 2
▁昨晚 2
开始学习 2
大块 2
我还没有 2
面积为 2
传闻 2
首次 2
势力 2
格尔 2
联系在一起 2
▁男人 2
刺激了 2
非凡的 2
昆曲 2
十足的 2
岩松 2
矗 2
指点 2
落实 2
机器的 2
这是因为 2
邂 2
他甚至 2
跹 2
先进的 2
显而易见的 2
店家 2
斯的 2
昨天晚上 2
闭幕 2
衙 2
比比 2
都难以 2
年到 2
隐含 2
▁两者 2
都可以用 2
中出现的 2
彪 2
为这个 2
酉 2
新郎 2
京城 2
靠拢 2
之间的距离 2
打火机 2
蹉 2
正在努力 2
吹捧 2
大错 2
回音 2
生产力 2
询 2
利比 2
定律 2
扩大了 2
菜单 2
少儿 2
大都 2
万事 2
众人的 2
首饰 2
而改变 2
▁在大 2
巡逻 2
双面 2
且有 2
比上 2
开垦 2
为一体 2
自愿 2
成为世界 2
尾气 2
▁浓 2
吨 2
刚刚开始 2
他给 2
的事迹 2
来表示 2
生动的 2
余年 2
到我们的 2
自驾 2
的新型 2
的人性 2
而这个 2
铝 2
是第一 2
▁他不 2
空无一人 2
改进 2
能找到 2
售后服务 2
呈现在 2
工作量 2
抗衡 2
对象 2
保有 2
钱来 2
携带 2
是每个 2
▁香港 2
市场上 2
寿命 2
学前 2
原先 2
我打算 2
隶 2
将他们 2
正被 2
带来了巨大的 2
▁城 2
征战 2
▁最高 2
和现代 2
卡西 2
吸纳 2
▁负责 2
拉米 2
概括 2
啕 2
喋 2
就越大 2
换个 2
在孩子 2
豌豆 2
斐 2
竖立 2
万公里 2
恰恰相反 2
嚣 2
中东 2
导弹 2
▁历史 2
崩溃了 2
开办 2
总部 2
矮人 2
发射的 2
闽 2
▁买 2
压力大 2
来实现 2
雉 2
危险的 2
▁上周 2
将它们 2
接到了 2
有形 2
▁获得 2
小说的 2
通行 2
日为 2
会失去 2
草根 2
包粽子 2
的完美 2
▁三个 2
小店 2
和民族 2
二十年 2
的原始 2
拿走 2
前几年 2
白酒 2
柑 2
停泊 2
看到过 2
最近的 2
会变得 2
就足够了 2
本地 2
大面积 2
阳明 2
强有力的 2
吃一惊 2
,19 2
知情 2
▁蜜蜂 2
喻户晓 2
无法实现 2
乘船 2
洛蒂 2
筏 2
巧妙地 2
迦 2
纳入 2
莎士比亚 2
宇航 2
稳定的 2
再通过 2
钻孔 2
迅速的 2
酒吧 2
中暑 2
这是非常 2
到其他 2
现有 2
幸亏 2
发明的 2
▁提起 2
边疆 2
才艺 2
嘤 2
没有什么可 2
婷婷 2
橱窗 2
靴子 2
这两种 2
以轻 2
空前 2
中已经 2
眼睁 2
因为人们 2
的儿童 2
先将 2
日渐 2
藏书 2
篆 2
在有 2
硝酸盐 2
高温 2
良好的环境 2
巨型 2
颇具 2
底座 2
下线 2
配料 2
他的妻子 2
。, 2
的直接 2
录音 2
车手 2
确信 2
三倍 2
的大气 2
家和 2
的东西吗 2
在从 2
执行任务 2
隽 2
队以 2
由你 2
待了 2
独秀 2
相当高 2
保洁 2
尤其是在 2
经典的 2
载的 2
王冠 2
一无所知 2
反弹 2
拓展 2
了几次 2
俱乐部 2
初次 2
承载着 2
∠ 2
拷 2
▁素 2
▁廖 2
拥有自己的 2
组织了 2
渭 2
有三个 2
退出了 2
仅在 2
氲 2
约翰 2
流出的 2
赤道 2
负的 2
悔改 2
能够使 2
简单而 2
霏 2
已晚 2
的经典 2
恰到 2
反映的是 2
纯属 2
▁他现在 2
北京奥运会 2
▁他们也 2
谚语 2
的共同 2
迅速将 2
▁什么是 2
再起 2
丰富了 2
▁农民 2
之上的 2
作家的 2
有一半 2
重合 2
剥夺 2
▁? 2
三部 2
逅 2
做家务 2
再添 2
汉语 2
溶液 2
▁全文 2
▁即使是 2
校车 2
掉下来了 2
储备 2
沽 2
华美 2
62 2
熟人 2
在两个 2
清淡 2
人的生活 2
煤油 2
轿 2
是因 2
正在等待 2
假日 2
住过 2
不要去 2
玛丽 2
第一印象 2
上下班 2
狼藉 2
救护 2
皮肤的 2
裱 2
无锡 2
挑逗 2
开了一家 2
红豆 2
地点在 2
进口 2
禁赛 2
啾啾 2
我明天 2
几家 2
精品 2
都是如此 2
十多年 2
玛雅 2
最长的 2
力量和 2
慈善 2
战争中 2
暖气 2
吉尼斯 2
古希腊 2
对国家 2
di 2
救济 2
宣言 2
迩 2
表彰 2
钮 2
领土 2
幸福与 2
真假 2
▁许多人认为 2
现在正在 2
皆知 2
了新的 2
之二 2
在此期间 2
冷暖 2
置疑 2
的网络 2
和世界 2
锢 2
与人类 2
两辆 2
磁场 2
升温 2
打开电脑 2
每月 2
他应该 2
北京市 2
厘米的 2
杀虫剂 2
专为 2
回声 2
才华横溢 2
应答 2
谐音 2
的钻石 2
孵 2
寥寥 2
并不顺利 2
连胜 2
担心的 2
拭 2
强盗 2
扑克 2
经济的 2
洛斯 2
格式 2
涌入 2
精细 2
养生 2
产自 2
违反 2
爱国主义 2
马克思 2
稀有 2
疲力 2
是所有 2
的代价 2
搅拌 2
老板说 2
一个地方 2
的一方 2
土星 2
想到的是 2
衷心 2
.... 2
做生意 2
研究的 2
饵 2
考虑到 2
是国家 2
这将 2
意味着什么 2
诞生的 2
是现代 2
▁韩 2
浓烟 2
并不断 2
中写道 2
朋友说 2
活生生的 2
确保 2
,25 2
了中国 2
空域 2
▁D 2
稞 2
▁不同的 2
装载 2
能实现 2
诺亚 2
YS 2
调查了 2
顿饭 2
认为的 2
重写 2
南昌 2
可以理解 2
出来后 2
言之 2
神舟 2
赶出 2
来信 2
屿 2
身于 2
代表的 2
▁支持 2
非常大的 2
搀扶 2
突破了 2
这段时间 2
鳄鱼 2
原有的 2
的鞋 2
的设备 2
赛特 2
班车 2
职能 2
牵制 2
》: 2
已故 2
▁红色 2
重要的事情 2
攸关 2
当过 2
▁救援人员 2
跟进 2
而为 2
▁切 2
▁我所 2
提及 2
生日快乐 2
武术 2
抉 2
2003 2
突起 2
和你的 2
羊皮 2
但这次 2
峙 2
荧 2
无谓 2
汇集 2
记者在 2
紧跟 2
将对 2
久远 2
沌 2
实属 2
脱掉 2
的期望 2
▁知识 2
▁智 2
荀 2
有所提高 2
电磁波 2
航员 2
砝 2
金城 2
的冒险 2
读者的 2
▁苏联 2
野蛮 2
退学 2
恙 2
海拔 2
大为 2
el 2
的乐趣 2
活力和 2
削弱 2
几分钟后 2
畅谈 2
等待的 2
顾客 2
新家 2
膑 2
正处于 2
相应 2
进场 2
改造 2
这个新 2
属性 2
要我 2
甚至更 2
出动 2
只手 2
的功能 2
▁我很高兴 2
表的 2
这很 2
别无 2
的房屋 2
顺从 2
起义 2
印象深刻的 2
叛逃 2
氯 2
,6 2
旷野 2
啤酒的 2
来个 2
了一篇 2
也以 2
参考书 2
峋 2
涉足 2
被盗 2
公布的 2
外加 2
拖累 2
起就 2
明显下降 2
民工 2
为啥 2
找到一个 2
:10 2
不足的 2
▁为何 2
一小时 2
2. 2
阻力 2
主攻 2
宗教 2
肉类 2
就给 2
▁其他人 2
希望和 2
的角 2
大爆炸 2
如果你们 2
抱歉 2
抛物 2
玻璃杯 2
贝拉 2
性地 2
NBA 2
十年后 2
缠身 2
大灯 2
大奖 2
也就意味着 2
接着说 2
讲座 2
并没有什么 2
他的父母 2
归还 2
跑动 2
太阳能 2
的两位 2
和儿子 2
吸引了很多 2
悲伤和 2
;, 2
操纵 2
手帕 2
的大学生 2
装上 2
始终是 2
欲睡 2
煤矿 2
生平 2
农作物 2
要给 2
情境 2
的人工 2
相对于 2
水区 2
跳蚤 2
地域 2
et 2
镖 2
的时间和 2
滑雪 2
▁距离 2
惊呼 2
控制了 2
蔺 2
河北省 2
▁那是因为 2
Tom 2
97 2
长时间的 2
的情节 2
▁台湾 2
鹦鹉 2
过瘾 2
的成果 2
提名 2
寨沟 2
摩天大楼 2
牵连 2
是一个非常 2
是世界上最大的 2
▁法国 2
的来源 2
名列 2
的地位 2
▁结构 2
年的时候 2
并有 2
秤 2
掀起了 2
主动与 2
定在 2
也成为 2
杯咖啡 2
推崇 2
为期 2
妈妈们 2
把它的 2
▁爱丽丝 2
世界之 2
比大 2
一国 2
除草 2
立足于 2
传说中 2
国家队 2
跌宕 2
子女的 2
▁这个女孩 2
王位 2
▁可是在 2
迫切 2
偶像剧 2
的时候就 2
S 2
似乎都 2
冷战 2
实施 2
第一部 2
艾斯 2
担心的是 2
功臣 2
高分 2
个月大 2
张文 2
全心全意地 2
出发点 2
的增长 2
镁 2
转弯 2
这两天 2
中的一些 2
投篮 2
安居 2
饮酒 2
回路 2
很兴奋 2
利用了 2
光合作用 2
搀 2
ba 2
承担着 2
回流 2
约束 2
正在经历 2
以他 2
组委会 2
▁亦 2
香烟 2
id 2
来完成 2
▁如果你的 2
攀升 2
▁本人 2
在教育 2
的危险 2
在亚洲 2
赤裸裸 2
智商 2
颜色和 2
有时是 2
解读 2
中生 2
马尔 2
中之 2
和上 2
分别为 2
绾 2
提醒自己 2
资产 2
▁化学 2
水温 2
▁现场 2
如果要 2
的小组 2
拥有许多 2
健全 2
斜坡 2
的工具 2
推算 2
怀有 2
$ 2
周刊 2
中国游客 2
北大 2
一个巨大的 2
应声 2
碾压 2
▁说实话 2
▁这个世界 2
保重 2
视而不见 2
▁朗 2
字母 2
并不能 2
▁她把 2
大部分是 2
▁快速 2
冲走 2
轮的 2
等现象 2
所言 2
和贝 2
招待 2
筹 2
擦干 2
是好的 2
先用 2
持续了 2
晚间 2
书里 2
与您 2
家庄 2
温床 2
似乎很 2
但是这 2
水从 2
秘书 2
▁威 2
天时 2
这还是 2
熟练地 2
之举 2
降到 2
事务 2
我敢 2
干部的 2
繁忙 2
症的 2
这种方式 2
马力 2
这么长时间 2
卯 2
荔 2
搭档 2
二战 2
潜意识 2
铬 2
▁请记住 2
庵 2
围攻 2
为食 2
▁科学家 2
能量的 2
泉州 2
都从 2
电台 2
调配 2
减弱 2
过敏性 2
都必须 2
▁你怎么 2
上市 2
中方 2
十年的 2
堵车 2
哈里 2
长期的 2
我这里 2
阻断 2
帝国主义 2
给这个 2
决战 2
引导下 2
法尔 2
整条 2
弓箭 2
寻找到 2
快艇 2
工人的 2
猪肉 2
透视 2
签订了 2
光头 2
远远超过 2
宽敞的 2
这门 2
吐槽 2
回答是 2
至少要 2
▁火车 2
苗条 2
和女 2
不希望 2
▁江苏 2
蟆 2
外来 2
气象 2
▁国王 2
赚了 2
工程师 2
的六 2
晏 2
安抚 2
各具 2
日本人 2
桥面 2
剑桥 2
后背 2
遮盖 2
全国的 2
槃 2
不及待 2
人权 2
重整 2
▁随着时间的 2
淋浴 2
烟气 2
面对面 2
家长们 2
上做 2
原有 2
影视作品 2
hi 2
泥浆 2
来控制 2
赤裸 2
可能已经 2
照相机 2
关系和 2
感到高兴 2
要买 2
拍到 2
思想是 2
年长的 2
剧情 2
的士 2
的管理 2
▁诺 2
契机 2
但是我不 2
安排的 2
被骗 2
用处 2
仍没有 2
才算 2
几年了 2
感到自豪 2
这家 2
水族馆 2
抓了 2
的最爱 2
沈阳 2
▁从这个 2
有关系 2
中巴 2
▁网络 2
也从未 2
炎热的天气 2
我感谢 2
创造新的 2
水瓶 2
发展到 2
没有比 2
出了问题 2
声名 2
无动 2
上也有 2
令人满意 2
稳固 2
绝地 2
▁分别 2
坐飞机 2
及其 2
子宫 2
肾脏 2
▁简单 2
罗曼 2
三分之一 2
雄厚 2
取舍 2
眼保健操 2
嗝 2
作者对 2
阶层 2
提醒人们 2
连续的 2
要问 2
比其他 2
速度和 2
意义和 2
矿工 2
周折 2
出海 2
承担起 2
圈和 2
当真 2
和破坏 2
重大 2
所需要的 2
谎 2
面试 2
适合的 2
菜肴 2
的快速 2
▁他很 2
要花 2
都可 2
不穿 2
羞辱 2
星期二 2
化解 2
素描 2
两座 2
一键 2
紧接 2
冷淡 2
见解 2
承担责任 2
最受欢迎的 2
住处 2
一气 2
技术的 2
过敏 2
会带来 2
从一开始 2
▁喝 2
蒿 2
拼音 2
重用 2
煽动 2
就很难 2
生病的 2
汶 2
要做什么 2
征兆 2
群体的 2
三个星期 2
海报 2
油脂 2
客车 2
没有理由 2
流氓 2
十字 2
执政 2
而且在 2
聚集在一起 2
射箭 2
异于 2
▁卡 2
又为 2
药的 2
美好时光 2
宗旨 2
水性 2
雇 2
独裁 2
的规则 2
的路线 2
▁小心 2
化石 2
科学界 2
印章 2
避风港 2
之谈 2
这个想法 2
退出 2
市场经济 2
要我们 2
▁古代 2
黄石 2
买来的 2
经验的 2
站台 2
现有的 2
验证 2
榭 2
我的错 2
退赛 2
变得更糟 2
归功于 2
要做的 2
格斯 2
扎实 2
一事无成 2
移开 2
崂 2
生物学家 2
镍 2
▁浙江 2
排行 2
大多数是 2
夫说 2
还是个 2
深深吸引 2
哆哆 2
较为 2
▁等待 2
禁忌 2
支点 2
校区 2
更多的时间 2
南方的 2
▁是什么 2
纤维 2
▁如有 2
▁福 2
复合 2
充其量 2
调控 2
准则 2
▁医院 2
巨大的变化 2
吮 2
对流 2
小岛 2
月和 2
茄 2
旬 2
根源 2
积极性 2
▁对此 2
下水道 2
交出 2
教皇 2
恢复到 2
老伴 2
暗恋 2
难者 2
寰 2
毕业典礼 2
芸 2
柬 2
议员 2
不适 2
国家级 2
▁长江 2
就不可能 2
尼斯 2
见面时 2
大队长 2
奘 2
的人中 2
的水分 2
武林 2
很少有 2
需要的是 2
师资 2
他打 2
临危 2
则以 2
▁你想 2
并向 2
帖 2
打猎 2
饭碗 2
出击 2
线索 2
打听 2
讲道 2
看守 2
摄氏度 2
年之久 2
大酒店 2
营救 2
中心的 2
该死 2
书画 2
亚麻 2
是世界 2
被发现 2
的正确 2
一大批 2
了一年的 2
庠 2
漏油 2
巴尔 2
干预措施 2
的恶 2
桀骜 2
▁短短 2
了一场比赛 2
▁宇宙 2
意识的 2
您想 2
西伯利亚 2
简要 2
教授 2
还不能 2
他从 2
掇 2
克星 2
饮用 2
铸 2
名气 2
回来时 2
的证据 2
上传 2
候鸟 2
升初 2
哈尔 2
喜出望外 2
圆柱 2
尼克 2
郑州 2
现成的 2
展现了 2
这真是 2
丛生 2
躯干 2
下一步 2
今天开始 2
米高的 2
经济利益 2
获奖者 2
▁他会 2
▁净 2
把车 2
总分 2
性别 2
毛骨悚 2
舰 2
叫作 2
号是 2
▁他们还 2
先前的 2
成功后 2
认识他 2
附近的 2
是通过 2
的内部 2
九年 2
中出现 2
和组织 2
▁扬 2
学区 2
从何而来 2
意中 2
基督教 2
我而言 2
场地上 2
设在 2
正是我 2
毕业于 2
曾被 2
会得到 2
明显高于 2
喜好 2
时尚的 2
受伤害 2
某某 2
上校 2
成百 2
必须在 2
德市 2
自流 2
主力 2
无条件 2
表现在 2
烹调 2
胤 2
自己的国家 2
随之而来 2
严惩 2
杯子里 2
看到她的 2
抒情 2
都能够 2
脱口 2
赦 2
重任 2
三角形 2
而散 2
参与进来 2
坐拥 2
职的 2
美元 2
我们之间的 2
上加 2
聚焦 2
容量 2
喊叫 2
路与 2
销毁 2
叫什么 2
得天独 2
麟 2
为生 2
轻薄 2
奏曲 2
的半 2
成为朋友 2
过长 2
每日 2
吸附 2
惬 2
现任 2
但可以 2
作假 2
日报 2
是多少 2
谆 2
暴涨 2
第二次世界大战 2
岁的女孩 2
着色 2
外观 2
出过 2
沙尘 2
各家 2
手续 2
蟾蜍 2
继续工作 2
的学校 2
困难重重 2
法语 2
各类 2
,11 2
超乎 2
尝试过 2
这可能 2
▁两个人 2
爬树 2
鹃 2
发生了变化 2
BO 2
纵容 2
大概有 2
的净 2
的保证 2
青少 2
蹶 2
的尝试 2
信守 2
一目 2
姆林 2
▁二是 2
工夫 2
中找到了 2
员在 2
唧唧喳喳 2
偷偷摸摸 2
要好 2
珍品 2
地址 2
去掉 2
▁东北 2
成为中国 2
你的身体 2
高利 2
能获得 2
热门 2
疏远 2
槁 2
位居 2
导致的 2
作案 2
扭转 2
到场 2
龙江 2
象是 2
饲养 2
穿了 2
自豪地说 2
里和 2
黑猩猩 2
掸 2
联盟 2
研究成果 2
障碍的 2
自然是 2
结果如何 2
被送到 2
血型 2
但是我的 2
打车 2
被动的 2
▁南方 2
影响到 2
中转 2
蒋介 2
咂 2
銮 2
的出口 2
波尔 2
娱 2
得名 2
要求在 2
他们为 2
费用 2
品种 2
呓 2
关注着 2
潜水艇 2
犯下的 2
指望 2
纳米 2
的道德 2
篇小说 2
口红 2
面临的 2
被一个 2
商场里 2
聪明的人 2
到一起 2
更严重 2
亲生 2
顺应 2
覆盖了 2
沿街 2
因为这个 2
消费 2
的增加 2
娴熟 2
科研 2
每一项 2
心脏病 2
寤 2
通过了 2
住户 2
签了 2
玛格丽特 2
我们国家 2
精疲力尽 2
不要忘记 2
分割 2
引发 2
中获得 2
的猫 2
多是 2
案例 2
葡 2
明文 2
乌兰 2
自发 2
并行 2
在促进 2
行事 2
1800 2
臀部 2
意图 2
探寻 2
内战 2
身分 2
是推动 2
人口的 2
巩 2
教育和 2
页的 2
步枪 2
移植 2
但因 2
宣布了 2
一家三口 2
请假 2
培根 2
正式的 2
小赵 2
的表达 2
那样的话 2
随着时间的推移 2
就有一个 2
日以 2
的主要内容 2
▁他对 2
敲门声 2
管理的 2
普及 2
澳大利亚 2
适时 2
象牙 2
宗教信仰 2
加倍努力 2
来判断 2
我可能会 2
品牌 2
堑 2
的首 2
是属于 2
▁空中 2
骑上 2
八十年代 2
露头角 2
充满活力的 2
偿还 2
凝聚力 2
寻求帮助 2
取下 2
资费 2
指的是 2
刎 2
微信 2
是假 2
阿克 2
在拉 2
▁但是我们 2
突显 2
摄影师 2
不适合 2
要求对 2
中期 2
电缆 2
受困 2
能动 2
中枪 2
妞 2
菩萨 2
诬 2
领导人 2
弛 2
叙述了 2
但我认为 2
四千 2
到最 2
明年的 2
一味 2
摄影 2
琛 2
亚洲 2
它只是 2
的标志 2
掉头 2
再次出现 2
客户 2
的钥匙 2
踏板 2
注意到了 2
买下 2
表现不佳 2
突发 2
的大型 2
就像我 2
美国的 2
盖茨 2
)、 2
不得已 2
那个地方 2
海外 2
红肿 2
▁举 2
十天 2
播出 2
也很难 2
是美国 2
丰厚的 2
举行了一次 2
问到 2
器官 2
童话故事 2
互换 2
既没有 2
规定 2
▁姜 2
着力 2
怎么看 2
去实现 2
求证 2
谈不上 2
误解 2
近期 2
痈 2
这种说法 2
取出 2
吸烟 2
半透明的 2
直到今天 2
真的很好 2
穿戴 2
则是在 2
,18 2
选择的 2
对偶 2
羽绒服 2
应在 2
那么容易 2
下沉 2
稽 2
给我打电话 2
存折 2
现在已 2
从水中 2
▁它们的 2
被称作 2
素有 2
恤 2
54 2
的事故 2
交通工具 2
直升机 2
▁到底 2
很困难 2
两个字 2
无与伦比的 2
农业 2
马戏团 2
狮子的 2
七月 2
推移 2
和丰富的 2
不宜 2
的一场 2
一起分享 2
建了 2
筛 2
赤脚 2
▁你知道吗 2
见得 2
链子 2
克制 2
▁志 2
党员 2
成像 2
阿尔 2
打人 2
隐藏在 2
咙 2
了整 2
他们将 2
苦难的 2
▁保 2
何以 2
▁社会 2
并不会 2
▁窗户 2
液晶 2
这个东西 2
仍然可以 2
个项目 2
谈到 2
生计 2
掠夺 2
▁睡 2
音器 2
一探 2
粼 2
立场 2
高呼 2
电动 2
寄予 2
脱离了 2
好客 2
尽心 2
和他们的 2
罪过 2
偏离 2
元帅 2
瞌 2
鳖 2
活儿 2
午休 2
高涨 2
或用 2
极光 2
文化和 2
几个星期 2
思路 2
是完全 2
名和 2
姚 2
克隆人 2
菜市场 2
一些事情 2
相的 2
门牙 2
之父 2
是中国的 2
针刺 2
能从 2
宽度 2
▁我应该 2
▁吸 2
给我们带来 2
雨林 2
昆仑 2
五颜 2
解散 2
集聚 2
8) 2
恻 2
食材 2
当时就 2
适宜 2
我有一 2
恋情 2
任何的 2
昕 2
反映了 2
空着 2
氓 2
将更加 2
改动 2
苏州 2
花旗 2
蔬 2
美中 2
可言 2
沪 2
▁丰 2
换成了 2
的最好的 2
容器 2
的第一步 2
不寻常的 2
装满 2
吹风 2
暧 2
紧凑 2
第四次 2
遥控 2
浩特 2
母亲在 2
电路 2
多说 2
已不再是 2
大陆的 2
改编 2
行进 2
牙膏 2
的大陆 2
很不错 2
之子 2
曼的 2
踹 2
旅行中 2
更健康 2
我的新 2
稳定 2
婺 2
用时 2
和马 2
阅览 2
声誉 2
投降 2
南通 2
幸福感 2
▁席 2
艺人 2
赠送 2
较小 2
他的话 2
看到许多 2
愿与 2
▁所谓的 2
祭司 2
出面 2
还是非常 2
买点 2
审阅 2
调动 2
▁关键 2
加强了 2
札 2
▁英 2
为人民 2
退去 2
文革 2
参赛者 2
和黄 2
通电话 2
书时 2
民众 2
发脾气 2
清楚地记得 2
寿 2
训练有 2
失常 2
敌意 2
为例 2
知道这些 2
五角 2
的人口 2
殉 2
可靠的 2
醴 2
通行证 2
数据 2
▁通常 2
底蕴 2
共和国的 2
倒退 2
威海 2
致命 2
祖宗 2
獠 2
没人知道 2
解释的 2
四名 2
虽有 2
主机 2
恶化 2
笄 2
旗袍 2
揭开了 2
太平洋 2
(10 2
联络 2
大胜 2
幼儿 2
和时间 2
话剧 2
加班 2
尽管它 2
和长 2
探求 2
的手机 2
的硬 2
衩 2
后说 2
盗版 2
灾民 2
碰上 2
接壤 2
简陋的 2
为何要 2
年多 2
茄子 2
财物 2
就是一种 2
把我带到 2
预示 2
疲惫不堪 2
生命危险 2
蕴藏 2
残杀 2
镇的 2
然后他 2
捐赠 2
十岁 2
电脑游戏 2
博的 2
所得 2
大都会 2
实现自己的 2
物质的 2
校园内 2
蔑 2
奖赏 2
气派 2
丧命 2
出不 2
▁新疆 2
拉出 2
请记住 2
疾驰 2
福利 2
一流 2
百叶 2
故障 2
钱财 2
的独特 2
所有东西 2
不安全 2
每况 2
窈 2
结成 2
白云山 2
下一届 2
▁因为在 2
理事长 2
阀门 2
很适合 2
填写 2
回避 2
风湿 2
四处寻找 2
高音 2
转换 2
韧性 2
餐巾 2
敬意 2
▁片 2
使其 2
评为 2
延伸到 2
雨雪 2
79 2
的财富 2
查理 2
拇 2
张开嘴 2
累积 2
洞中 2
▁尽 2
岛的 2
商店里 2
驾驶 2
七十 2
各种不同的 2
金发 2
▁第四章 2
我之前 2
投注 2
报喜 2
轮子 2
年他 2
部位 2
半年 2
骆 2
人时 2
的讨论 2
接送 2
盐湖 2
盒子里 2
缘于 2
第八 2
后台 2
熟知 2
叁 2
奇迹般 2
▁我知道你 2
他是谁 2
子孙后代 2
版本 2
次了 2
雇佣 2
奴隶 2
43 2
自传 2
△ 2
▁青年 2
飞碟 2
我刚才 2
砧 2
多方 2
▁选 2
魔杖 2
名校 2
忧患 2
▁若是 2
你可以在 2
社的 2
肠胃 2
每条 2
微软 2
重振 2
公理 2
要将 2
这与 2
逾越 2
公益 2
运费 2
成语 2
吻合 2
她知道 2
出错 2
买过 2
全世界最 2
和海 2
刨 2
可能有 2
挖出 2
▁完 2
掩盖了 2
烈日下 2
私人 2
▁今天晚上 2
清楚了 2
▁力 2
成型 2
降雨 2
▁热 2
坚决反对 2
供电 2
重要的作用 2
被污染 2
管理者 2
不确定 2
世界上最好的 2
车道 2
:《 2
西藏 2
更多人 2
也是对 2
展览 2
平息 2
不谈 2
北方的 2
都会在 2
井井有条 2
他没 2
为本 2
迪士尼乐园 2
的旧 2
辩解 2
十余 2
节目的 2
的高温 2
猜猜 2
麻将 2
礼貌的 2
脍 2
海景 2
足球运动员 2
特别是在 2
伦敦的 2
综 2
她还是 2
多层 2
都是用 2
圆环 2
才能获得 2
表演了 2
是因为它们 2
标志性的 2
省下 2
时钟 2
出口的 2
赶赴 2
赌博 2
我们所 2
都由 2
而下的 2
出售 2
娆 2
堂皇 2
者为 2
的第三 2
幽默感 2
侦探 2
直达 2
但被 2
仅限于 2
▁我们正 2
上大 2
课堂教学 2
▁指 2
简介 2
绑在 2
▁程 2
很棒的 2
复原 2
学历 2
臀 2
稳住 2
都与 2
艺术的 2
威尔 2
难掩 2
随心 2
结婚了 2
苦味 2
节假日 2
2006 2
房屋的 2
播音 2
梳妆台 2
相仿 2
功利 2
隍 2
▁广西 2
▁强 2
赖以 2
年和 2
区和 2
争执 2
只有两个 2
到这个 2
虬 2
有所作为 2
面粉 2
舞蹈演员 2
当事 2
在同 2
金矿 2
量子 2
和华 2
危险性 2
传入 2
跚 2
引入 2
造就了 2
纬 2
自来水 2
做不了 2
星和 2
是否可以 2
联系方式 2
中间的 2
两个孩子 2
现实世界 2
上将 2
和亚 2
沉溺 2
他们应该 2
顶级 2
的一段 2
致富 2
更低 2
吃早餐 2
纸和 2
迅猛 2
香菇 2
发现一个 2
意识地 2
就可能 2
朗诵 2
发酵 2
项目中 2
主张 2
玩家 2
▁战争 2
部和 2
打出了 2
成真 2
挨个 2
▁我们所 2
通车 2
一样重要 2
的状况 2
▁每天晚上 2
感光 2
或多或 2
我们吃 2
磨削 2
顾名思义 2
冷却 2
畅通 2
世界和平 2
选美 2
恼怒 2
新意 2
阮 2
的有力 2
▁京 2
办事 2
喆 2
不影响 2
鹄 2
过很多 2
传单 2
地盘 2
上轮 2
受过 2
而您 2
光灯 2
理所 2
也未 2
在上海 2
局的 2
西洋 2
▁汪 2
浓重的 2
国防 2
▁他们以 2
和动物 2
已经变成 2
出租车 2
踽踽 2
、2 2
小型 2
髫 2
根深蒂固 2
节点 2
巴赫 2
以保持 2
中学习 2
崴 2
▁绿色 2
这种现象 2
而将 2
念珠 2
而以 2
珠江 2
▁活 2
桌面 2
遗传 2
风口 2
居于 2
双语 2
支部 2
▁其它 2
缩短 2
杂物 2
较多 2
一直延伸到 2
▁再者 2
这架 2
环游 2
还不忘 2
听力 2
赎罪 2
▁这说明 2
一切都会 2
铄 2
冲浪 2
刷了 2
告诉你的 2
层中 2
的评论 2
石膏 2
应该把 2
不足以 2
素质的 2
酒鬼 2
百科全书 1
参议员 1
目的是为了 1
出舱 1
下游 1
电器 1
参照 1
一生都在 1
而久 1
产业发展 1
虔诚 1
鉴定的 1
入口 1
他妈的 1
:1、 1
al 1
成这样 1
收到的 1
控制力 1
成年人的 1
度高 1
▁吉林 1
一直存在 1
在这种情况下 1
# 1
我们就能 1
中性 1
回收 1
探索和 1
年以前 1
减缓 1
媵 1
毫米的 1
案例中 1
▁论 1
深得 1
不真实 1
实惠 1
老兄 1
两年后 1
收货 1
无功 1
名片 1
自住 1
介于 1
和弦 1
▁申 1
辐射 1
中区 1
日本首相 1
▁数十 1
肯定有 1
偈 1
将继续 1
了解到 1
茕茕 1
做多 1
易燃 1
评述 1
154 1
所做 1
他们被 1
他们到 1
天主教 1
三面 1
的核心 1
▁这名 1
密友 1
所在地 1
末的 1
转化为 1
的实施 1
尔和 1
续续 1
为零 1
▁她是一个 1
神论 1
的亚 1
单独的 1
韦 1
中进行 1
理由相信 1
因子 1
布拉 1
薄片 1
就完全 1
浅色 1
它们可以 1
威尼斯 1
通报 1
我的照片 1
▁运用 1
中只 1
市民的 1
倾力 1
▁有人认为 1
搞怪 1
浏 1
螺旋 1
已经死亡 1
浆果 1
大屏幕 1
劬 1
椽 1
全美 1
范畴 1
兴起 1
剐 1
涉水 1
笔钱 1
境遇 1
年以后 1
▁我仍然 1
能力的 1
全队 1
惊悚 1
可笑的 1
占据了 1
基础的 1
纭 1
森林资源 1
数万 1
小车 1
安全网 1
发生地 1
公寓 1
烤箱 1
果冻 1
帏 1
震慑 1
现在在 1
信誉 1
恸 1
每一分钟 1
车程 1
从学校 1
持平 1
直呼 1
的政治 1
攻击性 1
寿司 1
约定的 1
iphone 1
利和 1
还有更多 1
好手 1
▁证明 1
也与 1
▁2 1
工作机会 1
她的名字 1
压力的 1
香料 1
某个地方 1
病症 1
创造者 1
▁谢谢你 1
置信 1
声称 1
者和 1
言而 1
没有得到 1
立面 1
品酒 1
继续在 1
和平解决 1
,16 1
共产党员 1
按摩 1
海南省 1
冲突 1
展馆 1
拉上 1
紧缩 1
马西 1
归咎于 1
微不足 1
化妆品 1
送她 1
个小时的 1
▁默认 1
一代的 1
在接下来的 1
继续使用 1
计划的 1
篡改 1
采访了 1
漫不经心地 1
缯 1
千岛 1
修补 1
扔进 1
医院治疗 1
中级 1
汉族 1
徜 1
新三 1
食谱 1
了一定 1
被抢 1
旁白 1
力学 1
委婉 1
被判 1
直接从 1
阕阕 1
乾 1
我们选择 1
矿物 1
对一些 1
猜疑 1
罪行 1
▁这是因为 1
抽筋 1
拍下了 1
当之无愧 1
所做的一切 1
▁欢迎 1
前景 1
诚挚 1
锂 1
和外国 1
一对一 1
否决 1
秉 1
爬坡 1
大厅里 1
罗纳 1
并不太 1
之前就 1
或缺 1
未有 1
也有一些 1
登陆 1
襁褓 1
雪峰 1
引起了很多 1
恤衫 1
追捧 1
糍 1
肉食 1
哙 1
摧毁了 1
发电 1
酊 1
将所有 1
年代的 1
是完美的 1
机车 1
均是 1
语言和 1
任何一种 1
征服者 1
和超 1
坛的 1
全车 1
员工的 1
决定是否 1
桀 1
上风 1
屠宰 1
窣 1
嗽 1
正在对 1
用意 1
央视 1
学等 1
獾 1
集的 1
途径 1
▁疾病 1
太郎 1
吉斯 1
▁+ 1
4: 1
可以通过 1
▁你可以 1
违抗 1
百度 1
平方米 1
的太空 1
安全隐患 1
▁本次 1
游戏的 1
蛔 1
秽 1
450 1
表决 1
一年后 1
侄子 1
吃上 1
石家庄 1
权的 1
推动下 1
内障 1
L 1
成交 1
越强 1
▁郝 1
很快便 1
战前 1
把它放在 1
爆发的 1
这将是 1
和大学 1
急性 1
并存 1
为奇 1
涔涔 1
走私 1
成为他的 1
全村 1
▁罗杰 1
进行了一次 1
船体 1
潜在的 1
:// 1
负面影响 1
▁迈 1
像的 1
将分别 1
程度地 1
个多月 1
那个家伙 1
▁也可以 1
裔 1
假象 1
所思 1
的演讲 1
如何与 1
守住 1
主观 1
德育 1
和残 1
恒温 1
摘得 1
无法控制 1
传统节日 1
如何解决 1
妪 1
的好处 1
往往会 1
谜团 1
10000 1
的企业 1
宁县 1
性与 1
发展成为 1
艾米 1
▁布莱 1
后又 1
异性 1
▁80 1
他不能 1
业绩 1
的粮食 1
或多或少 1
▁我的朋友 1
每张 1
新生儿 1
使它们 1
很严重 1
之高 1
卖萌 1
下文 1
并不完全 1
多媒体 1
▁接受 1
MD 1
五分之一 1
宽裕 1
88 1
▁先生 1
的年轻人 1
学生学习 1
小数 1
调和 1
和被 1
取向 1
的角度来看 1
取名 1
积极响应 1
水库 1
非洲 1
▁享受 1
的实现 1
极有 1
开支 1
▁在他们的 1
▁撒 1
占领了 1
▁姚 1
咒语 1
到位 1
完全没有 1
出逃 1
▁其次是 1
民居 1
供给 1
每种 1
切口 1
角膜 1
无法忍受 1
聘 1
这项工作 1
误入歧途 1
1984 1
韬 1
▁但是为了 1
的事实是 1
一级的 1
发短信 1
实质 1
1970 1
生活质量 1
的粗 1
意识到了 1
它不能 1
场内 1
的一周 1
躁动 1
佳丽 1
煎饼 1
诙 1
编排 1
ok 1
电车 1
撒哈拉 1
改观 1
总结出 1
八千 1
两成 1
迄 1
是错误的 1
这一事实 1
变形金刚 1
宣扬 1
▁在其他 1
延长了 1
疗养 1
大举 1
港市 1
有权 1
宝宝的 1
会引起 1
以色列 1
山寨 1
贵阳 1
十八大 1
使中国 1
米处 1
所为 1
▁18 1
在进入 1
了一家 1
时用 1
怀柔 1
缔造 1
院士 1
我国经济 1
但只有 1
剖析 1
一次性 1
信服 1
▁森 1
两口 1
科学技术 1
传递到 1
酷刑 1
▁语言 1
农舍 1
▁依靠 1
锨 1
与此同时 1
我们想要 1
万余 1
证明书 1
文稿 1
猕猴 1
肇 1
布丁 1
一些问题 1
耳光 1
澳 1
二十五 1
盛况 1
水平低 1
电瓶 1
或被 1
最差 1
来说明 1
事实和 1
▁东方 1
选择在 1
建国 1
附有 1
咻 1
肌肉的 1
也有不少 1
他的母亲 1
和生物 1
99% 1
明清 1
潞 1
王老 1
这一决定 1
和下 1
毋 1
▁脱 1
鲜美 1
瓷砖 1
大气层 1
上看到 1
这说明 1
急需 1
充分体现了 1
建的 1
将不再 1
疗养院 1
笤 1
情况如何 1
将中国 1
蝎 1
潍 1
口味的 1
相距 1
耳环 1
蜘 1
两种不同 1
身份的 1
最好不要 1
反之 1
▁他正在 1
的网友 1
洽 1
多张 1
安全的地方 1
的商业 1
▁怎么办 1
岛上的 1
绝杀 1
123 1
军事力量 1
和愤怒 1
大兴 1
人们生活 1
另一端 1
成熟和 1
男女平等 1
跷 1
果香 1
脉络 1
金刚石 1
乐清 1
成长过程中 1
▁几天前 1
one 1
而成为 1
女皇 1
入手 1
远见 1
已全部 1
祗 1
▁如果要 1
较大的 1
者来说 1
船队 1
:1. 1
与挑战 1
给他的 1
ti 1
消费者 1
下载 1
开始对 1
为核心 1
和令人 1
刺激性 1
工业化 1
解决不了 1
▁从这些 1
不得以 1
原子 1
喷发 1
▁采取 1
为重点 1
▁中国是 1
称他为 1
南斯拉夫 1
肋骨 1
一辆汽车 1
圯 1
资讯 1
船舶 1
▁得到了 1
内外 1
不同寻常的 1
礼貌地 1
仅剩 1
更改 1
孤儿院 1
乐福 1
再也无法 1
▁零 1
解冻 1
笔录 1
,200 1
榛 1
真实性 1
业余 1
感觉就像 1
染色体的 1
▁你以为 1
来势 1
谏 1
在非洲 1
銮π 1
已完成 1
珊瑚礁 1
打响 1
▁泛 1
找出了 1
越小 1
年男子 1
改革与 1
卖掉 1
学位 1
分以上 1
彗 1
汉堡 1
保守 1
绝佳 1
http 1
▁我们很高兴 1
▁但当 1
在世界范围内 1
代人的 1
领到 1
作为一种 1
▁我们将在 1
去的地方 1
很多人的 1
是历史 1
▁不得 1
on 1
点名 1
邮递员 1
柞 1
日内瓦 1
科幻小说 1
炎症 1
▁qu 1
潜水员 1
耧 1
方程式 1
多点 1
230 1
裘 1
的各 1
扶手 1
产生一个 1
糕点 1
机械化 1
祛 1
垓 1
在纽约 1
晶体 1
细则 1
现象的 1
:11 1
形似 1
有毒 1
的啤酒 1
在微博上 1
剑客 1
些年 1
我们今天 1
广东省 1
痤疮 1
走下来 1
镰 1
从早上 1
是非常重要的 1
在大陆 1
纪录片 1
敏锐的 1
揽 1
七号 1
西安市 1
▁他们没有 1
各方面的 1
参与了 1
▁N 1
先例 1
⁄ 1
领军 1
二十分钟 1
但他们的 1
▁更重要的是 1
单向 1
效仿 1
开着的 1
均有 1
和双 1
唱片 1
宁波 1
份额 1
飞溅 1
TF 1
收缩 1
号称 1
便宜的 1
咄咄 1
办法是 1
和经验 1
短篇小说 1
大喊大叫 1
纳粹 1
美容 1
戏曲 1
素养 1
不同程度的 1
作出贡献 1
悬念 1
地保护 1
拍戏 1
▁但随着 1
得益于 1
斯卡 1
的右 1
枸杞 1
时间短 1
无辜的 1
的意愿 1
能满足 1
▁唯一 1
理解为什么 1
对中国 1
▁客观 1
▁送 1
越来越多的人 1
▁本书 1
柑桔 1
力所能 1
对立 1
▁城市 1
终端 1
的简单 1
见过的最 1
惰 1
这个问题的 1
lip 1
验证了 1
▁一直以来 1
卖给 1
版面 1
曾与 1
任职 1
监狱 1
目的而 1
志愿者的 1
肩负着 1
’。 1
灌输 1
温文 1
改成 1
▁对不起 1
诏 1
该岛 1
开始为 1
大队 1
痹 1
女人在 1
地雷 1
逻 1
都曾 1
参谋 1
2》 1
▁不管怎样 1
惠州 1
冻结 1
食品安全 1
中所有 1
▁老板 1
西域 1
▁这是一种 1
▁服务员 1
透析 1
擒 1
把刀 1
徐州 1
响应 1
杀了你 1
▁形成 1
章程 1
和孩子 1
露天 1
房主 1
武汉市 1
在考虑 1
和方法 1
三项 1
▁在从 1
us 1
去世后 1
基因 1
甭 1
下一轮 1
开窗 1
对所 1
剂的 1
发达国家 1
更少 1
维纳斯 1
喜欢这个 1
不法 1
在四 1
真实地 1
唿 1
残障 1
室友 1
趵 1
病菌 1
清华大学 1
做到这一点 1
店主 1
与实践 1
食人 1
▁结果是 1
湖区 1
在人类 1
废气 1
特斯 1
和您的 1
他必须 1
穿衣 1
将手 1
莠 1
必需 1
约束的 1
▁全世界 1
退回 1
去钓鱼 1
夫特 1
托尔 1
嫔 1
囫 1
▁孔 1
抢断 1
邋遢 1
给一个 1
护送 1
在电视上 1
完美地 1
喷嚏 1
负责的态度 1
槌 1
资产阶级 1
剧的 1
收音 1
仅次于 1
人已 1
考官 1
建立与 1
▁本品 1
见于 1
标价 1
獗 1
叽哩 1
高于 1
魔女 1
肉毒杆菌 1
吨的 1
以使 1
预想 1
有益于 1
我对此 1
_ 1
误解了 1
至今仍 1
绺绺 1
嗷嗷 1
▁休 1
是陈 1
向社会 1
2: 1
为代表 1
就读 1
后裔 1
变动 1
感到恐惧 1
已经成为了 1
连线 1
以前从未 1
3600 1
▁| 1
炮弹 1
入党 1
禁烟 1
逐渐成为 1
在杭州 1
合影 1
阶层的 1
有较 1
与合作 1
淙 1
广泛的 1
已成为一种 1
▁政治 1
迷路 1
加重 1
幄 1
死皮 1
粽子的 1
所大学 1
G 1
和四 1
和重 1
预约 1
在一段 1
艺术学院 1
格拉斯 1
继承人 1
咴 1
代表性的 1
花色 1
展出 1
牵扯 1
自编 1
人们开始 1
男性 1
▁跟随 1
保持冷静 1
家人和 1
和妻子 1
芙 1
恶臭 1
可以进行 1
▁先进 1
关注的 1
居住在 1
不太清楚 1
网民 1
数字是 1
释放出 1
镇上 1
10. 1
▁他为 1
指挥部 1
的球员 1
在广州 1
猝 1
把戏 1
趋向于 1
引以为 1
加速器 1
人们会 1
被完全 1
急于 1
嚅 1
祭祀 1
世界上最大的 1
人体的 1
▁哈尔 1
就职 1
应邀 1
尸检 1
ime 1
油炸 1
他们需要 1
签名 1
紧密相连 1
濒危 1
卡上 1
的理念 1
请他们 1
ow 1
巴黎 1
绝缘 1
被困在 1
喂养 1
的人会 1
向好 1
布里 1
▁正是在 1
醍 1
工业 1
古建筑 1
比例 1
开始之前 1
自我牺牲 1
关注的焦点 1
圣诞老人 1
被害 1
有一定 1
丹妮 1
并告诉 1
就意味着 1
治理 1
赣 1
方舟 1
水岭 1
混合着 1
条件的 1
看管 1
▁原因是 1
严格执行 1
戾 1
质性 1
▁这使得 1
压力时 1
将会被 1
钟表 1
电影中 1
▁在这种情况下 1
罚款 1
教学法 1
沔 1
深化 1
实事 1
他们自己 1
1.5 1
王志 1
▁天文学家 1
继续说 1
▁这个人 1
独立的 1
表示祝贺 1
整容 1
才能够 1
公分 1
录音机 1
志明 1
算法 1
针灸 1
镇压 1
有经验 1
洗牌 1
国家森林 1
错失 1
许多地方 1
而定 1
舱门 1
口香糖 1
农场 1
仍然需要 1
空气污染 1
或更多 1
猛禽 1
公斤 1
天气预报 1
彝 1
划分 1
性能 1
劳斯莱斯 1
知之 1
围困 1
所有事情 1
信息素 1
内有 1
会改变 1
本届 1
导师 1
声明 1
局限于 1
接待 1
初衷 1
恿 1
人因 1
强权 1
保持在 1
尽可能地 1
2300 1
开除 1
估计是 1
实实在在 1
甲状 1
如何将 1
遭到了 1
代理 1
自卫 1
换新 1
新品 1
搁置 1
安倍 1
▁微波 1
短片 1
▁环 1
佟 1
熔 1
▁太空 1
配色 1
渐变 1
▁下半场 1
税收 1
暴发 1
东芝 1
te 1
家庭作业 1
出事 1
卡斯 1
雇主 1
吉林省 1
平民 1
招致 1
疑犯 1
八一 1
学费 1
数倍 1
热带雨林 1
婚庆 1
运河 1
出席 1
我们就会 1
▁泽 1
冠冕 1
比较容易 1
亿万 1
境内 1
建平 1
莫尔 1
狗一样 1
之间相互 1
戏份 1
偕 1
有更好的 1
▁这与 1
所需 1
▁上海 1
当代中国 1
个月后 1
确定了 1
份工作 1
新增 1
民生 1
冰川 1
阵雨 1
调换 1
之初 1
的进步 1
他的新 1
敝 1
薯条 1
中共 1
畅销 1
▁解放 1
失真 1
▁所以要 1
吸引到 1
演奏者 1
中的一种 1
▁这为 1
▁几乎所有 1
城管 1
▁定 1
直播 1
很有用 1
更愿意 1
美誉 1
点开始 1
▁中国人民 1
严重受损 1
核酸 1
选为 1
战略 1
仰慕 1
积极参与 1
臻 1
发来 1
准备就绪 1
bo 1
脱水 1
都处于 1
佩罗 1
蔗 1
棘手 1
有一支 1
1% 1
▁k 1
上岗 1
不敌 1
樵 1
古董 1
最常见 1
▁但是它们 1
农民工 1
才有可能 1
反叛 1
强劲的 1
圣徒 1
辞退 1
弋 1
被淘汰 1
▁杰 1
将一个 1
确实有 1
的领导人 1
老旧 1
人身 1
折腾 1
切身 1
承认自己的 1
▁强烈的 1
舷 1
对其 1
汩 1
国家队的 1
轴线 1
号决议 1
生产能力 1
裳裳 1
不断更新 1
倍受 1
34 1
粒度 1
省略 1
串联 1
邮件 1
承包 1
趋势 1
照明的 1
创作的 1
参阅 1
CF 1
▁财 1
▁发展 1
有待 1
法律的 1
其内部 1
查找 1
,50 1
将进入 1
▁合作 1
文说 1
屡次 1
的高考 1
的粉丝 1
在世界上 1
传染 1
周一 1
讧 1
诺伊 1
历史学家 1
不吸烟 1
的小型 1
好转 1
产物 1
消亡 1
了各种 1
两国的 1
1300 1
用一种 1
所作所为 1
▁但如果 1
剥离 1
已经使 1
▁这是个 1
的愤怒 1
丹丹 1
驱车 1
总和 1
可以对 1
苏打 1
nd 1
聂 1
当回事 1
较高 1
▁湿 1
大户 1
河流的 1
官僚 1
措手 1
要使 1
定时 1
日称 1
在其他 1
老布什 1
强健 1
而战 1
文物的 1
会影响 1
师德 1
情结 1
长虹 1
交界处 1
不再需要 1
则要 1
甄 1
喷洒 1
流经 1
地貌 1
该人 1
厥 1
却很少 1
钢板 1
极端的 1
拉丁 1
145 1
之海 1
侵权 1
网络的 1
规定了 1
的工作人员 1
羊的 1
多样 1
今早 1
▁譬如 1
荃 1
杂乱无章 1
以及向 1
细致的 1
一次又一次地 1
进一步的 1
和本 1
给力 1
这种变化 1
全能 1
牙刷 1
光学 1
条件是 1
扔到 1
两份 1
短文 1
易斯 1
打电话给 1
产阶级 1
和生活 1
铜矿 1
必须为 1
高龄 1
安盟 1
决胜 1
塘江 1
高层 1
枢 1
基金 1
公务员 1
打造一个 1
真的会 1
更是一个 1
荼 1
比较小 1
控制的 1
▁改变 1
孔卡 1
市面上 1
侧向 1
棒球 1
移居 1
施加的 1
创下 1
立方 1
短时间 1
移到了 1
具有良好的 1
法案的 1
▁会议 1
掖 1
用途 1
活血 1
马特 1
手柄 1
世界经济 1
的高潮 1
皮和 1
会继续 1
办了 1
一户 1
盘点 1
狂喜 1
三组 1
时间和精力 1
弹道 1
解析 1
生成 1
讯息 1
在经历了 1
应以 1
7) 1
五花 1
鼻涕 1
明显地 1
已经向 1
反应的 1
开火 1
铀 1
莫斯科 1
抑或是 1
另一些 1
恰当的 1
唧哏喳喳 1
▁造成 1
ree 1
件的 1
箩 1
娲 1
技术中 1
影片 1
圣灵 1
加热器 1
▁美国总统 1
乳液 1
为数 1
美国国会 1
国际机场 1
玄武 1
农村的 1
时对 1
撒上 1
:19 1
水力 1
167 1
▁当你在 1
承接 1
私底下 1
反映出 1
说他们 1
承载能力 1
富有的 1
军士 1
涵义 1
的双重 1
向新 1
储藏 1
经济政策 1
棱镜 1
采取措施 1
肋 1
这些事情 1
相反的 1
即将在 1
次序 1
诊断出 1
车是 1
立体 1
的焦点 1
协作 1
旁听 1
是否需要 1
测温 1
是否已经 1
大蒜 1
回答这个问题 1
升级为 1
制于 1
傀 1
发行 1
上当 1
并使 1
可信 1
黑色和 1
先驱 1
世界各地 1
▁印 1
通关 1
这张照片 1
艺术和 1
之机 1
标的 1
功能的 1
增长了 1
的早期 1
皮革 1
言而喻 1
的海滩 1
命题 1
入户 1
大肠 1
时没有 1
杓 1
▁犯罪 1
已经存在 1
数年 1
绿茶 1
欤 1
牲口 1
接管 1
家有 1
吉祥物 1
落后于 1
▁宜 1
横向 1
星系 1
各种各 1
舰队 1
赠与 1
浣 1
217 1
oy 1
可以直接 1
▁当日 1
▁导致 1
特点是 1
▁独立 1
没问题 1
未平 1
他们只是 1
接见 1
、5 1
情有独钟 1
潜规则 1
用人 1
澄清 1
体积 1
▁虽然是 1
愈演愈烈 1
泸 1
低了 1
该剧 1
▁比方说 1
分布于 1
质检 1
▁孩子的 1
变身 1
不完全 1
是最早 1
看护 1
沕 1
预计在 1
来加强 1
倜 1
黑社会 1
绿色和 1
▁好在 1
天主 1
很多种 1
宕 1
名思 1
前任 1
胁 1
接应 1
报告说 1
能力的培养 1
可以利用 1
1200 1
医疗 1
基于 1
逃离现场 1
有加 1
63 1
私家 1
得到满足 1
在许多 1
戕 1
一个男人 1
会计 1
提醒大家 1
抽象 1
备用 1
同时又 1
以中 1
打造出 1
展会 1
记者的 1
嗒嗒嗒 1
热烈欢迎 1
形成鲜明对比 1
影响力 1
标注 1
沟渠 1
向导 1
▁这两个 1
轻描淡写 1
热切 1
令人震惊 1
我试图 1
题材 1
的主体 1
调整后 1
竞争力 1
不得在 1
层面 1
攻势 1
荷马 1
典当 1
缴纳 1
当务之急 1
▁这份 1
纳森 1
弊端 1
汽车品牌 1
回溯 1
的开发 1
近来 1
庇 1
墓地 1
密切配合 1
很遗憾 1
翻新 1
胚 1
开机 1
云计算 1
东盟 1
窍门 1
病毒的 1
专注于 1
少量 1
位置的 1
想买 1
篡 1
焱 1
匍匐 1
(3 1
委托人 1
老兵 1
为观 1
的热带 1
世纪初 1
或有 1
瘟 1
保质期 1
山洞 1
场和 1
大部分时间 1
下周 1
教科 1
助于 1
也属于 1
释放了 1
鉴于 1
街区 1
殴打 1
▁她对 1
等活动 1
壕 1
唁唁 1
▁布 1
一两次 1
请给我 1
好过 1
日第 1
是否意味着 1
多做 1
衲 1
利益的 1
一些建议 1
▁中的 1
留学生 1
测量的 1
维生素 1
布的 1
恐怖分子 1
时开始 1
了一个小时 1
到底是怎么回事 1
住在这里 1
床位 1
迟缓 1
▁曼 1
尤为突出 1
净利 1
超群 1
▁来吧 1
手部 1
技术与 1
访问时 1
座城市 1
▁这一点 1
▁非 1
外伤 1
加速度 1
发展迅速 1
锥 1
190 1
圈子里 1
朝一日 1
创下了 1
仍未 1
有为 1
也受到了 1
▁安娜 1
可能对 1
所造成 1
遗漏 1
豆浆 1
▁肯 1
将不 1
稷 1
全球变暖 1
信任的 1
买了一些 1
心理学家 1
普遍认为 1
来改善 1
的目标是 1
咚咚咚 1
▁布朗 1
▁究竟 1
和科学 1
失血 1
下拉 1
非常满意 1
已经死了 1
荷兰 1
和痛苦 1
畦 1
聚合 1
平均每年 1
▁粗 1
▁直至 1
片面 1
▁答 1
据点 1
▁爱德华 1
橱 1
半时 1
▁您没有 1
的一支 1
香菜 1
不正确 1
ach 1
火炬手 1
首次亮相 1
通达 1
的培养 1
远远不够 1
旨在 1
凝血 1
英语的 1
罪魁 1
百人 1
周二 1
输球 1
是未来 1
星际 1
月初 1
小三 1
▁青岛 1
你愿意 1
孩子们在 1
骋 1
油漆 1
ah 1
广义 1
息息 1
天前 1
所载 1
两项 1
有网友 1
预设 1
找人 1
朝阳区 1
的人数 1
▁巴黎 1
iP 1
福利院 1
未婚夫 1
在接受 1
一体 1
融合了 1
巫师 1
垃圾食品 1
追溯 1
稣 1
金融 1
腹痛 1
二者 1
主义和 1
垂死的 1
的积极 1
大大降低 1
椭圆形 1
日早上 1
弹射 1
别无选择 1
开个 1
名目 1
冒犯 1
发掘 1
虔诚的 1
nm 1
女方 1
雾水 1
枭 1
亓 1
酸奶 1
▁电影 1
将如何 1
不断扩大 1
▁近来 1
市委 1
专一 1
检测和 1
定理 1
化装 1
七大 1
其妙 1
侵害 1
大英 1
▁而作为 1
儿童医院 1
福祉 1
墓穴 1
主导 1
轻微的 1
对孩子 1
知名 1
他最 1
72 1
第四个 1
惩 1
艺术家的 1
先生说 1
支流 1
很方便 1
却难以 1
捕获 1
击退 1
阳县 1
特工 1
戊 1
中海 1
生活用品 1
适当的时候 1
数码相机 1
沙皇 1
羊毛 1
染料 1
青铜 1
奖金 1
▁请问 1
已有的 1
兽医 1
任职期间 1
坞 1
删除 1
改良 1
队长的 1
隐性 1
不紊 1
》? 1
神童 1
五花八门 1
壮大 1
▁9 1
来赢得 1
木制 1
保时捷 1
▁她从 1
▁事故 1
的是在 1
体系的 1
的三个 1
弥尔顿 1
具体情况 1
大部分的 1
偷了 1
则表示 1
▁奈 1
发生冲突 1
磨碎 1
忐 1
毫无意义的 1
犯规 1
正向 1
大水 1
舞厅 1
红斑 1
在所有 1
近似 1
规章 1
已经成了 1
▁低 1
的程度 1
开销 1
建立在 1
嗣 1
低迷 1
在某些 1
娣 1
女排 1
技术和 1
内侧 1
塌陷 1
两天的 1
省级 1
万众 1
底板 1
派出 1
誊 1
▁纸 1
高血压 1
闻讯 1
互动的 1
翊 1
即为 1
是古 1
零时 1
出发前 1
所以在 1
加重了 1
交换了 1
离世 1
挺进 1
秦皇岛 1
酒后 1
▁一块 1
冗 1
像这样的 1
充电 1
交流的 1
俨 1
圆顶 1
工资和 1
跟鞋 1
▁没关系 1
的建设 1
消灭了 1
万次 1
羊羔 1
挫伤 1
等级的 1
的人将 1
的政治家 1
66 1
得多的 1
正确地 1
擦拭 1
33 1
政治家 1
定制 1
恩爱 1
专业知识 1
吉米 1
偏心 1
莅 1
庇护所 1
多巴 1
▁中医 1
▁国内外 1
嗷 1
▁意思是 1
▁鲜花 1
祁 1
还有待 1
土耳其 1
▁Q 1
酒泉 1
乔布斯 1
印度 1
怂 1
痍 1
▁of 1
液中 1
我们还没有 1
面值 1
▁大力 1
将与 1
▁他称 1
的合作 1
还必须 1
救火 1
中最重要的 1
应该从 1
河谷 1
基督徒 1
▁大量的 1
岑 1
▁准 1
很多东西 1
寄生虫 1
空心 1
▁必 1
规定的 1
是否具有 1
尤其在 1
巴斯 1
制动 1
▁在过去的 1
臆 1
2700 1
抓紧时间 1
率为 1
糟糕了 1
腿部 1
为目标 1
谚 1
经验和 1
也随 1
相关的 1
瘟疫 1
算子 1
多功能 1
分钟内 1
罪魁祸首 1
藐 1
墨子 1
语法 1
块金牌 1
并结合 1
遭受的 1
震荡 1
出了一种 1
,24 1
痊愈 1
,45 1
已经达到了 1
嘉宾 1
自己的方式 1
中存在 1
之急 1
年被 1
课题 1
提到的 1
人员和 1
邀请我 1
▁彩色 1
和管理 1
雒 1
显然是 1
功底 1
我是否 1
他问 1
将全部 1
▁当事 1
、10 1
种类的 1
ud 1
款式 1
中国队以 1
▁说话 1
2400 1
的新闻 1
和最 1
栅栏 1
戴在 1
督导 1
也纳 1
躏 1
▁C 1
▁科学 1
逻辑 1
站点的 1
浓厚的兴趣 1
私下 1
▁他因 1
等地 1
早的 1
还发现 1
娩 1
万余元 1
荤 1
特色社会主义 1
oc 1
现在有 1
▁手术 1
之苦 1
是一致的 1
理化 1
102 1
炮制 1
的最新 1
▁线 1
十几年 1
到达时 1
天桥 1
我们所有人 1
颁发 1
对外开放 1
加起来 1
雷特 1
苦战 1
影院 1
凹陷 1
近百 1
心血管 1
两个星期 1
▁比赛结束后 1
不减 1
证明自己 1
继续进行 1
文艺复兴 1
ky 1
▁我能 1
求和 1
不可分 1
雹 1
性格开朗 1
长寿 1
探访 1
机在 1
葆 1
▁可能会 1
和执行 1
存有 1
▁二氧化 1
乳胶 1
专用 1
会晤 1
时间比 1
胡椒 1
彩画 1
在这方面的 1
汹 1
蜴 1
▁面向 1
都在努力 1
相称 1
高架桥 1
新一届 1
不会因 1
15000 1
自夸 1
DD 1
激进 1
为维护 1
和黑色 1
圈内 1
而逃 1
卡车 1
纺纱 1
松下 1
医药 1
简短 1
1:1 1
巴菲特 1
短期内 1
事件中 1
人意料 1
排水 1
6. 1
地租 1
宫的 1
它使 1
办案 1
叛徒 1
闲置 1
慕名 1
▁在今天 1
乙肝 1
人满 1
陛 1
另一名 1
商贸 1
三分球 1
科技创新 1
良机 1
星球上 1
35 1
裆 1
lie 1
汨 1
鉴 1
广州市 1
很深 1
我的儿子 1
大麦 1
德和 1
▁群 1
第三大 1
了婚 1
山县 1
西方国家 1
奠定 1
您会 1
魅力和 1
你好吗 1
布局 1
组织和 1
钉在 1
已经非常 1
酒的 1
搭载 1
▁焦 1
水道 1
使他成为 1
前提 1
已近 1
装备的 1
每年都会 1
▁大众 1
死亡率 1
法中 1
梗 1
上下文 1
花时间 1
叙利亚 1
的范围 1
曲目 1
较早 1
芷 1
低温 1
张力 1
章鱼 1
在圣 1
各省 1
猩 1
万亿 1
一年内 1
的医疗 1
渤海 1
阪 1
的第一人 1
倍的 1
参加活动 1
▁我们通过 1
屈指可 1
延长到 1
杂粮 1
壬 1
杰出 1
技工 1
松散 1
周日 1
建构 1
引以为傲 1
获救 1
烧毁 1
ank 1
洗衣机 1
跻身 1
独立和 1
的利益 1
中国足球 1
的数据 1
的贡献 1
不会改变 1
简短的 1
召开的 1
纺 1
香肠 1
▁尾 1
褥 1
的物理 1
原料 1
亵渎 1
宣示 1
王妃 1
www 1
不合格 1
影片中 1
蕙 1
▁他知道 1
融合在一起 1
并将 1
的艺术 1
物价 1
▁同一 1
▁开放 1
的看法 1
搭建 1
小龙 1
▁把握 1
相当大的 1
看起来是 1
徒劳的 1
控制住 1
冶炼 1
▁他所 1
此举 1
离场 1
频繁 1
出土 1
四国 1
迪亚 1
唧唧唧唧 1
的人民币 1
紧迫 1
▁他以 1
德文 1
社会服务 1
理论上 1
▁各国 1
▁on 1
基础上 1
一变 1
青光 1
小威 1
舐 1
严重影响 1
的经济发展 1
失踪了 1
▁靠 1
到来之前 1
道远 1
为了提高 1
▁距 1
对他们来说 1
诶诶 1
与他们的 1
厝 1
军民 1
他让 1
几场 1
已经与 1
蛋白质 1
皮尔 1
借此 1
▁没有人知道 1
避风 1
占用 1
强烈反对 1
美术馆 1
可为 1
尾随 1
祥地 1
副驾驶 1
不相同 1
应将 1
领先的 1
段的 1
失措 1
在短短 1
后与 1
还多 1
难治 1
的物质 1
指骨 1
能够将 1
而不能 1
我们希望 1
海口 1
党派 1
深潜 1
疝 1
蛰 1
所说的那样 1
充分地 1
猖獗 1
计划与 1
新星 1
脚垫 1
钠 1
我的确 1
最终在 1
策划 1
下夜 1
能提高 1
如何才能 1
输液 1
一刀 1
▁照 1
对这一 1
显得有点 1
社会和 1
形成和 1
卧床 1
抓到 1
海马 1
穆里奇 1
为三 1
的定义 1
变老 1
▁限制 1
▁前者 1
▁猎 1
Com 1
饿死 1
文昌 1
1) 1
(2 1
直到他 1
自闭症 1
牛和 1
时报 1
▁M 1
许可 1
可持续发展 1
从其 1
DNA 1
更有利于 1
无论是在 1
把衣服 1
可以同时 1
爽口 1
两性 1
贷款 1
的乘客 1
而对于 1
空间的 1
绻 1
关键的 1
记号 1
愚蠢的 1
在明年 1
编剧 1
率也 1
也逐渐 1
的手续 1
哈拉 1
如果您 1
纪念品 1
百货 1
构成了一个 1
一种在 1
枪口 1
将为 1
限量 1
级和 1
等项目 1
燕山 1
梦想家 1
纫 1
代步 1
建立起 1
籽粒 1
三维 1
然后将其 1
非常重要的 1
起作用 1
168 1
的影响下 1
的研究中 1
我靠 1
前夕 1
篇文章中 1
将从 1
废弃的 1
似是而非 1
毫无疑 1
有所了解 1
你可以看到 1
▁追 1
有色 1
洞察力 1
噫 1
耐克 1
▁镜头 1
的主意 1
长篇 1
执事 1
天窗 1
突围 1
面包和 1
数据表明 1
第一条 1
方法来 1
探测 1
用气 1
水墨 1
面前展现 1
首歌曲 1
修整 1
溉 1
其在 1
分队 1
在宁波 1
建军 1
等都 1
是实现 1
▁I 1
这样的情况下 1
权和 1
长三角 1
▁空间 1
的工业 1
弩 1
▁作为一个 1
讲述了一个 1
直觉 1
的水域 1
通宵 1
道具 1
仪的 1
计算机 1
猎犬 1
论的 1
的严重 1
镇中心 1
洋娃娃 1
☑ 1
全天 1
法国的 1
郊野 1
既不是 1
也可以从 1
爆出 1
与否 1
明示 1
大胆地 1
吉林 1
撰文 1
出轨 1
目的在于 1
猩猩 1
音响 1
冗长的 1
共存 1
之后在 1
采取 1
邸 1
野猪 1
给出的 1
现实主义 1
它必须 1
告诉过你 1
先发制 1
在农村 1
工商 1
这样说道 1
公车 1
单亲 1
:30, 1
罗夫 1
橡胶 1
咿 1
▁第三步 1
沦为 1
是同一 1
已经得到 1
但这是 1
▁油 1
很有信心 1
曾担任 1
钿 1
积极开展 1
的好坏 1
睨 1
前茅 1
内部的 1
遗体 1
和女儿 1
胚胎 1
适得其反 1
但其中 1
总成绩 1
却步 1
弑 1
部分地区 1
免疫 1
外部环境 1
洛伊 1
美国与 1
收银 1
更广 1
最大限度的 1
很少见 1
可以像 1
农奴 1
疲力尽 1
成为现实 1
▁很明显 1
▁但由于 1
它是在 1
是相互 1
开发与 1
性或 1
装有 1
峨眉 1
变暖 1
所有这些 1
的英国 1
旅游城市 1
遮光 1
椎 1
早日 1
优质 1
海洋生物 1
生活习惯 1
较上 1
的一致 1
单元 1
相应的 1
非常明显 1
他们必须 1
的舌头 1
之前完成 1
补水 1
▁当然可以 1
貉 1
溟 1
检测仪 1
是不可能 1
继母 1
万只 1
愤世嫉俗 1
去工作 1
了一间 1
将再次 1
涪 1
在危机 1
锑 1
抢劫 1
需要多长时间 1
▁它不仅 1
花生油 1
润滑 1
今天在 1
亮相 1
会在这里 1
中华人民共和国 1
收入和 1
▁而对于 1
圣地亚哥 1
做爱 1
纨 1
包装盒 1
的长度 1
铡 1
580 1
危及 1
被对手 1
▁从某种意义 1
意思是 1
皇家 1
信息中心 1
年美国 1
湖南省 1
▁拍 1
▁海南 1
聚氰胺 1
林业 1
的一小部分 1
不满意 1
断断 1
羞耻 1
火腿 1
▁长安 1
▁仅仅 1
援手 1
可以产生 1
▁几年后 1
缓解了 1
还向 1
入住 1
老板的 1
较少 1
的政策 1
生活和工作 1
粪便 1
陷入困境 1
那里去 1
隔离 1
外交 1
涂料 1
是本 1
愦 1
此而已 1
的统治 1
有四个 1
谥 1
栖息地 1
便于 1
▁蒙 1
身体不适 1
安顿 1
▁增 1
经商 1
出征 1
成文 1
使自己的 1
世界纪录 1
本可以 1
02 1
▁总结了 1
刊登 1
日复 1
文化程度 1
尼采 1
碳 1
或没有 1
PP 1
的美女 1
异地 1
▁格 1
你们都 1
并不那么 1
腰带 1
复古 1
频道 1
国务院 1
▁蛇 1
硝 1
家庭和 1
高素质 1
偶见 1
亚历 1
慎重 1
。) 1
重复使用 1
还专门 1
这似乎 1
度假 1
上到下 1
联想到 1
网络游戏 1
▁无法 1
扬言 1
勇士 1
▁克 1
不受影响 1
谈过 1
独居 1
兹 1
磁带 1
多小时 1
▁乍 1
且不 1
▁邓 1
老妇人 1
队伍中 1
私自 1
妲 1
记录了 1
蝴 1
最有效的 1
在线 1
闲暇 1
糯米 1
低估 1
阐述 1
的标准 1
的邀请 1
刘晓 1
外向 1
诤 1
跌落 1
要他 1
履历 1
本营 1
十分复杂 1
满足感 1
▁5. 1
固有 1
打个电话 1
▁安迪 1
过程的 1
些时候 1
和陈 1
脉搏 1
材料的 1
▁活动 1
的工人 1
截断 1
闵 1
长线 1
其他人的 1
取消了 1
▁李明 1
34. 1
▁在开始 1
现存 1
是去年 1
找到他 1
宁夏 1
到西 1
19, 1
丹麦 1
糟糕的 1
蹂躏 1
虹口 1
而与 1
格雷 1
为新 1
邯郸 1
泳衣 1
天期 1
完成后 1
ag 1
些东西 1
方式来 1
如图 1
美国政府 1
球迷们 1
预赛 1
不遗余力 1
淄 1
却并不 1
我们不需要 1
男友 1
奎 1
▁不难 1
参战 1
告诉他们 1
娱乐活动 1
iPad 1
战斗力 1
献策 1
艺术家 1
而引起 1
多重 1
紧密的 1
沙拉 1
▁鞋 1
溺水 1
袂 1
抢走 1
无故 1
ly 1
枸 1
费尽 1
篝火 1
少一些 1
不在少数 1
▁当我的 1
他都会 1
84 1
成瘾 1
三口 1
àà 1
脚部 1
期望的 1
进行调查 1
医疗费用 1
很年轻 1
分别在 1
丹阳 1
新闻发言人 1
胰 1
环卫 1
1500 1
偶然的 1
方向盘 1
河南省 1
转为 1
会获得 1
盆栽 1
豢 1
洗个 1
簟 1
不无 1
的材料 1
干扰 1
搬运 1
单打 1
▁估计 1
紧致 1
哈姆雷特 1
咸水 1
这个决定 1
客人的 1
敬请 1
▁护士 1
国防部 1
尼苏达 1
愈来 1
可将 1
事业的 1
赚到 1
▁报 1
的特色 1
晶石 1
师范大学 1
习近平 1
论述 1
伊拉克 1
照片中 1
一起度过 1
带队 1
年开始 1
9, 1
荏 1
麦当劳 1
升学 1
都将被 1
不能确定 1
北部湾 1
并可 1
万至 1
还有其他 1
已经将 1
者对 1
排名第一 1
清点 1
命中 1
添加剂 1
地亚哥 1
▁房子 1
吸血 1
砰地 1
到南 1
占到 1
颈部 1
半径 1
公共场所 1
机构 1
梅西 1
所的 1
违反了 1
提出的 1
红绿灯 1
之用 1
▁科 1
他几乎 1
近距离 1
很快将 1
骗取 1
您要 1
本节 1
不甚 1
浦东 1
必须去 1
托付 1
他家 1
存储在 1
是其中 1
的罪行 1
体制 1
分发 1
表明了 1
轲 1
棺 1
入路 1
墉 1
补丁 1
三家 1
者中 1
▁袁 1
这使得 1
德林 1
较重的 1
板和 1
并接受 1
全面的 1
在工业 1
麻布 1
鹦 1
的时机 1
中餐 1
▁直接 1
魔咒 1
演戏 1
职工 1
中国已经 1
死者 1
令人讨厌 1
得厉害 1
军事化 1
和许多 1
红山 1
它既 1
今晨 1
他们开始 1
名称的 1
反光 1
才可 1
▁= 1
▁超 1
低于 1
都令人 1
▁这是他 1
被逼 1
原告 1
演讲中 1
反问 1
的生产 1
生活费 1
而这种 1
吴家 1
▁昆明 1
擦肩 1
立交桥 1
% 1
为高 1
就是他的 1
可由 1
树种 1
努力来 1
门人 1
搅动 1
萨拉 1
两年的 1
▁他有 1
不把 1
表达自己的 1
再生的 1
扮演着 1
、9 1
通畅 1
迫使 1
双峰 1
政权 1
足够大 1
▁您好 1
猗 1
雷击 1
蜚 1
另一次 1
两小时 1
嚏 1
的危害 1
油门 1
一章 1
存量 1
俸 1
今年夏天 1
的重要组成部分 1
每间 1
取消 1
与公司 1
禁令 1
▁当今 1
日上午 1
阵容 1
工作的人 1
莱特 1
▁通过与 1
喷水 1
八成 1
公约 1
执法 1
理发师 1
臼 1
遭遇了 1
推迟 1
阿里 1
的平均 1
但是对于 1
这样的情况 1
▁小麦 1
总比分 1
▁凭 1
枳 1
蝎子 1
倡 1
扩展到 1
不超过 1
位列 1
现在应该 1
一个月前 1
拍卖会 1
四次 1
旗手 1
公证 1
不育 1
的好消息 1
转移到 1
创新的 1
新发 1
溜冰鞋 1
保护的 1
制度的 1
寻求新的 1
相助 1
拖曳 1
▁级 1
海参 1
屈指可数 1
变形 1
要约 1
仅用 1
度为 1
他回答 1
显像 1
殆 1
沉重打击 1
将至 1
米兰 1
撤离 1
表和 1
执照 1
▁三大 1
但对 1
移出 1
大部 1
得到认可 1
三级 1
联谊 1
以及对 1
沙河 1
海外的 1
值班 1
讯 1
手头 1
▁大体 1
埃克 1
之前先 1
卡住 1
▁注 1
支票 1
国会 1
座椅 1
王国的 1
琮 1
并能 1
中锋 1
科学发展 1
留学 1
确认 1
年我国 1
曲调 1
混在一起 1
变体 1
休闲娱乐 1
可借 1
有条件 1
环境保护 1
情报 1
基督 1
启用 1
薄壁 1
入伍 1
都应 1
尽早 1
长度的 1
布莱尔 1
补贴 1
成本 1
主办方 1
可能会有 1
调解 1
塑胶 1
受害 1
似乎对 1
会受到 1
高开 1
若干 1
Q 1
心病 1
黑手 1
瘀 1
▁复 1
73 1
郊外的 1
喷射 1
网页 1
科长 1
后院 1
出台 1
有一家 1
硫 1
越来越好 1
克林顿 1
ini 1
4) 1
我不认为 1
蟾 1
乘务员 1
他们不能 1
填报 1
▁E 1
弟兄 1
▁例 1
都来自 1
请他 1
生姜 1
的最低 1
公正的 1
约一 1
▁出于 1
资源丰富 1
后以 1
▁现在他 1
三峡 1
背光 1
遗憾的是 1
可能还会 1
就无法 1
太晚 1
▁敬请 1
的原因之一 1
肝癌 1
颁布 1
中西 1
无奈之下 1
合肥 1
▁当一个 1
Pr 1
采用了 1
根治 1
彩票 1
缈 1
▁得知 1
站点 1
为目的 1
金星 1
在全世界 1
▁同时也 1
壳的 1
的好方法 1
后门 1
700 1
和学生 1
零件 1
位于中国 1
▁很难 1
应用的 1
服用 1
环形 1
一个女孩 1
数以千 1
抑郁 1
界和 1
杀虫 1
扈 1
见到的 1
抓好 1
砂轮 1
纶 1
推卸 1
投入的 1
全新 1
停滞不前 1
家附近 1
失灵 1
德尔 1
69 1
▁劳 1
袈 1
您的身体 1
东站 1
长假 1
证的 1
▁新年 1
900 1
绯闻 1
息息相关 1
肺部 1
171 1
蹴 1
之间的差距 1
编号 1
一个世纪 1
控制好 1
周口 1
睢 1
▁总体来说 1
民政 1
的大多数 1
他经常 1
作呕 1
谍 1
旗下 1
强强 1
曷 1
和罗 1
W 1
开出的 1
引进了 1
哮 1
车身 1
水牛 1
党政 1
政策和 1
里程碑 1
埃尔 1
婴儿的 1
假冒 1
这个时代 1
篮板 1
一届 1
您应该 1
缝了 1
核心的 1
的飞行 1
帮扶 1
的北京 1
海港 1
斜视 1
2.1 1
防洪 1
▁面对如此 1
是来自 1
习俗 1
▁几十年来 1
然后才 1
▁铁路 1
并没有得到 1
各地的 1
媒体采访 1
美学 1
排空 1
▁值得 1
取决 1
滤 1
缪 1
罗伯 1
天河 1
的言论 1
开展的 1
时间进行 1
莅临 1
六次 1
公文包 1
▁间 1
作用是 1
的服装 1
▁类似的 1
动感 1
感染的 1
袜子 1
弁 1
一并 1
预告 1
随时间 1
开往 1
高官 1
漏洞 1
末尾 1
革新 1
擢 1
运动和 1
选取 1
六大 1
▁费 1
嶙峋 1
故意伤害 1
▁这部 1
▁他的父亲 1
的遗体 1
▁惟 1
全套 1
可能是一个 1
专科学校 1
的全球 1
填上 1
研制 1
在当时 1
强悍 1
幻影 1
市区 1
地利 1
▁奥运会 1
有各种 1
之都 1
大脑的 1
有很好的 1
特种 1
他成为 1
护肤 1
玩转 1
奥林 1
木星 1
的一点是 1
欷 1
的重要原因 1
剖腹 1
审查 1
行道 1
襦 1
悻 1
电池 1
村子里 1
特制 1
双鞋 1
思考一下 1
你认为 1
他向 1
相机的 1
电费 1
▁特殊 1
胃肠 1
吉姆 1
令人信服 1
谦卑 1
隼 1
杰克 1
众所周知 1
事发 1
谒 1
采访时 1
它们被 1
战友 1
的地下 1
导体 1
点符号 1
所面临的 1
很多钱 1
率是 1
沙袋 1
了一批 1
北部 1
▁但是它 1
以前在 1
奥利 1
失踪 1
中的所有 1
的理论 1
普降 1
胫 1
透射 1
现代化的 1
克拉克 1
▁解说 1
豚 1
推出了 1
银行的 1
找出 1
结构的 1
海域 1
▁房间 1
别于 1
格利 1
▁街道 1
插座 1
真的很想 1
▁注意 1
与这些 1
起始 1
对所有 1
▁倪 1
小便 1
过程是 1
并作 1
的全部 1
真人 1
罗斯 1
跃进 1
潮汐 1
政客 1
时应该 1
介绍说 1
职员 1
屈从于 1
事实是 1
车厢内 1
或一个 1
同伙 1
这样做的 1
四种 1
作息 1
半岛 1
尚存 1
KE 1
上的一个 1
两类 1
枚金牌 1
此次 1
荻 1
等多 1
(8 1
彻斯特 1
实践证明 1
青睐 1
年轻人的 1
峪 1
的热潮 1
以备 1
还与 1
停机 1
西县 1
而易 1
在夏季 1
阿凡 1
也因 1
篁篁 1
马拉 1
盂 1
蒙特 1
毒性 1
等多种 1
一式 1
较快 1
小部分 1
到美国 1
▁记住 1
低胸 1
主持了 1
推车 1
制品 1
飞速发展 1
共生 1
陈列 1
不具 1
希望通过 1
破坏的 1
颅 1
一记 1
这些孩子 1
气动 1
都是一样的 1
在首都 1
▁钢 1
发挥着 1
▁公 1
红星 1
三代 1
特别重视 1
再次回到 1
金华 1
进行交流 1
im 1
顶住 1
:6 1
增进 1
楼盘 1
信件 1
独钟 1
依法治 1
的奥运 1
我国的 1
▁辽宁 1
萨 1
联网 1
很多不同的 1
公里的 1
活着的 1
双赢 1
技术问题 1
交响 1
有人要 1
92 1
▁500 1
128 1
盈利 1
摊主 1
车库 1
铛 1
还以 1
迁移 1
油田 1
打捞 1
一空 1
废水 1
的伊 1
▁养 1
的现象 1
灰尘和 1
▁sh 1
忠诚的 1
青藏高原 1
分数线 1
撞倒 1
湖北 1
打下了 1
他们的名字 1
多样的 1
疾呼 1
门锁 1
队服 1
对他们说 1
之争 1
游艇 1
慢性 1
将向 1
你的朋友 1
大惊小怪 1
▁她喜欢 1
粉碎 1
避暑 1
子怡 1
ol 1
救护车 1
受人尊敬 1
一直是一个 1
▁家人 1
粉尘 1
首席执行官 1
联合起来 1
外墙 1
图上 1
一个晚上 1
和心理 1
发电机 1
直接关系到 1
化和 1
原因的 1
更加美好的 1
过的痕迹 1
英国文学 1
着火了 1
▁司机 1
攻入 1
很不舒服 1
濯 1
综合素质 1
不够好 1
蒙受 1
错觉 1
学员 1
耕种 1
这样想 1
▁纳 1
德华 1
节水 1
八卦 1
的限制 1
信息的 1
戌 1
借阅 1
理论和 1
并于 1
评分 1
证据证明 1
坏死 1
叮咬 1
自治县 1
▁尹 1
参见 1
中风 1
贻 1
年第 1
ton 1
较好的 1
影响的 1
夫妻俩 1
得出的 1
体格 1
食欲 1
人大代表 1
的两倍 1
的时期 1
送货 1
水生 1
在冬季 1
陛下 1
器中 1
发誓要 1
ki 1
多处 1
警卫 1
情欲 1
所致 1
▁生态 1
1991 1
举报 1
岿 1
杀死了 1
定下 1
机和 1
病患 1
71 1
为题 1
剪贴 1
尼娜 1
随着时间的 1
饮食 1
阻挠 1
一男子 1
济于事 1
经验丰富的 1
通气 1
空间上 1
学士 1
的领域 1
疑似 1
克洛 1
几乎无法 1
一直有 1
相吻合 1
Pa 1
多分钟 1
▁我们不会 1
▁类似 1
无偿 1
浸出 1
可供 1
∴∴ 1
冰淇 1
播放了 1
的首要 1
凇 1
谆谆 1
▁对我们 1
面积的 1
某人的 1
表达了 1
负荷 1
的领导 1
璐 1
将这个 1
龙潭 1
柏树 1
经纪 1
党委 1
贷 1
冰上 1
年代初 1
平台上 1
淘宝 1
二手 1
中可以 1
环境下 1
瘢 1
忽悠 1
离地面 1
ling 1
枕头 1
可以增强 1
▁多种 1
▁杨利伟 1
刊物 1
我们可能 1
下注 1
租房 1
野餐 1
打了电话 1
咖啡厅 1
通风 1
你可能会 1
就医 1
脚踝 1
每分钟 1
帛 1
ase 1
归根结底 1
的必然 1
▁柴 1
领导人的 1
民谣 1
▁在您 1
的一贯 1
与马 1
条件和 1
绝对是 1
相片 1
的公司 1
引力 1
西斯 1
的书籍 1
罗伊 1
对美 1
共产主义 1
菲尔普斯 1
怀疑的 1
照片的 1
还为时 1
集镇 1
育儿 1
而其中 1
△△ 1
▁期间 1
被动 1
所指 1
礼拜 1
在大多数 1
稍显 1
新闻报道 1
接触到 1
回国 1
燃油 1
团长 1
辘辘 1
殴 1
载入 1
自此 1
车辆的 1
比亚 1
自驾游 1
▁浅 1
皿 1
口径 1
▁这就意味着 1
组中 1
头等 1
无异于 1
把它放 1
210 1
亿万富翁 1
▁当前 1
我们的工作 1
在一定 1
这已经是 1
步进 1
1966 1
的一代 1
一帮 1
▁游客 1
季节的 1
新兵 1
两盘 1
培养学生的 1
▁V 1
!!! 1
胡说 1
仍要 1
食用油 1
后跟 1
的现状 1
意义上的 1
显然没有 1
无限期 1
长的时间 1
簏 1
郓 1
▁阮 1
制度和 1
规则的 1
▁中国人 1
感到羞耻 1
被罚 1
散热 1
几天内 1
和女人 1
▁赞 1
头号 1
沤 1
这份工作 1
此类 1
▁范 1
俘 1
婕 1
刷新了 1
灸 1
至上 1
▁尽管这些 1
的一处 1
爱河 1
的特别 1
时已 1
盗贼 1
最难 1
这些问题 1
解决好 1
玳 1
蜇 1
无线电 1
驭 1
双胞胎 1
减免 1
洗净 1
晋级 1
突然之间 1
▁您应该 1
合法 1
惠及 1
日起 1
无与伦 1
预知 1
屈曲 1
希尔 1
班次 1
那之后 1
的礼物 1
微型 1
长队 1
▁彼得 1
告一段落 1
耳目一新 1
撒了 1
泳池 1
就可以在 1
头枕 1
故事的 1
(1)( 1
鸠 1
▁事 1
设计的 1
闭塞 1
起色 1
红薯 1
曾有 1
彗星 1
急切 1
速度与 1
监控 1
连同 1
是最佳 1
因此被 1
写有 1
批发 1
海平面 1
剩余的 1
的连接 1
最著名 1
婊 1
方说 1
除此之外 1
的主要 1
平方米的 1
颚 1
体面 1
▁多年来 1
氤 1
您正在 1
热能 1
它的人 1
脸谱 1
▁同样的 1
io 1
能力强 1
嗫嚅 1
烦人的 1
感官 1
兼任 1
▁究 1
▁而当 1
这件 1
了很多钱 1
湖南 1
几名 1
裂纹 1
生活在一个 1
毒药 1
▁约 1
三部曲 1
偏头痛 1
极高的 1
酢 1
虫的 1
▁他们把 1
个别 1
▁激光 1
受教育 1
义卖 1
收取 1
系列 1
▁几年前 1
→ 1
副会长 1
兼具 1
器官的 1
毫无用处 1
负面的 1
严峻的 1
不详 1
和服务 1
李国 1
,9 1
而无法 1
品种的 1
保存在 1
叽叽叽 1
年北京奥运会 1
原因是 1
早期的 1
解释一下 1
涉及 1
大米 1
第十八 1
要再 1
会与 1
的吸收 1
的诊断 1
在建 1
达成了 1
有所提升 1
和支持 1
越龙 1
的计算 1
▁银杏 1
样式 1
限度的 1
水果和蔬菜 1
舛 1
分析和 1
青岛 1
减半 1
就都 1
直接将 1
制作了 1
垂死 1
次于 1
扑灭 1
和全 1
前列 1
抛出 1
高效 1
推行 1
一种方式 1
工作和 1
过去时 1
辛勤工作 1
他曾经 1
到过 1
▁道路 1
▁从一开始 1
捣毁 1
来解释 1
来增加 1
防范 1
▁每天早上 1
诱发 1
深远的 1
纸箱 1
联想 1
劳动者的 1
插图 1
后排 1
系统的 1
和身体 1
生产的 1
降低了 1
先生们 1
有人认为 1
持有 1
棋盘 1
过剩 1
▁找 1
未来将 1
址 1
的流动 1
▁我们使用 1
的新兴 1
只有两 1
犍 1
是比较 1
压下 1
▁得到 1
点火 1
为辅 1
开发的 1
配套 1
食物和 1
的袭击 1
约会 1
祺 1
谙 1
在设计 1
▁从这个意义 1
▁丹 1
市级 1
拆开 1
加利 1
广岛 1
的矛盾 1
渗入 1
他们可以 1
滴定 1
大问题 1
▁作为一名 1
突飞 1
猛烈地 1
新任 1
的市场 1
▁他们说 1
范围之内 1
枥 1
葛根 1
迪斯科 1
等各种 1
制造了 1
推理 1
之为 1
重温 1
减压 1
在家庭 1
标语 1
则从 1
养殖 1
文书 1
好工作 1
中的任何 1
到今天 1
突击 1
▁涂 1
固定在 1
教学效果 1
没有自己的 1
处死 1
霉菌 1
航空航天 1
表示感谢 1
归纳 1
饴 1
▁相比之下 1
烯 1
建造了 1
良多 1
目标的 1
▁韦 1
大于 1
骨骼 1
加拿大 1
中朝 1
之间的竞争 1
科夫 1
也比较 1
▁广 1
的审美 1
不菲 1
的建议 1
绿化带 1
济宁 1
音乐人 1
威士忌 1
十分困难 1
大大提高了 1
▁历 1
抓捕 1
锅中 1
人行 1
发送 1
情绪激动 1
推荐的 1
遥感 1
的公告 1
首相 1
▁当我在 1
浸入 1
保养 1
那本书 1
切尔 1
复出 1
很难找到 1
和电视 1
户外 1
比较高 1
莉亚 1
两市 1
囤 1
幻灯片 1
碱性 1
▁当下 1
低碳 1
钛合金 1
试探 1
,2005 1
小梁 1
表达方式 1
啮 1
才能为 1
判定 1
的普通 1
某在 1
▁一个小 1
时要 1
打开的 1
细胞瘤 1
中国和 1
赃 1
咖啡馆 1
知识经济 1
次要 1
五人 1
从何 1
▁这种做法 1
创办的 1
迤 1
的和平 1
通话 1
不仅会 1
陈词 1
中小学 1
副校长 1
观察到 1
47 1
极有可能 1
凯歌 1
安全地 1
的朋友们 1
覃 1
嗒嗒嗒嗒嗒嗒嗒 1
成员们 1
采访时说 1
所需要 1
需求量 1
履行 1
谈了 1
厦门大学 1
的注意 1
▁丈夫 1
尼奥 1
女士在 1
贵州 1
嗑 1
秘诀 1
时左右 1
市场竞争 1
座右铭 1
学说 1
是能 1
缝合 1
江口 1
节能 1
手和 1
必要的 1
戒烟 1
ib 1
补救 1
屯 1
▁避免 1
不仅需要 1
增加到 1
拥护 1
一直保持 1
用餐 1
工作是 1
一概 1
来解决 1
▁恩 1
与中国 1
的日本 1
停留了 1
没有发生 1
132 1
平说 1
和国际 1
低估了 1
可以得到 1
鸿沟 1
很普遍 1
像素 1
可能就 1
蒸汽 1
被烧毁 1
园长 1
热度 1
作为中国 1
渔船 1
卡的 1
3) 1
颁奖典礼 1
之所在 1
▁加强 1
▁尽管他 1
中国正在 1
洙 1
进一步提高 1
山区的 1
编制 1
我很高兴 1
打分 1
菲利 1
发霉 1
▁这台 1
他来 1
卮 1
资助 1
增多 1
瑞拉 1
民心 1
艾滋 1
得更多 1
多吃 1
将拥有 1
▁异 1
表中 1
▁生活在 1
很害怕 1
您不会 1
烃 1
如在 1
刊 1
相结合的 1
时间长 1
柒 1
鸦片 1
国有 1
▁在当今 1
为基 1
半场 1
大林 1
胶囊 1
守门 1
提上 1
公共安全 1
医护 1
谪 1
日就 1
中部 1
他们想 1
不加 1
远没有 1
统统 1
着他们的 1
的条件下 1
最大化 1
梅尔 1
询问了 1
他决定 1
消息的 1
和内 1
诽 1
侣 1
成倍 1
和实现 1
接任 1
汽车上 1
而变化 1
车被 1
碣 1
竺 1
管理制度 1
俄国 1
品的 1
弹性 1
游戏规则 1
女子的 1
严密 1
▁尽管我们 1
▁有没有 1
消防 1
的肌肉 1
▁w 1
荧屏 1
苏拉 1
碳酸 1
警方 1
的话说 1
卷的 1
铚 1
黑人 1
追溯到 1
以下的 1
固态 1
▁你能告诉我 1
或其他 1
烫伤 1
那他 1
蹊 1
更希望 1
▁商 1
潜伏 1
其原因 1
一臂 1
上方的 1
威廉 1
▁h 1
等国 1
瘾 1
并获得 1
510 1
货物的 1
更衣 1
匐 1
这个行业 1
还珠格格 1
都是以 1
▁联 1
和后 1
帝国的 1
出问题 1
十条 1
将由 1
和知识 1
去往 1
不断提升 1
途经 1
烈士陵园 1
在内 1
器和 1
去看电影 1
桎 1
沙龙 1
情感和 1
▁她会 1
溶解 1
金条 1
陀螺 1
和信息 1
杰出的 1
表格 1
服务于 1
方法和 1
上周 1
对在 1
推出的 1
押 1
的一对 1
记下 1
这类 1
▁他想 1
学过 1
恶习 1
达赖 1
彼得 1
▁中心 1
年将 1
要求的 1
器具 1
乒 1
新方法 1
了一台 1
雷达 1
法庭上 1
系统会自动 1
音调 1
密闭 1
莉娅 1
工作在 1
减慢 1
横溢 1
她必须 1
磁性 1
博弈 1
收紧 1
狞狰 1
▁碳 1
这个问题上 1
咄 1
出名的 1
说他的 1
香港特别行政区 1
名单上 1
经济效益 1
互不 1
▁然后他 1
特质 1
这套 1
肉眼 1
▁我要去 1
遗书 1
外侧 1
残暴 1
我不太 1
检阅 1
并将其 1
隐秘 1
和牛 1
表皮 1
▁祥 1
毫不怀疑 1
拍卖 1
报考 1
伊丽莎白 1
病人的 1
就送 1
患者 1
尊重和 1
事关 1
半决赛 1
仿古 1
惕 1
这是为了 1
赞成 1
上流 1
并呼吁 1
备忘录 1
为母 1
方程的 1
自然资源 1
德拉 1
智障 1
体裁 1
▁英语 1
细纹 1
相结合 1
但从未 1
.。 1
开采 1
显着 1
日照 1
女士们 1
的破坏 1
请先 1
失事 1
不乏 1
比克 1
店面 1
给孩子们 1
和食品 1
垩 1
分析与 1
拿破 1
可能被 1
一个月的 1
▁不再 1
屠杀 1
就曾 1
ive 1
▁岩石 1
ta 1
▁他从 1
还要看 1
校方 1
通用 1
昆山 1
全民 1
华盛顿 1
书和 1
他们很 1
肓 1
研究生 1
尽最大 1
▁昨日 1
攻略 1
进城 1
开始与 1
缝纫 1
叱咄 1
任重 1
不迭 1
测试中 1
紧急情况 1
没人在 1
通过各种 1
海尔 1
自控 1
他说道 1
的方式来 1
书面 1
年起 1
打下 1
隔膜 1
但是如果 1
合肥市 1
提出新的 1
正从 1
浮力 1
达西 1
帮助的 1
一批 1
衔接 1
往返 1
郊区的 1
但是我认为 1
的结构 1
间接 1
阐释 1
▁区 1
▁修 1
右铭 1
公安 1
公告 1
分头 1
他可能会 1
装甲 1
考虑过 1
ello 1
但已经 1
非常熟悉 1
炔 1
当选为 1
的性质 1
元素的 1
▁俄 1
把椅子 1
都存在 1
能力是 1
不要说 1
过滤器 1
确立 1
话要说 1
餐馆 1
两张 1
打进 1
▁尼 1
澍 1
小刘 1
展示了 1
绕开 1
对日本 1
但因为 1
角度来看 1
:9 1
乒乓 1
必不可少 1
瓤瓤 1
令人毛骨悚 1
影城 1
▁也正 1
假发 1
室温 1
搽 1
上映 1
相当的 1
者可以 1
▁前段时间 1
电流 1
更快地 1
有两种 1
的另一个 1
第三轮 1
125 1
不感兴趣 1
默哀 1
吃午餐 1
韧带 1
贴心 1
邓肯 1
泄露 1
联系上 1
多有 1
信箱 1
暴雨中 1
有希望 1
任何时间 1
四十八 1
▁天津市 1
尽量不要 1
较长 1
年的发展 1
指引下 1
致力于 1
混血儿 1
适用于 1
洗掉 1
▁难怪 1
书屋 1
坏主意 1
亲热 1
芫 1
文化与 1
是世界上 1
ou 1
先天性 1
砀砀 1
侈 1
会发生 1
▁林肯 1
自力更 1
函数 1
专科 1
的明星 1
很好地 1
特有 1
前两个 1
簧 1
仍有 1
包装纸 1
▁当代 1
很晚 1
降温 1
▁并不是 1
编码 1
▁玻璃 1
在电影 1
年后的 1
的日期 1
希腊的 1
突击队 1
拉链 1
雅阁 1
▁中国的 1
没有必要 1
文物保护 1
要大 1
阕 1
环保局 1
其余的 1
鸩 1
被认为 1
ld 1
应该以 1
雪豹 1
▁在某些 1
馐 1
初期 1
到来的 1
血性 1
好话 1
外在 1
足够了 1
诊所 1
听到的 1
航道 1
东京 1
能静 1
溥 1
只有当 1
促进了 1
首要 1
南京市 1
倾心 1
相近 1
意外地 1
▁徒 1
脏话 1
▁中华人民共和国 1
法西斯 1
诈骗 1
特大 1
克的 1
馥 1
海洋和 1
不只 1
随时随地 1
常在 1
常识 1
患有 1
另一种方式 1
众所周知的 1
的微博 1
轻描淡 1
性好 1
为首 1
大家分享 1
写真 1
▁法 1
这需要 1
岗村 1
樊 1
就越多 1
应得的 1
可以提高 1
女主角 1
感到难过 1
▁旧 1
不久的 1
临沂 1
高阶 1
但以 1
贰 1
的重要内容 1
转换为 1
东海 1
划算 1
拥护者 1
不会让 1
▁必须 1
尚未完全 1
才干 1
硬度 1
可能有点 1
报警 1
山地 1
俟 1
:17 1
与前 1
本质的 1
或两个 1
预先 1
错误的 1
水解 1
现代的 1
服药 1
犁 1
极好 1
董事 1
▁我们正在 1
博士学位 1
在任何地方 1
大关 1
孟加拉 1
根部 1
唐代 1
薪水 1
首创 1
术中 1
零散 1
乘飞机 1
选用 1
七日 1
心理学 1
释放的 1
金花 1
赊 1
而烦恼 1
测验 1
使学生 1
可观的 1
▁炎炎夏日 1
大业 1
乌鲁木齐 1
对高 1
打网球 1
老汉 1
某处 1
羌 1
食客 1
▁永远 1
不太好 1
商铺 1
在眉 1
两家 1
线路 1
土地的 1
丈夫的 1
漏斗 1
下届 1
季度的 1
菁 1
程度的 1
专辑 1
都面临着 1
鞅 1
这样的事情 1
表达的 1
的一个问题 1
区内 1
海滨 1
就成为 1
的意识 1
建造的 1
是最大的 1
啾 1
在南 1
全书 1
的命令 1
机动 1
超短 1
▁自动 1
做出了贡献 1
山车 1
半年的 1
il 1
木瓜 1
非议 1
正本 1
// 1
系列的 1
广为流传 1
的生活水平 1
为数不多的 1
不同的方式 1
岫 1
拓 1
战舰 1
给与 1
最晚 1
世博会 1
的强烈 1
▁课程 1
交涉 1
在不同的 1
▁死亡 1
做出贡献 1
将这一 1
第二届 1
▁服务 1
起诉 1
驷 1
▁A 1
仑 1
进入状态 1
背书 1
89 1
▁藤 1
拐卖 1
的翻译 1
▁安东 1
▁当晚 1
发出声音 1
:40 1
能提供 1
85 1
蹋蹋 1
解除 1
剔除 1
网友们 1
跑车 1
演变 1
工作室 1
破门 1
87 1
并不大 1
▁地图 1
M 1
祭坛 1
最大限度地 1
潜力的 1
冠军奖杯 1
殒 1
42 1
没啥 1
感恩节 1
铰 1
▁在此之前 1
势力的 1
石林 1
迈出的 1
南南 1
王浩 1
好时机 1
7, 1
墙体 1
离合器 1
克说 1
而得到 1
瞑 1
辩护 1
比去年 1
成功和 1
将迎来 1
腭 1
熄 1
名义 1
充满热情 1
打起了 1
爱他的 1
▁加上 1
关闭 1
▁S 1
反转 1
首长 1
和行动 1
益处 1
他曾 1
无懈可击 1
顶级的 1
摞 1
蛟龙 1
恹恹 1
贽 1
之间的区别 1
幸运的是 1
女娲 1
与各 1
接受的 1
是按照 1
堡的 1
拍出 1
反馈 1
举一动 1
这个过程 1
,60 1
核定 1
证实的 1
各路 1
歧途 1
个星期 1
装在 1
天津市 1
推断 1
:22 1
三九 1
婚宴 1
一枝独秀 1
石墙 1
铜牌 1
▁北京市 1
连任 1
▁电子 1
不明的 1
最少 1
口头 1
的最大的 1
格言 1
最终成为 1
讳 1
雌 1
坐姿 1
退休 1
▁生物 1
肉体的 1
秩序的 1
TM 1
怪的 1
开始向 1
为基础 1
奶瓶 1
以轻心 1
都觉得 1
金属的 1
展出的 1
风向 1
前路 1
也是可以 1
负于 1
▁历经 1
更加强 1
▁不幸的是 1
记者采访 1
都会被 1
时速 1
相容 1
周期 1
湄 1
女友 1
▁这其中 1
远足 1
战斗的 1
拉开帷幕 1
上所述 1
为单位 1
多国 1
击中了 1
阵营 1
这是真的 1
我在哪里 1
老年人的 1
一斤 1
的能源 1
▁他和 1
涉及的 1
较弱 1
三十年 1
宣判 1
叶攀 1
通信 1
激怒 1
机构的 1
等原因 1
铺平 1
被击 1
腹腔 1
意外的 1
高温天气 1
拨出 1
▁com 1
和其 1
充血 1
匪夷所思 1
分布的 1
小看 1
这取决于 1
来治疗 1
该怎么做 1
▁展望 1
既能 1
防晒霜 1
就餐 1
鬼魂 1
奖学金 1
修斯 1
来源 1
搪 1
学界 1
的软件 1
▁读者 1
而受到 1
出租 1
兑现 1
木雕 1
囫囵 1
于衷 1
昙 1
曼德拉 1
萨姆 1
▁新车 1
暂停了 1
前期 1
他的朋友 1
永无止境 1
了来自 1
她与 1
心室 1
有生 1
▁他表示 1
有利 1
▁摄 1
务实 1
▁认为 1
褓 1
演艺 1
尼尔 1
隐喻 1
北美 1
逆转 1
摄像机 1
大学和 1
丰县 1
▁在经历了 1
▁成千上万 1
墙壁上 1
锅炉 1
试图将 1
了有关 1
315 1
这就是为什么 1
韩国 1
铁人三项 1
▁骨 1
变量 1
她可以 1
贫困人口 1
▁惠 1
的观点 1
uli 1
简易 1
牛排 1
请将 1
▁存在 1
游击队 1
重庆市 1
进行一次 1
46 1
厄 1
我感到非常 1
的手段 1
夭 1
▁关注 1
从轻 1
贩卖 1
计划中 1
附带 1
近在咫尺 1
桂冠 1
蹼 1
从这个 1
▁针对 1
知名品牌 1
要成为 1
额外 1
案件的 1
频率 1
手感 1
更有效 1
的高速 1
值得信赖 1
孕妇 1
约在 1
分钱 1
一款 1
不明显 1
350 1
喝醉 1
瘴 1
食用 1
没有明显 1
▁老太太 1
鼻腔 1
其一 1
不决 1
霸权 1
哏哏 1
两地 1
326 1
笺 1
终结 1
代为 1
鳍 1
到今年 1
的铜 1
刑罚 1
普通家庭 1
即将于 1
▁多数 1
后部 1
的主要目标 1
这一过程 1
几个月里 1
拍摄 1
大便 1
科尔 1
补充 1
羹 1
可行 1
▁他觉得 1
喜乐 1
黄疸 1
豸 1
主权和 1
领域中 1
批准 1
在各种 1
史密斯 1
ug 1
9. 1
不利于 1
来对 1
雨后春笋 1
裁缝 1
的热烈 1
某一个 1
日军 1
金陵 1
程度上 1
归结为 1
还从 1
技术等 1
个城市 1
▁几天 1
确实在 1
九个 1
十岁的 1
蚣 1
不予 1
您现在 1
煮沸 1
了一倍 1
又可 1
这确实 1
是法国 1
音乐学院 1
在六 1
了新 1
在网上 1
桑拿 1
错综 1
打通 1
能够以 1
铎 1
得到了很好的 1
更让人 1
噻 1
美好的一天 1
岩浆 1
充气 1
以及各 1
re 1
视窗 1
雏菊 1
和与 1
让不少 1
中线 1
决策 1
三位一体 1
规划的 1
补品 1
幌子 1
在开始 1
^ 1
真诚地 1
比为 1
是否真的 1
中草药 1
他们所 1
出人意料 1
我的书 1
▁士兵们 1
贫民 1
的垃圾 1
▁怕 1
学校和 1
戈尔 1
表现不错 1
130 1
万有 1
发挥作用 1
习惯于 1
那个女人 1
粲 1
观察者 1
在不同 1
▁这是一部 1
祉 1
共建 1
更了解 1
▁公平 1
简称 1
▁没人 1
全意 1
过程中的 1
▁滚 1
保鲜 1
粮仓 1
的值 1
邂逅 1
经济的发展 1
透光 1
忧心 1
▁在这种 1
▁云南 1
争取在 1
一系列的 1
继续与 1
縻 1
将车 1
心理问题 1
踞 1
胜任 1
试飞 1
:35 1
彩排 1
▁为了防止 1
旅行者 1
折扣 1
较大 1
坐标 1
猛进 1
萌发 1
痉挛 1
是北京 1
▁事实 1
狻 1
磨损 1
赢下 1
用它来 1
毛茸 1
随身携带 1
利昂 1
▁眼下 1
到中 1
东南亚 1
垃圾场 1
调味品 1
拥有者 1
缓冲 1
20. 1
拉曼 1
辑 1
蝙蝠 1
▁项目 1
党建 1
赶出去 1
设置 1
建筑的 1
中发生 1
诸多 1
来自不同 1
阻塞 1
楸 1
酞 1
所造成的 1
了一枚 1
ox 1
隆重举行 1
▁在新 1
而未 1
直落 1
狁 1
磨合 1
为全球 1
杰瑞 1
此前的 1
买主 1
蚤 1
当今世界 1
接手 1
懑 1
高度的 1
加在一起 1
yan 1
在野 1
睫 1
质地 1
他只是在 1
很快就会 1
发展中 1
筹备 1
斯科特 1
生水 1
阿尔卑斯 1
米左右 1
藓 1
伤情 1
录像 1
人丧生 1
余家 1
的因素 1
▁不少 1
入选 1
进化的 1
停车 1
▁保罗 1
信仰的 1
头球 1
笞 1
重中之重 1
舌尖 1
▁进一步 1
何种 1
仍需 1
的阶段 1
人来说 1
▁拜 1
农村妇女 1
人之一 1
今年已经 1
发展了 1
应急 1
机中 1
▁我怀疑 1
▁请不要 1
婚姻的 1
谋求 1
泰迪 1
经济发展的 1
没时间 1
酸化 1
不能成为 1
为中心的 1
打好 1
▁在最 1
it 1
可能会出现 1
有办法 1
男士 1
当红 1
登月 1
诌 1
▁无独有偶 1
召开了 1
入侵 1
华侨 1
▁西方 1
他们就会 1
鄱 1
游说 1
割草 1
这起 1
精准 1
高明 1
作曲 1
下岗 1
辅导班 1
方言 1
贩子 1
399 1
bl 1
他们就可以 1
生活的一部分 1
▁玛 1
▁房 1
▁他于 1
厚度的 1
数是 1
来说是一个 1
底气 1
像样的 1
微粒 1
自然科学 1
▁由于没有 1
▁二要 1
一期 1
▁艾伦 1
并成为 1
双鱼 1
孵化 1
授粉 1
余个 1
悖 1
厕 1
▁操作 1
与高 1
的科学家 1
道路的 1
74 1
相扑 1
市场的 1
▁车辆 1
oss 1
▁采 1
紫外线 1
夏普 1
药用 1
渐近 1
以保证 1
152 1
当其冲 1
就在这个 1
日从 1
出现时 1
驶入 1
进一步深化 1
真实感 1
能引起 1
碳酸钙 1
滁 1
坚实的基础 1
颈椎 1
的威胁 1
步行街 1
驯鹿 1
马可 1
尽享 1
走秀 1
880 1
紊乱 1
端口 1
具备了 1
但并没有 1
得天 1
并且在 1
年获得 1
出道 1
▁这类 1
正在迅速 1
部份 1
运输 1
答题 1
▁四川 1
后路 1
给钱 1
基金会 1
学和 1
报到 1
邯 1
延续了 1
错过的 1
起见 1
超强 1
三年内 1
▁实验 1
上的问题 1
徂 1
来检查 1
营地 1
什么问题 1
相似之处 1
兰多 1
台山 1
产业 1
是个问题 1
总结了 1
收益 1
正在紧张 1
叔本华 1
诅咒 1
的重视 1
人可以 1
河床 1
犯人 1
醉酒 1
优待 1
奥运火炬 1
月起 1
痉 1
的循环 1
卫生间 1
和阿 1
边界的 1
中兴 1
跳伞 1
钞 1
逶迤 1
来代替 1
子公司 1
剪力 1
可用 1
训练中 1
两年里 1
▁在未来 1
,2012 1
戛 1
在重庆 1
老乡 1
暴君 1
6。 1
忘返 1
辐 1
时装 1
才能得到 1
确诊为 1
人死亡 1
银川 1
大戏 1
综合性 1
还不算 1
起案件 1
错误地 1
菲特 1
物理学 1
生性 1
签订 1
转速 1
▁启 1
!! 1
咨询 1
防空 1
羲 1
王星 1
中得到了 1
而发生 1
演的 1
▁索 1
中担任 1
您的名字 1
南亚 1
火炮 1
靠谱 1
北部的 1
北京大学 1
邻国 1
评论员 1
您知道 1
气流 1
蓖 1
丽娜 1
我们所有的 1
来获取 1
没有太多 1
都得到了 1
效力 1
科的 1
酡 1
以外的 1
可回收 1
显微镜 1
表演者 1
从来都不是 1
之间有 1
芹 1
趄 1
49 1
▁时尚 1
需要一些 1
所占 1
遭殃 1
几年内 1
告知 1
系数 1
思潮 1
令你 1
▁土地 1
沥青 1
的恐惧 1
和责任 1
匏 1
的方法和 1
讪 1
方式是 1
红十字会 1
▁我问他 1
踉跄 1
伧 1
臭气 1
上锁 1
残渣 1
盛行 1
作出的 1
狰 1
这种想法 1
▁工厂 1
适当 1
要塞 1
时间点 1
推高 1
但仍 1
与一个 1
没有任何关系 1
利用的 1
蜂窝 1
的边界 1
有毒的 1
脾气暴躁 1
车票 1
划分为 1
买卖 1
分心 1
他希望 1
曙 1
▁li 1
:3 1
在太空 1
手榴弹 1
在公共 1
诚意 1
钵 1
动态的 1
选项 1
▁但从 1
徇 1
群落 1
各州 1
和同事 1
乌克兰 1
不能被 1
ann 1
全会 1
孱 1
甥 1
▁汽 1
相去甚远 1
导演 1
白血病 1
引爆 1
特征 1
无成 1
琨 1
▁记者在 1
甘草 1
扩建 1
在政治 1
挑战的 1
单是 1
蓬勃发展 1
可以控制 1
杀害了 1
▁表示 1
螺旋桨 1
并被 1
成为我国 1
里卡 1
资金 1
遒 1
集中营 1
查到 1
耐久 1
与时俱进 1
甬 1
主要由 1
▁在小 1
降至 1
移植到 1
阿奇 1
阿富汗 1
体检 1
防水 1
仍会 1
谁是 1
珀 1
心脏病发作 1
就绪 1
麓 1
▁海洋 1
▁不过在 1
通行的 1
队的比赛 1
衍生 1
因此在 1
▁安全 1
世界各地的 1
面对现实 1
在这样的 1
涝 1
以偿 1
▁隔 1
点在 1
森特 1
前一个 1
米高 1
对孩子的 1
的内在 1
的关注 1
数天 1
妮可 1
兰州 1
幸存者 1
对各种 1
第四位 1
组建 1
四分之一 1
电影的 1
无关的 1
达芬奇 1
收听 1
忙于 1
减灾 1
韭菜 1
新房 1
杀了我 1
act 1
▁这张 1
所以不要 1
问题和 1
这只是一个 1
对策 1
触觉 1
订正 1
共同点 1
会面 1
▁如果她 1
和绿色 1
人们认为 1
达成一致 1
和前 1
上盖 1
街头的 1
年从 1
能通过 1
无处不在的 1
增多的 1
来访 1
▁我了解 1
可达到 1
与外 1
节约了 1
▁章 1
年终 1
非常失望 1
以人为本 1
飞抵 1
路过的 1
▁找到 1
周内 1
杀戮 1
合格的 1
的死亡 1
▁在与 1
除去 1
不多了 1
▁城镇 1
农历 1
嫖 1
克在 1
羔羊 1
眼界 1
陪同 1
精明 1
煅 1
微生物 1
▁不要让 1
侬 1
佻 1
▁部分 1
▁高中 1
▁股 1
标准化 1
岁到 1
的合成 1
的恢复 1
出于对 1
含泪 1
生活条件 1
采纳 1
山庄 1
大熊猫 1
进军 1
供应 1
门户 1
难有 1
圆锥 1
的人吗 1
实验中 1
日成 1
▁物质 1
▁抓 1
垫底 1
扣押 1
的综合 1
广泛应用 1
瞿 1
蛋白 1
冷凝 1
亵 1
▁为什么要 1
已经从 1
无害的 1
▁在如此 1
奖章 1
督 1
武警 1
赶来的 1
营业员 1
缴 1
吸引了不少 1
属的 1
维尼 1
所需的 1
造林 1
成对 1
掩埋 1
前线 1
光源 1
坚定不 1
第五次 1
致使 1
年来的 1
扰动 1
笈 1
蛩 1
北上 1
¥ 1
▁我经常 1
没钱 1
▁实现 1
▁赤 1
所包围 1
亲和 1
撰写 1
▁桐 1
填埋 1
风靡 1
完全被 1
附着 1
锯齿 1
÷ 1
因为你们 1
被砸 1
地理位置 1
手术后 1
是否是 1
等其他 1
自力 1
放射性 1
药品 1
别忘了 1
伴有 1
落水 1
▁人工 1
尝试了 1
腰围 1
可能出现 1
换乘 1
回放 1
魔力 1
相等 1
航天 1
的优点 1
修女 1
定义的 1
您将 1
旅行时 1
季前 1
车内 1
▁我们看到 1
在山东 1
都是不 1
前十 1
arg 1
村民们 1
反过来 1
环球 1
的侵蚀 1
黑客 1
108 1
纹身 1
二阶 1
港口 1
方法可以 1
控制自己的 1
问问自己 1
具有良好 1
家庭主妇 1
宜昌 1
板块 1
支配 1
住她 1
终止 1
戏法 1
过失 1
如是说 1
弄湿 1
退化 1
▁今后 1
仔细阅读 1
的事情是 1
又如何呢 1
的可行性 1
更会 1
收看 1
,40 1
邮箱 1
的手术 1
道义 1
▁它有 1
产生一种 1
任何地方 1
▁莉 1
不一致 1
口中的 1
日常生活 1
后续 1
浮游 1
参加奥运会 1
旱情 1
专门的 1
写实 1
▁在此期间 1
最富有 1
的模型 1
下定 1
抓住机会 1
2.5 1
、15 1
要对 1
牲畜 1
与水 1
失衡 1
地黄 1
准备进行 1
的抗 1
螺钉 1
并且没有 1
万家 1
财务 1
梃 1
用完了 1
▁位于 1
▁它使 1
▁q 1
以及他们 1
17. 1
伍德 1
职业道德 1
叶绿 1
桀桀 1
您从 1
秦皇 1
另外一个 1
大洋 1
楹 1
失所 1
法在 1
好坏 1
应用于 1
前例 1
新高 1
行径 1
▁事实上 1
▁能够 1
俄罗斯 1
隘 1
闸门 1
牵涉 1
万变 1
侦察 1
的内存 1
中投 1
制胜 1
从根本上 1
▁可怜 1
有近 1
▁王明 1
岐 1
谔 1
军舰 1
了这一消息 1
办公桌 1
东欧 1
其后 1
亿日元 1
高强度 1
这一现象 1
飞行中 1
繁重 1
▁即便如此 1
宴会 1
国内外 1
罪犯 1
自治州 1
感到惊讶 1
是因为他们 1
制约 1
投射 1
听众 1
商讨 1
路费 1
鼠标 1
学生对 1
现身 1
已知 1
上被 1
▁福特 1
▁软 1
▁暴雨 1
锰 1
▁居 1
普鲁 1
▁迪 1
神话中的 1
特定 1
足轻 1
事实证明 1
是不可避免的 1
很多方面 1
坟墓 1
:30 1
会将 1
1979 1
▁f 1
隔热 1
半小时后 1
可减少 1
中毒 1
2005 1
自然灾害 1
是否为 1
的德国 1
▁您对 1
私立 1
纸板 1
所形成的 1
金水 1
随随便便 1
无意中 1
投影仪 1
来水 1
交友 1
排名第 1
送至 1
▁遗憾的是 1
可以采用 1
威慑 1
床单 1
▁请你 1
大减 1
团伙 1
未婚 1
娘家 1
讲堂 1
沸沸扬扬 1
进入决赛 1
可使 1
对此感到 1
盔 1
鱼和 1
的加 1
天坛 1
可以找到 1
结节 1
的债务 1
甚至能 1
护航 1
▁巨大的 1
因此我们 1
相加 1
教程 1
普天 1
那天晚上 1
者可 1
质子 1
短语 1
年才 1
金门 1
和学校 1
紧随 1
吸水 1
是唯一 1
被推 1
的安全 1
舜 1
橙子 1
彩绘 1
▁他将 1
附加 1
门廊 1
督促 1
继续下去 1
以免 1
纾 1
应从 1
性是 1
促成 1
光纤 1
地处 1
行李箱 1
推论 1
▁其余 1
▁主要 1
蝙 1
更进一步 1
搬到了 1
非法的 1
▁确定 1
我们不知道 1
会议室 1
盯住 1
:2 1
消耗了 1
百元 1
署名 1
拟定 1
陈旧 1
淖 1
仅能 1
世锦赛 1
分级 1
可能在 1
总共 1
那麽 1
了很长时间 1
酵 1
▁马克思 1
做起来 1
鱼子 1
管道 1
作品的 1
惨败 1
货物 1
捎 1
必须把 1
▁四个 1
教师的 1
位于北京 1
体育锻炼 1
翎 1
打盹 1
对它们 1
骐 1
他的想法 1
造成伤害 1
接受它 1
重点放在 1
兑换 1
预期寿命 1
▁他只 1
女权 1
在任何时候 1
随心所欲 1
在内的 1
▁如果不 1
辛格 1
秩 1
麻省 1
领先于 1
一个被 1
▁这使 1
楼内 1
本身的 1
营业 1
密切相关 1
▁驻 1
进行到 1
当地的 1
▁法律 1
转换成 1
呷 1
派人 1
的困扰 1
积累了 1
这是最 1
连串 1
的人都知道 1
AA 1
没有问题 1
生长和 1
算盘 1
溲溲 1
谋生 1
和影响 1
情绪的 1
生子 1
▁有很多 1
捆绑 1
有利于 1
衣架 1
早期 1
考古 1
比原来 1
唏哩 1
祝您 1
言论 1
孜 1
该做什么 1
犯下 1
巨额 1
▁德国 1
科比 1
浮雕 1
传播的 1
原则和 1
首脑 1
击剑 1
新加坡 1
提出来 1
相呼应 1
杏仁 1
有史以来 1
标识 1
宽松 1
威胁的 1
实话 1
风貌 1
牛津 1
大多数人 1
这个数字 1
材质 1
还将在 1
侮 1
▁无论如何 1
骊 1
挺身 1
地解释 1
▁这样一来 1
明智的选择 1
跌跌 1
力争 1
车门 1
萧山 1
打来电话 1
好于 1
747 1
已经完全 1
的成员 1
回升 1
社区的 1
等价 1
安全气囊 1
传记 1
不久就 1
国际人权 1
给出 1
我们很高兴 1
凸显 1
日傍晚 1
网络上 1
担架 1
2002 1
有更多的 1
迹象 1
木材 1
不会出现 1
海南 1
龙舟 1
切身利益 1
科学家们 1
颛 1
一定程度上 1
但未 1
科举 1
的时间来 1
储蓄 1
▁省 1
高职 1
爱国者 1
在室内 1
病因 1
▁好的 1
▁咱们 1
拉姆 1
广播电台 1
谣言 1
电影院 1
抽签 1
侵略 1
有三种 1
烤鸭 1
他离开 1
体外 1
▁还有一个 1
一语 1
甚少 1
含糊不清 1
维和 1
营养物质 1
▁舒 1
碓 1
保管 1
何在 1
▁the 1
的产物 1
是必要的 1
硫磺 1
惨烈 1
你的声音 1
剧场 1
这支 1
人道主义 1
球员们 1
▁两年前 1
拼图 1
搔 1
▁为了使 1
荒谬的 1
培养学生 1
宏伟的 1
问鼎 1
▁查 1
将其视为 1
羊水 1
日元 1
不充分 1
爱上了 1
近邻 1
项下 1
会前 1
一样多 1
▁聚 1
分子的 1
远非 1
纳德 1
这些变化 1
而论 1
尽可能多 1
才真正 1
高档 1
▁菜 1
▁在一些 1
蛆 1
▁本文 1
倒挂 1
算不算 1
▁梁 1
投下 1
毓 1
绿皮 1
▁萨 1
律法 1
▁因而 1
数据和 1
角球 1
他无法 1
我们有一个 1
巩固 1
警车 1
技术在 1
东道主 1
▁环境 1
▁坎 1
成为最 1
头衔 1
的根源 1
科学家在 1
▁智能 1
岁的张 1
保障 1
▁大学 1
留下深刻的印象 1
支援 1
的人可以 1
为这些 1
优质的 1
吸毒者 1
mail 1
第四节 1
亚历山大 1
均为 1
发生的事情 1
盗窃 1
黄素 1
▁也可 1
老城 1
▁由此可见 1
旱灾 1
▁这些人 1
以至 1
指挥官 1
误以为 1
的实际 1
改善了 1
下肢 1
近日 1
没有足够的 1
第四届 1
图中 1
的人与 1
屉 1
木地板 1
肮 1
上显示 1
上交 1
默许 1
前卫 1
,30 1
不规范 1
罗恩 1
用到 1
我们能够 1
量身 1
那是个 1
分歧 1
响尾蛇 1
器来 1
藩 1
▁名 1
坯 1
的文件 1
金龙 1
例行记者会上 1
从内部 1
一名男子 1
▁意 1
场比赛中 1
的地步 1
酸雨 1
只占 1
都将在 1
哪种 1
口干 1
死者的 1
从而使 1
开关 1
偃 1
心悦 1
重新审视 1
分布着 1
这两位 1
是基于 1
用过 1
再次发生 1
发放 1
滋生 1
紊 1
?) 1
天水 1
灾情 1
举足轻重的 1
矛头 1
就不再 1
加水 1
▁斯 1
尊贵 1
了一杯 1
老龄化 1
嘤嘤 1
拭目以待 1
纯粹的 1
人遇难 1
和不足 1
甘肃省 1
字号 1
分类 1
和有效的 1
边形 1
有明显的 1
盾牌 1
妇产科 1
省钱 1
领头羊 1
几处 1
压电 1
LG 1
▁尽管如此 1
▁偷 1
也于 1
依赖的 1
他的工作 1
翡 1
车顶 1
▁额 1
农场主 1
▁不可 1
四个部分 1
航空母舰 1
▁还有一些 1
它与 1
某些人 1
表态 1
一分为二 1
各族 1
组装 1
的特殊 1
派送 1
完全不同 1
信徒 1
的演出 1
的重点 1
书院 1
互信 1
缑 1
愉悦的 1
▁嘿 1
始发 1
转型 1
车厢 1
晋三 1
透支 1
的现代 1
中越 1
造纸 1
鞋带 1
产业结构 1
▁唯一的 1
仪表 1
注射 1
与英国 1
零点 1
才被 1
卤 1
安徽省 1
冷门 1
60%, 1
囚犯 1
大幅度的 1
▁这项 1
大幅 1
丙烯酸 1
直接影响 1
施工人员 1
污染物 1
才在 1
过期 1
助理 1
▁工人们 1
土地资源 1
灵通 1
▁警察 1
裸露的 1
开设了 1
驾驭 1
贯注 1
食物时 1
粕 1
仅为 1
艰巨 1
盹 1
小说中的 1
思维方式 1
研制出 1
的后代 1
项目和 1
背部 1
来访的 1
墟 1
的面纱 1
食物的 1
了解一下 1
娱乐圈 1
这是你的 1
的一次性 1
科学实验 1
已为 1
区分开 1
的产品 1
卷入 1
发生什么 1
▁坦 1
筑巢 1
富足 1
可乘 1
通常以 1
亲王 1
受到影响 1
的分析 1
名将 1
难以接受 1
人参 1
就高 1
馍馍 1
系统将 1
▁蒋 1
的外形 1
重要性 1
骡 1
逼真 1
▁哪些 1
本来可以 1
罡 1
淞 1
低价 1
能帮助 1
湖地区 1
诘 1
祚 1
▁(3) 1
诃 1
今年初 1
道德规范 1
张继 1
明目 1
在寻找 1
推进器 1
福克 1
是国家的 1
抨击 1
缜 1
和地方 1
退后一步 1
也是从 1
是其 1
钙 1
我能够 1
总管 1
all 1
▁山西 1
这一消息 1
分为两个 1
太长 1
名城 1
一提 1
精良 1
乡镇 1
默认 1
自助 1
分光 1
兼容 1
接吻 1
糅 1
国家和 1
南希 1
头和 1
公升 1
岁高龄 1
削减 1
过会 1
海滩上 1
善款 1
的其他 1
的讲话 1
技巧和 1
就知道了 1
建筑和 1
灌注 1
▁最好 1
▁俄罗斯 1
电影节 1
▁这些是 1
产生的影响 1
的中场 1
的计划 1
送进 1
国人 1
蓓 1
使用的 1
影视 1
我发现自己 1
▁人民 1
激战 1
丝网 1
美洲 1
碰巧 1
奥运金牌 1
於 1
记者采访时 1
一年来 1
直接把 1
角度看 1
使您的 1
的必要 1
合众 1
晕倒 1
相关部门 1
色素 1
赈 1
好起来的 1
被淹 1
解决问题的 1
和目标 1
最早 1
转让给 1
迅速发展 1
下台 1
至少有 1
重挫 1
零钱 1
▁你有 1
冠状 1
一个女人 1
霏霏 1
称其为 1
场所和 1
奇偶 1
喜出望 1
成立的 1
突飞猛进 1
泊尔 1
们所 1
热衷于 1
他的儿子 1
▁纪 1
萨克 1
纯正 1
泮 1
哈姆 1
匾 1
真正地 1
据说是 1
美金 1
救生 1
风景名胜 1
我的钱 1
西蒙 1
的第一个 1
学英语 1
助推 1
的发动机 1
的有效途径 1
安市 1
物质和 1
上个世纪 1
指定 1
马车 1
▁我们想 1
▁满足 1
地铁 1
我们走吧 1
褒 1
屏风 1
专业人士 1
战后 1
合成的 1
杀菌 1
藿 1
箸 1
8。 1
绔 1
泠 1
彩电 1
▁而从 1
起源 1
世纪末 1
磬 1
烹饪 1
AAA 1
自己的观点 1
除掉 1
金庸 1
一带 1
不知道他 1
完全的 1
可读 1
命中率 1
钴 1
环境污染 1
重要地位 1
绑架 1
依托 1
门打开 1
▁模糊 1
开裂 1
▁前不久 1
设立的 1
塞纳 1
的号码 1
地位的 1
▁耐 1
哺乳动物 1
努力使 1
授权 1
在车 1
尾部 1
下行的 1
似乎正在 1
球星 1
如此之快 1
皮肤和 1
演说 1
毒害 1
陡峭的 1
▁一条 1
堙 1
理石 1
1949 1
▁我猜 1
废弃 1
万立方米 1
操作 1
酶 1
锚 1
闸 1
飓风 1
部分是 1
205 1
博会 1
的电视 1
兵马俑 1
美国总统 1
1987 1
剧本 1
显示出了 1
到中国 1
切成小块 1
致死 1
这个国家的 1
上不 1
▁冯 1
仫 1
状体 1
过程和 1
波罗 1
曲线的 1
抗洪 1
深度的 1
也很重要 1
▁教练 1
而产生的 1
的任何 1
业者 1
全面建设 1
MS 1
课程的 1
余热 1
他们的孩子 1
马来 1
无烟 1
语音 1
方差 1
将受到 1
切割 1
机会的 1
球衣 1
充分考虑 1
转折 1
之源 1
色彩和 1
星期的 1
不改变 1
领养 1
恶作 1
排出 1
不可分割 1
走高 1
建设和 1
越冬 1
胶片 1
它看起来 1
感兴趣的 1
运载火箭 1
抢救无效 1
暴露出来 1
联系起来 1
▁东京 1
斑马 1
小觑 1
我们无法 1
辽宁省 1
阙 1
的转变 1
先行 1
视网膜 1
▁那就 1
声像 1
毁掉 1
阐明 1
帚 1
仃 1
要建立 1
而不用 1
风电 1
竣工 1
剪切 1
因子的 1
往年 1
▁消息 1
晚些时候 1
节省 1
打出 1
陪您 1
确定为 1
转变成 1
有耐心 1
的支持下 1
克莱 1
▁一辆 1
壤 1
这就像 1
轻重 1
二氧化 1
形状和 1
目标是 1
可能发生的 1
木工 1
利用率 1
帮他们 1
令人吃惊 1
arty 1
▁吕 1
▁艺术 1
强力 1
准确的 1
无铅 1
是否存在 1
停放 1
街坊 1
和使用 1
今天早上 1
教练的 1
有了一个 1
全国各地 1
让很多 1
还就 1
那地方 1
唇膏 1
水下 1
出生时 1
经营的 1
经济和社会 1
可与 1
送行 1
的解释 1
共赢 1
师范 1
媲 1
其他人一样 1
印发 1
过快 1
定位 1
▁笔者 1
安达 1
在东 1
列火车 1
的气温 1
仅此而已 1
所未 1
力克 1
为由 1
论文 1
脱衣 1
请注意 1
ood 1
可疑 1
租金 1
喷火 1
产于 1
部门 1
千人 1
货轮 1
递增 1
的区别 1
耳目 1
诩 1
他们与 1
逾 1
他仍然 1
书写的 1
炸死 1
和声 1
的意见 1
▁但是她 1
等服务 1
极强 1
处分 1
总面积 1
一半的 1
光顾 1
