, 87663
。 30753
的 9406
▁ 6181
我 5569
了 5331
! 4392
着 3746
在 3607
? 3010
是 2848
我们 2842
、 2838
地 2577
; 2457
“ 2402
一 2252
那 2207
你 2135
不 1997
小 1986
▁我 1965
” 1923
:“ 1891
像 1853
又 1726
有 1713
中 1628
: 1590
就 1583
和 1564
上 1544
他 1510
去 1386
里 1365
也 1365
人 1362
花 1331
时 1317
都 1314
而 1286
说 1265
我的 1265
它 1260
老师 1249
她 1229
呢 1221
得 1220
来 1192
同学 1177
好 1150
下 1149
兔子 1145
乌龟 1137
这 1137
比赛 1136
大 1135
却 1087
把 1079
一样 1068
自己 1055
心 1054
跑 1043
一个 1042
如 1036
想 1035
到 1030
风 1029
班 1011
可 1006
红 1003
啊 997
天 995
过 994
与 983
跳 973
起 964
运动会 958
子 936
没有 906
声 885
被 879
雨 878
看 868
到了 859
吧 835
飞 835
要 835
的人 824
吗 822
从 802
。” 800
用 798
眼 781
水 776
!” 767
山 760
的小 756
▁“ 754
会 753
网 749
就是 739
笑 737
无 732
还 723
但 717
专 713
后 712
出 712
头 707
稿 704
白 701
允许 699
未经 696
作文 691
爱 688
▁在 687
不得转载 684
妈妈 683
三 682
很 672
还有 668
让我 664
长 660
...... 659
那么 653
▁我们 642
开始了 633
他们 632
加油 625
手 624
真 618
的时候 612
们 606
向 602
气 596
河 595
还是 592
有的 584
树 582
为 578
再 578
儿 577
因为 576
对 574
生活 574
飘 567
走 567
啦 563
打 562
自己的 562
光 562
比 558
队 555
最 549
之 546
雪 543
发 541
美 536
落 536
生 535
让 532
学习 530
便 530
只 529
开始 524
了一 524
多 522
不是 520
就像 520
开 517
能 516
快 515
边 509
春 507
个 505
才 502
二 502
起来 499
做 499
草 495
清 489
的是 489
云 489
可以 487
▁一 485
呀 481
学 480
路 479
没 475
同学们 474
这个 474
你的 473
只有 471
终点 467
成 467
绿 465
学校 465
我们的 462
高 462
梦 461
一起 459
月 458
▁他 458
努力 457
明 455
脸 451
间 446
眼睛 444
▁小 443
上的 442
”, 441
道 439
家 439
死 435
已经 434
,“ 433
拔 431
更 428
终于 428
舞 427
身 427
初 426
他的 425
秋 424
中的 424
正 424
当 422
你们 421
阳光 419
丝 418
好像 414
老 411
年 410
的一 409
给 408
吃 408
绳 406
海 406
神 405
▁今天 405
出了 405
拉 403
远 403
听 402
黄 401
叫 401
黑 397
流 396
叶 394
将 391
都是 390
似 389
爸爸 385
仿佛 385
香 384
玩 383
米 382
前 381
▁她 381
往 380
冲 379
自 379
校园 378
青 378
中学 377
▁这 376
▁那 375
美丽的 375
放 374
看见 373
看着 372
可是 371
梦想 371
般 366
点 366
什么 365
人的 364
别 364
这样 364
?” 363
心里 361
于 361
里的 359
满 358
她的 358
以 352
大家 351
您 350
开心 348
的大 348
金 348
吹 348
片 347
不能 347
来了 346
美丽 345
看到 344
希望 343
书 342
一片 341
上了 340
生命 340
张 340
分 338
只是 336
所以 336
是一 335
谁 335
”。 335
蓝 333
使 331
最后 331
然 329
爬 329
火 329
天空 329
但是 327
事 326
球 325
世界 323
让人 322
快乐 321
那个 320
一般 319
它的 319
日 319
也是 317
嘴 317
鱼 316
突然 316
脚 315
班的 314
色 313
它们 312
跑步 312
时间 311
转 311
直 311
十分 310
影 309
人生 308
石 308
面 306
了起来 306
朋友 305
太阳 305
寒 305
离 305
已 304
见 304
虽然 304
太 304
情 303
小学 303
回 302
母亲 301
夜 301
▁” 301
望 301
脸上 300
几 300
总是 298
响 298
湖 296
沙 296
千 296
也不 295
连 295
刘 294
让我们 293
微笑 293
现在 292
是一个 292
进 292
起了 292
两 291
怎么 291
动 289
绳子 288
名 287
门 287
等 287
有些 285
画 285
一次 284
双 283
意 282
写 281
带 281
一声 280
▁初 280
一只 279
完 279
第一 279
幸福 278
一直 277
衣 276
那些 276
似的 276
总 276
似乎 275
我不 274
背 273
下来 272
枝 272
空 272
兔 272
来到了 271
向前 270
住 270
人们 270
若 269
知道 269
亮 269
操场上 269
▁你 268
带着 267
给我 266
一会儿 266
心中 266
了一个 265
我想 265
玉 264
坚持 261
成功 261
喜欢 261
刚 261
先 260
别人 260
胜利 260
成长 260
为了 260
苦 259
静 259
四 259
一下 258
来到 258
笔 258
我就 258
五 257
轻 257
倒 256
不会 255
洒 255
许多 255
半 254
马 254
字 253
非常 253
凉 252
站在 251
初中 251
运动员 250
这么 249
朵 248
孩子 248
正在 247
六 247
冷 246
这些 246
永远 246
年的 245
坐在 245
有一 245
相 245
一点 244
更加 244
深 243
知 243
过去 243
龟 243
林 241
细 240
今天 240
游 239
语 239
入 238
王 238
一个人 237
滴 235
温暖 235
灵 233
腿 233
难 233
泪 233
望着 232
课 231
话 231
珠 230
欢 230
步 230
开了 229
是我 229
彩 229
过了 229
者 229
《 229
口 229
万 229
乐 229
双手 229
问 229
困难 228
一条 228
走了 228
然后 227
准备 227
一阵 226
着一 226
行 226
所 226
一位 225
运动 225
久 225
喊 225
姑娘 225
灯 225
怕 224
—— 224
紧 224
才能 223
不知 223
我要 223
那样 223
身上 223
放弃 222
▁比赛 222
暖 222
有了 222
▁我的 221
的声音 221
真的 221
时光 220
映 220
淡 220
回忆 218
时的 218
大地 218
面对 218
笑容 218
▁可 217
发现 217
汗 217
觉得 217
一切 217
教室 216
为什么 216
一种 214
身体 214
的地方 214
的人生 214
尽 214
目 214
都在 213
伟 213
岁 213
精神 213
粉 213
头发 212
如此 212
这次 212
窗 211
▁而 211
曾经 211
闪 211
立 210
出来 210
乱 210
▁但 210
就会 209
紧张 209
活 208
下的 208
冰 208
青春 208
只要 208
赢 207
之后 207
方 207
▁这时 207
春天 207
通 207
有着 207
牙 206
龙 206
美好的 205
毛 205
爷爷 205
成了 205
夏 205
新 205
外 205
哪 204
弯 204
挺 204
同 203
掉 202
渐渐 202
越 202
不要 201
在我 201
只见 201
新的 201
了我 201
咬 201
古 201
拿 200
透 200
原来 200
本 199
我也 199
地上 199
学生 199
的手 199
干 199
真是 198
嫩 198
父亲 198
队员 198
满了 198
声音 198
线 196
李 195
世 195
卷 195
这时 195
风吹 195
跟 195
而是 194
一定 194
第一名 194
一定要 194
我在 194
读 194
拨 193
成绩 193
秋天 193
朝 193
我是 193
以后 193
赢了 192
我和 192
力 192
记 191
叶子 191
还在 191
何 191
感觉 191
根 191
不过 191
去了 191
暗 190
就要 190
鸟 189
也许 189
一些 189
的心 189
于是 189
烟 189
眉 189
精彩 188
慢慢 188
扑 188
般的 188
血 188
翅膀 188
中国 188
下去 187
翻 187
下了 187
八 187
柳 187
校 187
操场 187
过来 187
露 187
曾 186
东西 186
热 186
讲 186
难道 186
条 186
一张 186
的事 186
动物 186
早 185
▁老师 185
车 185
成为 185
身边 184
奶奶 184
安 184
作 183
痛 183
耳 183
国 183
大的 182
欢呼 182
这一 182
如果 182
懂 182
拥有 181
( 181
高兴 181
目光 181
浅 180
力气 180
枪 180
▁它 180
柔 179
来的 179
这是 179
刻 178
我会 178
如同 178
一天 178
可爱 178
其 177
哭 177
猫 177
慢 177
一边 177
全 177
路上 177
该 176
由 176
歌 176
好的 176
诗 176
微 175
沉 175
公 175
期待 175
继续 175
显得 175
扬 174
》 174
是一种 174
▁因为 174
一度的 174
文 174
▁最后 173
充满 173
参加 173
箭 172
不再 172
星 172
的话 172
木 172
只能 172
角 172
一个个 172
▁可是 171
就在 171
尖 171
争 171
变得 170
重 170
九 169
奔 169
或 169
极了 168
破 168
依然 168
逆境 168
虎 168
灰 168
是我们 168
的生活 168
变 168
指 168
伤 167
圆 167
父母 167
教 167
照 167
▁不 167
选手 167
蝴蝶 167
▁于是 166
读书 166
唱 166
园 166
度 166
腰 166
题 166
回家 165
看看 165
住了 165
紫 165
▁妈妈 165
师 165
平 165
排 164
得了 164
桥 164
考 164
碧 164
因 164
天的 164
空中 163
楼 163
但我 163
言 163
接力 163
知识 163
进了 163
在这 162
随着 162
欲 162
不知道 162
百 162
令 162
感 161
经 161
留 161
要么 161
这种 161
急 160
全身 160
年级 160
是在 160
睡 160
子的 160
一看 159
棒 159
七 159
不了 159
▁乌 159
犹如 159
散 158
多么 158
号 158
艳 158
劲 158
少 157
) 157
星星 157
友谊 157
在了 157
溪 157
雾 157
忽然 156
班级 156
明白 156
弱 156
▁有 156
的脸 156
数 156
漫 155
句 155
旁边 155
听到 155
追 155
▁只见 155
用力 155
台 154
记忆 154
刺 154
依 154
许 154
感到 153
旁 153
美的 153
皮 153
瘦 153
的花 153
爱的 153
有一个 153
▁当 153
这样的 152
作业 152
面前 152
在一起 152
着我 152
坚强 152
颗 152
竹 151
对方 151
阳 151
一场 151
这里 151
热闹 151
结束了 151
圈 151
骨 150
壮 150
早已 150
西 150
白的 150
心的 150
领 150
姐姐 149
兴奋 149
应该 149
银 149
红的 149
地说 149
站 149
离开 149
包 148
依旧 148
场 148
十 148
穿着 147
滑 147
找 147
后面 147
化 146
棵 146
浪 146
恋 146
松 146
追求 146
美好 146
▁虽然 146
失败 145
输 145
人类 145
长的 145
发出 144
树叶 144
胜 144
思 144
曲 144
冬 144
忘 144
嘴角 144
不可 144
处 144
每天 144
其实 144
几个 144
感动 143
群 143
整个 143
他们的 143
等待 143
生命的 143
有人 143
很多 142
都会 142
轻轻 142
也会 142
呆 142
亭 142
城 141
蹦 141
把我 141
红了 141
迷 141
闹 141
赶紧 141
每 140
激动 140
使劲 140
瞬间 140
钢琴 140
令人 140
划 140
则 139
变成 139
么 139
华 139
感受 139
一双 139
好好 139
装 139
出去 139
抹 139
含 139
为我 139
色的 139
或许 138
活着 138
赛跑 138
看到了 138
心情 138
之中 138
牛 138
我的心 138
身子 138
不断 138
碎 138
一把 138
命运 138
举行 138
送 137
仙 137
理想 137
是个 137
接 137
赛 137
经过 137
惊 137
校长 137
关 137
无法 137
▁从 136
微微 136
那里 136
坐 136
必 136
喝 136
拍 136
少年 136
摇 135
眸 135
i 135
阵 135
裁判 135
考试 135
强 134
们的 134
墨 134
物 134
待 134
记得 134
荷花 134
东 133
力量 133
而且 133
在我的 133
的天 133
花朵 133
未来 133
野 132
风景 132
娇 132
之间 132
鼓 131
学会 131
的水 131
珍惜 131
女孩 131
多少 131
顿时 131
也有 131
两个 130
挫折 130
衣服 130
愁 130
说话 130
请 130
怀 130
念 130
甘 129
染 129
甜 129
绝 129
杨 129
一下子 129
勇敢 129
苍 129
了一下 128
▁但是 128
狼 128
淡淡的 128
女 128
服 128
夏天 128
我们要 128
奋斗 127
怒 127
有点 127
里面 127
波 127
回来 127
闻 127
传 127
团 127
小小的 127
茶 127
种 127
跑到 127
累 127
想着 127
幽 126
桌 126
次 126
禁 126
听见 126
落在 126
首 126
嘴巴 126
而又 126
忍 126
完了 126
不停 126
都有 126
弦 126
炯 125
眼神 125
眼前 125
u 125
哦 125
让你 125
想到 125
鼻子 124
需要 124
▁天 124
自由 124
眼泪 124
特别 124
帮助 123
枯 123
害怕 123
后的 123
任 123
上一 123
一颗 123
荡 123
油 122
好了 122
生活的 122
乌 122
臂 122
刀 122
一丝 122
公园 122
冬天 122
摆 121
酒 121
的眼睛 121
布 121
感恩 121
充满了 121
阴 121
所有 121
一样的 121
鸣 121
结果 121
家乡 120
归 120
差 120
更是 120
军 120
每一个 120
项目 120
足 120
躲 120
交 120
前面 120
观众 120
过去了 120
其中 119
走到 119
近 119
隐 119
每一 119
们都 119
抱 119
竟 119
最终 119
进入 119
迎 119
上次 118
三年 118
南 118
拿着 118
一年一度的 118
越来越 118
奇 118
灿 117
想起 117
鼻 117
队的 117
江 117
还没 117
以为 117
失 117
有时 117
给我们 117
的那 117
走向 117
秀 117
低 117
大声 117
体育 117
样 116
花儿 116
终 116
肉 116
▁终于 116
尘 116
层 116
练 116
霞 116
顶 116
教室里 116
上面 116
出一 116
并 116
那是 116
女生 116
也没有 116
马上 116
正是 115
选择 115
▁一个 115
求 115
边的 115
战 115
丽 115
垂 115
失去 115
残 115
饭 115
自然 115
伸 115
祖国 114
姿 114
错 114
▁我想 114
▁大 114
傲 114
风雨 114
▁看 114
未 114
纸 114
船 114
社会 113
买 113
走进 113
样子 113
孤 113
不到 113
土 113
骄傲 113
心灵 113
不得 113
下午 113
▁现在 113
擦 113
翠 113
穿 113
▁这是 113
晚 113
病 113
花瓣 113
定 113
绵 112
哗 112
飞翔 112
▁是 112
甚至 112
陪 112
桃花 112
了出去 112
脚步 112
愿 111
▁中 111
操 111
点点 111
▁他们 111
表情 111
座 111
笑着 111
粗 111
苏 111
都不 111
变成了 111
薄 111
汗水 111
两只 111
景 111
空气 111
停 111
轮 111
洞 110
时而 110
便是 110
的精神 110
很快 110
童年 110
帮 110
收 110
也要 110
经历 110
各 110
磨 110
单 110
的东西 110
使我 110
▁春 110
的天空 110
溜 110
狗 110
醉 109
学的 109
白云 109
上课 109
不停地 109
第二 109
笑了 109
明天 109
虽 109
给你 109
▁这次 109
▁雨 109
— 109
拂 109
哥哥 109
像是 109
平静 109
门口 109
给予 109
天气 109
傻 109
狂 109
钱 109
迈 109
妹妹 109
忘记 108
享受 108
我又 108
的一声 108
音乐 108
恨 108
结 108
踏 108
蛋 108
不舍 108
踢 108
快的 107
忙 107
难忘 107
不好 107
认真 107
夕阳 107
道理 107
相信 107
两条 107
▁一年 107
利 107
并不 107
这就是 107
脑袋 107
森林 107
清澈 107
她们 107
是因为 107
余 107
和我 107
天下 107
▁到了 106
故事 106
又有 106
节 106
▁再 106
留下 106
生活中 106
此 106
武 106
喜 106
的运动 106
田 106
怪 106
日子 105
平凡 105
泪水 105
合 105
吸 105
兴 105
非 105
纷纷 105
巾 105
插 105
梁 104
就这样 104
披 104
▁风 104
今 104
绿的 104
托 104
放在 104
团结 103
面上 103
输了 103
属于 103
奔跑 103
下一 103
的样子 103
雅 103
的一切 103
雄 103
疼 103
铃 103
摸 103
岁月 103
命 103
麻 102
得到 102
泛 102
鼓励 102
会有 102
慢慢地 102
善 102
▁也许 102
音 102
屋 102
周 102
立刻 102
以及 102
算 102
弄 102
拼命 102
的光 101
乎 101
跑了 101
一年 101
男生 101
外婆 101
漂亮 101
齐 101
视 101
抖 101
内 101
缕 101
也在 101
露出 101
左 101
官 101
墙 101
当我 101
好朋友 100
然而 100
响起 100
了下来 100
心中的 100
的爱 100
抓 100
旗 100
为我们 100
传来 100
湿 100
燕 100
衬 100
志 100
打开 100
位 100
酸 99
零 99
每次 99
缓缓 99
翩翩 99
窗外 99
地方 99
皱 99
剑 98
却是 98
软 98
宝 98
时候 98
只好 98
鸡 98
地的 98
回到 98
1 98
琴 98
浓 98
即使 98
”“ 98
白色的 97
力的 97
无数 97
人生的 97
洗 97
老师的 97
的好 97
喊着 97
上去 97
彩虹 97
级 97
过的 97
铁 97
觉 97
月亮 97
有什么 97
一份 97
▁所以 97
内心 97
莲 97
前进 96
都很 96
黄的 96
瞪 96
头上 96
望去 96
滚 96
跳高 96
常 96
池 96
有的人 96
晴 96
你是 96
胖 96
耳朵 96
兰 96
人心 96
盯着 95
凌 95
石头 95
▁六 95
都要 95
在那 95
地球 95
中间 95
睡觉 95
坏 95
一块 95
鸟儿 95
外的 95
换 95
即将 94
秒 94
一定会 94
悲 94
伤心 94
仰 94
默默 94
带来 94
的眼神 94
生气 94
员 94
父 94
唇 94
幻想 94
绽放 94
失去了 94
第一个 94
吞 94
采 94
动着 94
初一 93
了几 93
抬头 93
一道 93
环境 93
您的 93
一件 93
斗 93
对于 93
理 93
簇 93
所有的 93
树木 93
周围 93
刚刚 92
亦 92
比赛的 92
互相 92
舍 92
的双 92
宇 92
帘 92
朵朵 92
那种 92
报 92
是最 92
妈 92
鬼 92
语文 92
活动 92
日的 92
竟然 92
拉拉 92
形 92
整齐 92
莫 91
▁春天 91
教育 91
右 91
朗 91
是不 91
哨 91
欣赏 91
孤独 91
的事情 91
孙 91
浮 91
伙伴 91
体 91
北 91
并没有 91
玩耍 91
的目光 91
第一次 91
速度 91
小的 91
不住 91
纯洁 91
呼吸 90
向我 90
黑暗 90
▁突然 90
温柔 90
性 90
魔 90
万物 90
月光 90
改 90
总会 90
甩 90
铺 90
走过 90
爸爸妈妈 90
英 90
想象 90
微风 90
喜悦 90
很好 90
赶 90
个人 90
纱 90
收获 90
阿 90
家里 90
弹 90
摔 89
修 89
的不 89
有很多 89
一滴 89
来说 89
压 89
伞 89
拽 89
了吗 89
色彩 89
这边 89
勇气 89
有一天 89
改变 89
少女 89
遇到 89
异 89
向往 88
不敢 88
弟弟 88
匆匆 88
逝 88
见到 88
的孩子 88
数学 88
加 88
▁大家 88
向后 88
痛苦 88
掌 88
子和 88
舒 88
在这里 88
晚上 88
▁如果 87
举 87
伯 87
出的 87
底 87
绿色的 87
大海 87
夺 87
白色 87
▁其实 87
花的 87
印 87
扇 87
清香 87
树上 87
靠 87
方的 87
的风 87
挂 87
是什么 87
岸 87
哈哈 86
醒 86
挥 86
▁花 86
撒 86
多了 86
事情 86
我很 86
晃 86
对手 86
还会 86
一会 86
颜色 86
人间 86
还要 86
假 86
肯定 86
j 86
远处 86
家的 86
我还 86
长大 86
顾 86
进行 85
短 85
向上 85
谢 85
着的 85
的时间 85
双眼 85
不禁 85
后悔 85
月的 85
菜 85
就可以 85
提 85
了出来 85
鹰 85
拼搏 85
人在 85
并不是 85
紧紧 85
药 85
脱 85
羽 85
叮 85
的老 85
往后 85
爽 85
杀 84
独 84
回头 84
长长的 84
仔细 84
快地 84
全班 84
落叶 84
水的 84
直到 84
象 84
投 84
怎样 84
悄悄 84
一座 84
此时 84
那时 84
徐 84
些 84
当时 84
说过 84
阵阵 84
一个小 84
的感觉 84
舞蹈 83
至 83
堆 83
当然 83
猛 83
......” 83
我们在 83
我才 83
味 83
想要 83
以前 83
耳边 83
裙 83
子上 83
决定 83
童 83
颜 83
可能 83
吓 83
信 83
滋润 83
祥 83
你会 83
鲜花 83
蓝天 82
懂得 82
再次 82
感谢 82
丛 82
回答 82
身影 82
折 82
钻 82
约 82
队员们 82
呐喊 82
▁人 82
勇 82
霜 82
寂寞 82
忽 82
我知道 82
▁时间 82
的高 82
是不是 82
升 82
大家都 82
皱纹 82
不想 82
长城 82
休息 81
不管 81
告诉 81
历史 81
▁有的 81
倾 81
叹 81
种子 81
绿色 81
无比 81
红色的 81
断 81
告诉我 81
扔 81
了许多 81
泥 81
而不 81
黄色的 81
的一个 81
窝 81
认为 81
芽 81
走在 81
习 80
▁随着 80
试卷 80
时刻 80
精 80
遍 80
每个 80
浩 80
表 80
那一 80
自信 80
欢乐 80
西湖 80
堂 80
极 80
会在 80
抱着 80
动的 80
露出了 80
作为 80
梅 80
洁 80
名的 80
方向 80
凡 79
轩 79
▁三 79
晶莹 79
尝 79
是谁 79
义 79
既 79
谈 79
陈 79
愣 79
容 79
y 79
涌 79
灿烂 79
文明 79
3 79
给了 79
的比赛 79
笑声 79
太多 79
其他 79
反 79
▁爸爸 78
2 78
围 78
游戏 78
工作 78
宽容 78
说的 78
悲伤 78
峰 78
勾 78
▁此时 78
成功的 78
慢慢的 78
一眼 78
光明 78
伟大 78
你好 78
抢 78
不同 78
远方 78
之前 78
保护 78
得像 78
各种 78
离开了 78
抽 78
羊 78
瓜 78
对我 78
无论 78
远远 78
的世界 77
不如 77
安慰 77
· 77
场上 77
现 77
令我 77
习惯 77
吐 77
让自己 77
使人 77
锅 77
轻轻地 77
忧 77
探 77
勒 77
词 77
在大 77
奋 77
撑 77
个个 77
听着 77
豪 77
跟着 77
悠 77
间的 77
闪烁 77
善良 76
了我的 76
踩 76
推 76
落下 76
光芒 76
海洋 76
老人 76
激烈 76
原本 76
一笑 76
别人的 76
渴望 76
才会 76
到底 76
斑 76
那天 76
泉 76
脖子 76
达 76
晨 76
接着 76
景色 76
告别 76
有趣 76
试 76
一句 76
蚂蚁 76
威 76
而我 76
在一 76
几乎 75
斜 75
▁不过 75
无声 75
▁没有 75
憋 75
藏 75
亲 75
冠军 75
上来 75
小鸟 75
哀 75
丽的 75
民族 75
思念 75
汉 75
了吧 75
黑的 75
彤 75
季节 75
养 75
认识 75
扭 75
君 75
安静 75
5 74
由于 74
瀑布 74
游泳 74
都能 74
获得了 74
母爱 74
回去 74
后来 74
教训 74
下面 74
杯 74
过后 74
我们都 74
了一场 74
不在 74
奉献 74
母 74
结束 74
▁又 74
的长 74
▁高 74
了他 74
温暖的 73
一生 73
看起来 73
女子 73
熟悉 73
往前 73
移 73
了我们 73
树下 73
守 73
随风 73
万里 73
干净 73
一股 73
向我们 73
▁他的 73
能够 73
真正的 73
盛 73
嬉戏 73
胸 73
梅花 73
为你 73
辣 73
晓 73
幕 73
烈 73
荷 73
像一个 73
展 73
气的 73
是那么 73
哇 72
等着 72
风中 72
六年 72
壳 72
眼中 72
▁原来 72
进去 72
一名 72
让他 72
存在 72
悦 72
寻找 72
他在 72
鞋 72
敢 72
腾 72
苞 72
也没 72
凋 72
缩 72
出现 72
学校的 72
没想到 72
果 72
挑战 72
眨 72
伟大的 72
又是 72
串 72
雪花 72
照亮 72
盖 72
练习 71
扎 71
打着 71
在空中 71
地看着 71
分钟 71
手中的 71
成熟 71
付出 71
株 71
子里 71
境 71
惨 71
山顶 71
独自 71
克服 71
苗 71
拼 71
转身 71
慈 71
原 71
耀眼 71
不仅 71
对我说 71
▁还有 71
可爱的 71
信心 71
致 71
▁后来 71
红色 71
恶 71
出来了 71
素 71
皮肤 71
管 71
真正 71
一群 71
它是 70
好似 70
敬 70
经常 70
爱情 70
调皮 70
动作 70
败 70
生的 70
男 70
姥 70
无奈 70
糖 70
身后 70
雷 70
消失 70
重新 70
关心 70
10 70
春天的 70
树的 70
天地 70
貌 70
切 70
什么时候 70
大大的 70
呼 70
兵 70
掉了 70
台上 70
静静 70
鲜 70
卖 69
的同学 69
我对 69
把它 69
等等 69
你不 69
▁这个 69
h 69
就能 69
辉煌 69
随 69
端 69
嘴里 69
的美 69
完全 69
戴 69
迎接 69
坚持不懈 69
树枝 69
抚 69
束 69
牵 69
息 69
不同的 69
跑得 69
温 69
男孩 69
眉毛 69
看了 69
一步 69
的红 69
你在 69
因为我 69
了个 68
的光芒 68
奶 68
组 68
大了 68
观 68
叠 68
放下 68
问题 68
掌声 68
豆 68
击 68
缝 68
还能 68
笑脸 68
昂 68
袭 68
起来了 68
有多 68
眉头 68
出来的 68
答 68
虚 68
厚 68
们在 68
封 68
都没有 68
厉害 67
双脚 67
说道 67
拿起 67
绽 67
▁这就是 67
粒 67
妖 67
宁静 67
全部 67
良 67
去看 67
区 67
▁不知 67
主 67
翔 67
100 67
美妙 67
田野 67
哼 67
再见 67
天天 67
免 67
篇 67
整 67
而来 66
▁说 66
理解 66
静静地 66
雨水 66
桃 66
大喊 66
找到 66
润 66
罗 66
难以 66
z 66
▁然而 66
▁刘 66
懒 66
着我的 66
握 66
始终 66
弟 66
脸色 66
名字 66
感情 66
最好的 66
有一种 66
啪 66
撞 66
通过 66
上有 66
吵 66
受 66
楚 66
▁看着 66
的歌 65
如何 65
前的 65
现实 65
巨 65
x 65
走出 65
尺 65
开心的 65
解 65
抓住 65
常常 65
朦胧 65
姐 65
复 65
怎 65
扫 65
畅 65
应 65
流水 65
妙 65
市 65
透过 65
在地上 65
首先 65
同时 65
彼 65
热爱 65
泥土 65
捉 65
地在 65
挤 65
▁太阳 65
陪伴 65
最后一 65
. 65
我已经 65
到处 65
尔 65
都被 65
做的 65
客 65
还没有 65
先生 65
电 65
吴 64
凝 64
沥 64
硬 64
人都 64
教师 64
忧伤 64
射 64
金色的 64
▁在这 64
大自然 64
的说 64
易 64
仍 64
大树 64
级的 64
和小 64
▁就在 64
双臂 64
救 64
无限 64
颤 64
是否 64
▁只 64
到来 64
▁人生 64
儿子 63
一头 63
镜 63
往往 63
歌唱 63
了解 63
块 63
格外 63
却又 63
▁老 63
及 63
下次 63
女儿 63
段 63
没有了 63
并且 63
我说 63
躯 63
4 63
也不会 63
吼 63
宽 63
宣布 63
婉 63
他那 63
的海 63
闷 63
的路 63
悠悠 63
江南 63
响了 63
棉 63
亮的 63
母亲的 63
不由 63
精灵 63
砰 63
一根 63
不动 63
尾巴 63
主人 63
激 63
滴滴 63
胡 63
房间 62
如今 62
书包 62
孔 62
天使 62
副 62
盘 62
眼镜 62
毕业 62
佳 62
玫瑰 62
旁的 62
朱 62
趣 62
眯 62
也很 62
股 62
怡 62
唐 62
班主任 62
得很 62
▁无 62
值得 62
茫茫 62
矮 62
死了 62
抬 62
我还是 62
与我 62
▁当我 62
暑假 62
俊 62
魂 62
花开 62
的一天 62
目标 62
忍不住 61
士 61
手中 61
我便 61
醒了 61
吃饭 61
嘻 61
角落 61
像个 61
取 61
弃 61
信念 61
上学 61
幻 61
紧紧地 61
吃了 61
责任 61
哭泣 61
成为了 61
彼此 61
黑色的 61
拉着 61
横 61
脸颊 61
鹅 61
人物 61
道上 61
是一片 61
触 61
秋天的 61
瞧 61
的山 61
我心里 61
身材 61
永 61
食 61
烦恼 61
思考 61
寒冷 61
怎能 61
轻轻的 61
不上 61
招 61
睁 61
世间 61
开的 60
智慧 60
压力 60
简单 60
窗户 60
▁最 60
桑 60
活泼 60
生机 60
蓝色的 60
退 60
多的 60
繁 60
嘛 60
鹿 60
的心情 60
手上 60
法 60
那样的 60
做好 60
轻松 60
巨大的 60
桂 60
大门 60
sh 60
满脸 60
一直在 60
忘了 60
严肃 60
吟 60
婆 60
床 60
走去 60
为自己 60
途 60
▁一天 60
问我 60
坚定 60
纤 60
不见 60
苹果 60
很大 60
课堂 60
荷叶 60
▁夏 60
是我的 59
健 59
人们的 59
接受 59
都没 59
ai 59
文章 59
的气息 59
德 59
脚下 59
他说 59
长得 59
才是 59
幸福的 59
怨 59
他人 59
闭 59
贵 59
双方 59
我喜欢 59
大笑 59
我们就 59
怀念 59
碰 59
目的 59
失望 59
▁五 59
这本书 59
能力 59
咧 59
好多 59
清凉 59
脆 59
夜晚 59
故 59
脸上的 59
给了我 58
割 58
喜爱 58
筋 58
春风 58
场的 58
他是 58
也就 58
明亮 58
嘲笑 58
晕 58
逃 58
四周 58
旧 58
用手 58
每个人 58
眼里 58
性格 58
说了 58
冒 58
示 58
丢 58
乌云 58
羡慕 58
父亲的 58
蝶 58
也能 58
会的 58
执着 58
背后 58
对着 58
瑟 58
国家 58
添 58
欣喜 58
锦 58
闲 58
针 58
在你 58
记住 58
成长的 58
共同 58
顺 58
嘴唇 58
训 58
宁 58
博 58
▁接着 58
绕 58
寻 58
没了 58
代表 58
一幅 57
气息 57
那边 57
快乐的 57
五彩 57
玻璃 57
高高的 57
右手 57
道路 57
俩 57
机会 57
那就是 57
额 57
废 57
一副 57
岁的 57
早上 57
英雄 57
的在 57
未来的 57
黑色 57
旋律 57
芳 57
你要 57
我一 57
卡 57
看见了 57
除了 57
电脑 57
▁只有 57
跑去 57
深深 57
痴 57
坚 57
机 57
香味 57
放松 57
手指 57
虫 57
瓣 57
一大 57
明白了 57
的新 57
的味道 57
和你 56
欣 56
▁我喜欢 56
赢得了 56
愧 56
落的 56
陌生 56
凤 56
细细 56
一路 56
听到了 56
寂静 56
照耀 56
我一定要 56
是对 56
闪电 56
情的 56
毫不 56
完成 56
公主 56
我把 56
且 56
戏 56
跳着 56
还不 56
只会 56
辛苦 56
哭了 56
显 56
走来 56
ing 56
势 56
的书 56
▁就 56
▁白 56
热情 56
身上的 56
早就 56
蜜 56
行动 56
狂风 56
一身 56
的大眼睛 56
荡漾 56
获得 56
助威 55
神秘 55
有许多 55
漫步 55
回到了 55
吸引 55
功 55
狮子 55
乖 55
锋 55
支 55
一面 55
毫无 55
穿过 55
我可以 55
心灵的 55
辰 55
己 55
丑 55
的雪 55
我将 55
上下 55
我没有 55
室 55
精彩的 55
躺在 55
但却 55
跳舞 55
历 55
创造 55
按 55
一切都 55
拥 55
相处 55
福 55
元 55
中午 54
柳树 54
参加了 54
洁白的 54
镜子 54
体会 54
实 54
在于 54
社团 54
刷 54
是一位 54
超 54
我觉得 54
拳 54
不起 54
地走 54
章 54
树林 54
死亡 54
唱着 54
水中 54
无情 54
再也 54
外面 54
学会了 54
▁雪 54
舟 54
多姿 54
积极 54
进步 54
在这个 54
完美 54
寸 54
友 54
断了 54
去的 54
荣誉 54
灭 54
板 54
小孩 54
长发 54
了过来 54
就到了 54
猪 54
塞 54
凯 53
你就 53
轻盈 53
很久 53
深深的 53
肚子 53
熟 53
别的 53
孩子们 53
就不 53
还可以 53
叔叔 53
深邃 53
史 53
小时候 53
巧 53
一般的 53
揉 53
密 53
不怕 53
原来是 53
思想 53
有个 53
自我 53
不安 53
刮 53
早晨 53
砸 53
梢 53
盼 53
回荡 53
平时 53
▁她的 53
如果你 53
却不 53
图 53
第二名 53
凉爽 53
感受到 53
在一个 53
密的 53
人民 53
着我们 53
语言 53
洁白 53
蓝色 53
也可以 53
最大的 53
写的 53
牙齿 53
肩 53
活力 53
奇迹 53
为何 53
不清 53
架 53
影子 53
季 53
黄色 53
从来 53
樱花 53
文化 53
茧 53
▁记得 53
▁清 53
在我们 53
ang 53
怎么办 53
不行 52
浑身 52
生长 52
同样 52
友情 52
▁第二天 52
的故事 52
迷茫 52
进来 52
岂 52
等待着 52
尽管 52
无人 52
了很多 52
天堂 52
这一切 52
的人们 52
鲁 52
训练 52
是有 52
时间的 52
惹 52
一支 52
起的 52
消 52
不已 52
态 52
答案 52
模样 52
哪里 52
幼 52
期盼 52
世界上 52
个子 52
夹 52
篮球 52
进入了 52
幅 52
剪 52
梨 52
贝 52
鹤 52
第 52
街 52
的日子 52
的一生 52
凭 52
竖 52
错误 52
沙漠 52
土地 51
蹬 51
▁好 51
或是 51
部 51
程 51
乐观 51
潮 51
温馨 51
实现 51
位置 51
入了 51
三个 51
▁每 51
席 51
蜜蜂 51
自行车 51
倒了 51
是你 51
高的 51
房 51
蛇 51
老虎 51
观察 51
现在的 51
花园 51
▁当然 51
旁边的 51
句话 51
食物 51
植物 51
廊 51
一首 51
巍 51
成就 51
缤纷 51
着手 51
脑 51
乡 51
骂 51
你说 51
上帝 51
的中 51
▁我在 51
,” 51
之一 51
蒙 51
偶尔 51
叹息 51
是多么 51
件 51
环 51
萧 51
漂亮的 51
怀抱 51
灿烂的 51
纯 51
表演 51
沾 51
雁 50
特 50
看了看 50
就算 50
偷 50
▁对 50
因为它 50
▁爱 50
即 50
沉默 50
不断地 50
▁然后 50
的无 50
品 50
度过 50
我看见 50
不像 50
翘 50
宫 50
带来了 50
村 50
此刻 50
索 50
白发 50
丧 50
低头 50
歪 50
烧 50
属于自己的 50
猴 50
絮 50
珍珠 50
挨 50
锁 50
医生 50
一段 50
家长 50
羞 50
这儿 50
不用 50
地面 50
恩 50
取得了 50
我都 50
偏 50
菊 49
害羞 49
藤 49
冲向 49
贪 49
寂 49
谷 49
伴 49
一脸 49
了一年 49
几天 49
》, 49
也不是 49
顿 49
让她 49
唯 49
我最 49
作者 49
▁有一天 49
左手 49
展开 49
房子 49
烦 49
摆动 49
取了 49
那张 49
▁上 49
的力量 49
千万 49
我们去 49
纵 49
的身影 49
担心 49
▁让我们 49
▁首先 49
扯 49
就开始 49
我发现 49
比如 49
广场 49
狠狠 49
宇宙 49
眨眼 49
来临 49
着一个 49
双腿 49
o 49
认 49
琅 49
她那 49
或者 49
钟 49
伤害 49
讨厌 49
在那里 49
挠 49
下课 49
风的 49
辛 49
陶醉 49
清晨 49
赤 49
中有 48
对不起 48
淋 48
缘 48
遥远 48
的白 48
上场 48
仍然 48
走路 48
源 48
▁您 48
这句话 48
我有 48
疾 48
不出 48
冠 48
20 48
变的 48
十二 48
▁难道 48
散发着 48
摇曳 48
▁这些 48
▁红 48
我的手 48
浑 48
绝望 48
居然 48
重的 48
▁最终 48
可惜 48
最喜欢 48
辉 48
挑 48
坎坷 48
嫩的 48
在天 48
年华 48
惊讶 48
是他 48
得到了 48
负 48
摇摆 48
昏 48
伴着 48
开放 48
见了 48
来看 48
无私 48
阳光明媚 48
得意 48
倚 48
皇 48
饱 48
垃圾 48
茂 47
教导 47
临 47
繁星 47
战争 47
▁阳光 47
▁或许 47
代 47
沫 47
错了 47
涯 47
无忧 47
无穷 47
又一次 47
山上 47
流逝 47
嗯 47
热身 47
不懂 47
一句话 47
▁水 47
城市 47
▁到 47
终究 47
不是吗 47
悔 47
孤单 47
四季 47
头来 47
帅 47
哎 47
蓬 47
不小心 47
但他 47
唱歌 47
不去 47
巴 47
走着 47
吊 47
甲 47
痕迹 47
普通 47
让它 47
上了一 47
场比赛 47
面的 47
菊花 47
绿叶 47
聊 47
了这 47
默 47
兮 47
高一 47
涟漪 47
灯光 47
娜 47
永恒 47
优美 47
项 47
风筝 47
但是我 47
泊 47
夫 47
能在 47
何时 47
旷 47
逸 47
注意 47
家人 47
盆 47
▁母亲 47
一开始 47
回来了 47
朴 47
骑 47
我终于 47
格 47
式 47
变了 47
岛 47
爸 47
表现 46
胆 46
一人 46
左右 46
不屈 46
娃娃 46
离去 46
把自己 46
亲切 46
用了 46
相信自己 46
磨难 46
看来 46
扶 46
就被 46
耐 46
放学 46
壁 46
抱怨 46
头的 46
仰望 46
那位 46
坑 46
塔 46
牡丹 46
实在 46
取得 46
从不 46
深处 46
游玩 46
劳动 46
小溪 46
同一 46
连忙 46
▁听 46
在水 46
身旁 46
了过去 46
敲 46
▁自从 46
淡淡 46
班同学 46
跨 46
局 46
川 46
院 46
芳香 46
追逐 46
比我 46
中华 46
步伐 46
一点点 46
很不 46
我爱 46
书中 46
这个世界 46
大叫 46
到我 46
点缀 46
更多 46
光彩 46
抛 46
捏 46
费 46
这位 46
拿出 46
疑惑 46
翱 46
险 46
知道了 46
一口 46
蒲 45
站起来 45
悄悄地 45
吓得 45
奥 45
迷人的 45
升起 45
到达 45
倾斜 45
▁两 45
吾 45
秦 45
用心 45
▁你好 45
下雨 45
叫着 45
根本 45
永不 45
乘 45
惜 45
百米 45
我能 45
唯一 45
圆圆 45
洋洋 45
潺 45
掩 45
唉 45
形的 45
任何 45
另一个 45
搭 45
优美的 45
徒 45
种种 45
队伍 45
印象 45
舒服 45
▁山 45
我看 45
捡 45
的脸上 45
朋友们 45
居 45
融 45
en 45
伏 45
摩 45
害 45
从此 45
就像一个 45
说着 45
一刻 45
在他 45
裂 45
点的 45
皑 45
举办 45
给自己 45
渺 45
▁就这样 45
科学 45
侧 45
听了 45
洛 45
河水 45
迎来 45
那儿 45
隔 45
而出 45
丈 44
想起了 44
她是 44
... 44
跃 44
的阳光 44
懵 44
叫声 44
家庭 44
短跑 44
芬芳 44
手里 44
虑 44
没有人 44
劳 44
反而 44
一团 44
没事 44
我去 44
▁青春 44
▁正 44
捂 44
怎么样 44
奋力 44
走上 44
最后的 44
的学生 44
了一条 44
助 44
稀 44
溢 44
▁古 44
又何 44
英语 44
猴子 44
清新 44
高大 44
幼稚 44
意义 44
▁经过 44
守护 44
午 44
中最 44
但它 44
伊 44
小女孩 44
一步一步 44
▁你们 44
应该是 44
捧 44
我相信 44
的头发 44
的表情 44
散发出 44
心底 44
迅速 44
坚定的 44
当你 44
打了 44
止 44
鸭 44
尽情 44
烂 44
生存 44
因此 44
必须 44
节奏 44
选 43
有没有 43
锻炼 43
怀着 43
▁和 43
财富 43
航 43
既然 43
愿意 43
谢谢 43
的生命 43
泽 43
急忙 43
欢迎 43
宋 43
满是 43
中央 43
展现 43
倾听 43
天上 43
重要 43
也不能 43
比较 43
▁我和 43
番 43
完美的 43
想想 43
我方 43
遇见 43
回报 43
凶 43
借 43
却没有 43
陌生的 43
竹子 43
短暂 43
迫不及待 43
发现了 43
须 43
蝉 43
笼 43
一家 43
雨中 43
殿 43
成的 43
生机勃勃 43
诚信 43
童话 43
淘 43
瓶 43
冰冷 43
学生的 43
疼痛 43
考验 43
美景 43
帝 43
金色 43
黑夜 43
勤奋 43
喜欢的 43
正如 43
系 43
诉 43
意思 43
喂 43
实的 43
做一个 43
飞向 43
奏 43
顺着 43
斯 43
明明 43
里有 43
可是我 43
狐狸 43
就跑 42
头顶 42
毕竟 42
舅 42
说完 42
杰 42
小学的 42
鼠 42
▁我要 42
漂 42
死的 42
扣 42
背上 42
领先 42
学习的 42
直接 42
伸出 42
拥抱 42
▁真 42
是为了 42
调 42
陶 42
模糊 42
握住 42
也被 42
线上 42
更多的 42
池塘 42
径 42
灵魂 42
想过 42
多彩 42
感觉到 42
夜里 42
畏 42
不得不 42
浓浓 42
▁冬天 42
生日 42
裳 42
好玩 42
儿女 42
四个 42
不然 42
▁下 42
前行 42
谱 42
吃的 42
小狗 42
柱 42
出现在 42
g 42
融化 42
我家 42
要是 42
山的 42
荣 42
大片 42
无力 42
马上就要 42
盏 41
不堪 41
妈妈的 41
二十 41
▁看到 41
宝石 41
分数 41
叫做 41
地把 41
拖 41
跟我 41
动了 41
好吗 41
▁刚 41
每当 41
因为他 41
发生 41
拜 41
被人 41
咬牙 41
袖 41
之下 41
冥 41
两人 41
生活在 41
真实 41
较 41
意志 41
将会 41
祖国的 41
一棵 41
但在 41
抚摸 41
时代 41
宛如 41
满足 41
优秀 41
出现了 41
▁题 41
自豪 41
班长 41
厚厚的 41
顽强 41
▁在我 41
不复 41
我们是 41
鲜艳 41
哥 41
▁其中 41
又一 41
炼 41
无聊 41
的眼 41
绚丽 41
夕 41
纷 41
就连 41
见过 41
晒 41
▁还记得 41
雷锋 41
净 41
肩膀 41
广播 41
前方 41
起床 41
累了 41
尾 41
就把 41
说是 41
不久 41
是一场 41
做了 41
行的 41
炸 41
写着 41
隐约 41
阅读 41
共 41
小姐 41
没什么 40
湖面 40
遮 40
所谓的 40
男子 40
为什么要 40
戴着 40
不愿 40
要求 40
徘徊 40
一手 40
世界的 40
犯 40
一层 40
湖水 40
感激 40
魅力 40
足球 40
分别 40
汤 40
不经 40
立马 40
的雨 40
发展 40
困 40
不胜 40
梦中 40
▁, 40
慕 40
▁时光 40
而过 40
说不 40
我好 40
▁夏天 40
看得 40
仁 40
遗憾 40
洋 40
利用 40
杆 40
今天的 40
潭 40
的面 40
▁要 40
樱桃 40
荒 40
原因 40
b 40
明的 40
高高 40
草原 40
坚韧 40
50 40
我了 40
街上 40
▁它们 40
很有 40
黛 40
翅 40
题目 40
富 40
聪 40
好看 40
文字 40
长大了 40
之上 40
去做 40
每个人都 40
▁在这里 40
▁像 40
教学 40
呵 40
▁父亲 40
决 40
盈 40
这不是 40
小时 40
只剩下 40
另一 40
散步 40
不可能 40
到达了 40
an 40
▁想 40
做什么 40
名言 40
往前走 40
移动 40
喘 39
冻 39
形象 39
怎么能 39
齿 39
冬天的 39
坠 39
画面 39
不时 39
就像是 39
甜甜 39
底下 39
我不能 39
▁还 39
穿梭 39
织 39
我不会 39
刹那 39
哈 39
沸腾 39
暮 39
▁我爱 39
蔚 39
难过 39
穿上 39
猎 39
歌声 39
还记得 39
雕 39
造 39
凛 39
小白 39
仙女 39
众 39
样的 39
态度 39
贴 39
7 39
笑了笑 39
的朋友 39
白皙 39
年轻 39
凄凉 39
阿姨 39
茎 39
识 39
医院 39
为他 39
▁我们的 39
摘 39
上午 39
的名字 39
给人 39
你能 39
声中 39
趴 39
帆 39
不见了 39
坐着 39
的人在 39
我不知道 39
沉睡 39
学期 39
味道 39
说什么 39
渊 39
的努力 39
状态 39
在地 39
埋 39
动人的 39
教会 39
呵呵 39
▁夜 39
眼前的 39
飞扬 39
做起 39
涛 39
霄 39
深刻 39
白雪 39
把我们 39
肥 39
战士 39
界 39
8 39
颤抖 39
佛 39
熊 39
健康 39
忠 39
樱 39
笑的 39
为自己的 39
中心 39
眼角 39
赵 39
我被 38
心理 38
期 38
▁多 38
事业 38
年龄 38
馨 38
它在 38
长着 38
从未 38
千里 38
体验 38
阶段 38
▁月 38
那份 38
励志 38
队长 38
裹 38
而去 38
存 38
会上 38
的大门 38
罢了 38
支撑 38
我认为 38
之力 38
校园里 38
▁曾经 38
出生 38
县 38
小男孩 38
低下 38
距离 38
的老师 38
▁微 38
赞 38
引 38
做到 38
不但 38
主席 38
智 38
流淌 38
找到了 38
莲花 38
旋 38
▁是的 38
孩子的 38
一跳 38
心头 38
刚才 38
激励 38
简直 38
想到了 38
配 38
翼 38
富有 38
逐渐 38
蒙蒙 38
岳 38
祝福 38
6 38
到的 38
背着 38
感叹 38
战胜 38
▁外 38
简 38
展示 38
眺 38
超过 38
镇 38
妹 38
容易 38
▁每当 38
称 38
微笑着 38
▁我是 38
会儿 38
吃着 38
凄 38
猛地 38
小说 38
首歌 38
蹲 38
我们可以 38
教学楼 38
深深地 38
私 38
受伤 37
看上去 37
仅仅 37
额头 37
岁时 37
▁黄 37
努力地 37
嗖 37
▁有一次 37
▁冬 37
一圈 37
十五 37
▁谁 37
积 37
是她 37
的心灵 37
抬起头 37
乐趣 37
曹 37
经历了 37
喷 37
工 37
干什么 37
记录 37
可能是 37
有时候 37
这场 37
繁华 37
重重 37
当年 37
农民 37
着自己 37
荫 37
礼 37
成功了 37
过程 37
注定 37
自在 37
奇怪 37
小朋友 37
呼呼 37
处的 37
汁 37
瓦 37
俗 37
▁今天是 37
丰收 37
烟花 37
葡萄 37
打败 37
深沉 37
的前 37
唯有 37
场面 37
馆 37
高中 37
▁等 37
青蛙 37
坚强的 37
动力 37
音符 37
姨 37
砍 37
不相 37
皆 37
不足 37
怎么会 37
就有 37
而已 37
不服 37
▁第二 37
平常 37
撕 37
尊重 37
异常 37
科技 37
拾 37
独特的 37
行走 37
可以在 37
母校 37
▁来到 37
发的 37
破坏 37
不知不觉 37
梦幻 37
了一次 37
坛 37
贝多芬 37
q 37
璀璨 37
内心的 37
河边 37
夏日 37
地下 37
傍晚 37
了一会儿 37
当初 37
莹 37
▁天空 37
敌人 37
把手 37
爱心 37
茂盛 37
夏天的 36
满满 36
逼 36
向着 36
项目是 36
各种各样的 36
做出 36
▁那个 36
▁为了 36
我们也 36
是一条 36
飞的 36
铭 36
嘿 36
过去的 36
果实 36
一曲 36
太多的 36
韵 36
草地 36
有一次 36
赏 36
聊天 36
悄然 36
的机会 36
站了起来 36
情感 36
▁没 36
发生了 36
有几 36
了的 36
蹭 36
我希望 36
袋 36
丹 36
看不到 36
有所 36
▁是啊 36
滋味 36
留下的 36
赞美 36
▁我不 36
开花 36
之间的 36
的大海 36
握着 36
今年 36
聪明 36
作家 36
下一个 36
了一声 36
挣扎 36
湛 36
层层 36
逢 36
在她 36
熙 36
老师说 36
处处 36
两边 36
枫 36
那一刻 36
执 36
没有什么 36
▁我很 36
鼎 36
回首 36
苦难 36
玲 36
瞳 36
▁有时 36
苍白 36
回了 36
第三 36
飞来 36
檐 36
又要 36
苦涩 36
▁对于 36
手臂 36
身穿 36
我们一起 36
看书 36
怜 36
是无 36
一半 36
的家 36
是要 36
俯 36
夸 35
纹 35
呐 35
无可 35
冉 35
▁运动 35
的就是 35
每一次 35
他就 35
讲课 35
艰难 35
品味 35
后面的 35
蚕 35
,, 35
遇到了 35
你可以 35
涨 35
实验 35
眠 35
遇 35
默默地 35
和她 35
黑发 35
帽 35
果然 35
▁把 35
倍 35
▁张 35
涵 35
▁路 35
▁几 35
暴 35
留下了 35
聋 35
告诉你 35
灰尘 35
有一位 35
溅 35
和蔼 35
递 35
明亮的 35
冷静 35
下来的 35
从小 35
相遇 35
地跑 35
差不多 35
孝 35
备 35
古代 35
不错 35
娘 35
告诉我们 35
邪 35
神情 35
棋 35
雀 35
畔 35
黄河 35
浪费 35
自然的 35
空气中 35
次的 35
的颜色 35
吻 35
去找 35
▁那天 35
杏 35
状 35
香气 35
震撼 35
是用 35
短短 35
悲哀 35
谧 35
回味 35
反应 35
水面 35
站着 35
快要 35
给他 35
本来 35
育 35
粼粼 35
趁 35
气氛 35
羽毛 34
▁黑 34
清楚 34
潇 34
(2) 34
办法 34
爸妈 34
尽头 34
兽 34
▁希望 34
蜻蜓 34
睫毛 34
原谅 34
之路 34
几只 34
天真 34
罢 34
味的 34
床上 34
奈何 34
庞 34
柏 34
对待 34
敌 34
踢足球 34
招手 34
整理 34
飞逝 34
族 34
uan 34
挡 34
很快就 34
一旦 34
柔和 34
他也 34
挂在 34
了自己的 34
肠 34
悠闲 34
太过 34
▁全 34
盒 34
绸 34
一对 34
关怀 34
▁通过 34
眼的 34
都可以 34
也不知道 34
怎么了 34
运 34
足了 34
页 34
大人 34
关于 34
陆 34
严厉 34
至今 34
一同 34
好奇 34
▁我会 34
▁我也 34
跳跃 34
▁一阵 34
够 34
伴随着 34
棉花 34
日本 34
声响 34
‘ 34
欢呼声 34
手机 34
鬓 34
带给 34
套 34
亚 34
▁人们 34
老鼠 34
愿望 34
教我 34
不少 34
》。 34
周围的 34
兄 34
弓 34
小红 34
▁年 34
陌 34
各自 34
清晰 34
的一片 34
肯 34
空的 34
百花 34
咽 34
持 34
脏 34
又一个 34
▁—— 34
一班 34
(1) 34
空间 34
奖 34
希望的 34
黄昏 34
店 34
知识的 34
你怎么 34
很多人 34
滋 34
收拾 34
千年 33
羞涩 33
一个人的 33
幽默 33
起点 33
你有 33
不觉 33
铃声 33
整天 33
哲 33
欢快的 33
▁它的 33
往事 33
最好 33
挂着 33
呼唤 33
无际 33
指引 33
的问题 33
恍 33
▁转 33
皎 33
司 33
最高 33
和谐 33
嗓子 33
我真 33
命运的 33
科学家 33
▁我希望 33
中华民族 33
它们的 33
▁如今 33
贵的 33
穆 33
带领 33
是从 33
一缕 33
疑 33
蕊 33
关系 33
感受到了 33
沧桑 33
集体 33
每天都 33
地向 33
论 33
枫叶 33
皓 33
超过了 33
我非常 33
方式 33
偷偷 33
铜 33
草地上 33
兄弟 33
▁光 33
更好的 33
可怜 33
着眼睛 33
介绍 33
给人一种 33
坡 33
碗 33
再来 33
脑海里 33
星空 33
抿 33
头上的 33
泻 33
掠过 33
恐惧 33
高兴地 33
难题 33
际 33
夹杂着 33
男人 33
泡 33
这件事 33
差点 33
谦虚 33
沉重的 33
一起去 33
快点 33
短发 33
道的 33
▁回到 33
量 33
崖 33
呈 33
十八 33
幸 33
很难 33
妆 33
呱 33
歇 33
景象 33
只知道 33
飞去 33
电视 33
世人 33
有的是 33
扬扬 33
飞机 33
媚 33
是一年 33
蓄 33
计 33
圣 33
补 33
恐 33
一分 33
醒来 33
袍 33
的幸福 33
紫色的 33
in 33
拢 33
了一会 33
漠 33
热的 33
▁如 33
伟的 33
宽阔 32
憧憬 32
相互 32
瑶 32
庆 32
水晶 32
大小 32
十一 32
弱的 32
青山 32
无助 32
了一些 32
▁让 32
两旁 32
熟悉的 32
的结果 32
寒冷的 32
晶 32
沁 32
呵护 32
叫我 32
多久 32
带来的 32
了一口气 32
惬意 32
载 32
因为他们 32
课上 32
沉重 32
沐浴 32
全是 32
匹 32
坚持下去 32
踮 32
照射 32
门外 32
旋转 32
走进了 32
参 32
激动的 32
明媚 32
牌 32
流泪 32
我一直 32
毒 32
无尽的 32
她说 32
把她 32
自私 32
▁就像 32
节课 32
▁每个人 32
确 32
暴雨 32
一番 32
慌 32
得更 32
柴 32
但我们 32
在一旁 32
盎 32
红旗 32
小花 32
理由 32
日子里 32
你们的 32
承受 32
观看 32
负责 32
亲情 32
哪怕 32
脸庞 32
提醒 32
好几 32
回到家 32
疲惫 32
闪闪 32
把球 32
寺 32
了呢 32
着急 32
远的 32
涩 32
▁四 32
草坪 32
礼物 32
才发现 32
稚 32
浮现 32
的最 32
不断的 32
没人 32
似乎在 32
), 32
和平 32
往下 32
份 32
找不到 32
硕 32
前面的 32
视线 32
不喜欢 32
飞速 32
豹 32
但她 32
从前 32
这条 32
躺 32
不可以 32
着眼 32
玄 32
故乡 32
▁那些 32
不需要 32
梧 32
略 32
迷人 32
▁说完 32
用自己的 32
名叫 31
曼 31
的发 31
▁哦 31
我可 31
稻 31
建筑 31
丫 31
组织 31
衫 31
隙 31
巷 31
▁我觉得 31
的脸庞 31
转过 31
感慨 31
▁朋友 31
原地 31
舌 31
弯曲 31
同伴 31
棵树 31
穷 31
美德 31
护 31
日记 31
加速 31
悟 31
▁用 31
▁那么 31
到我们 31
这一次 31
做着 31
伸手 31
之时 31
流星 31
我不想 31
情绪 31
哑 31
争取 31
功夫 31
思绪 31
你想 31
汽车 31
一心 31
▁过 31
好久 31
削 31
每个人的 31
将来 31
食堂 31
嘉 31
很是 31
▁梦想 31
朋友的 31
勤 31
派 31
的中国 31
出门 31
的歌声 31
皇帝 31
期望 31
建 31
那就 31
▁我相信 31
却在 31
沉思 31
流着 31
▁自 31
不容易 31
生物 31
因为我们 31
开朗 31
方法 31
藏在 31
我自己 31
只不过 31
橘 31
稳 31
绝对 31
尝试 31
丰富 31
一步步 31
不说 31
冰雪 31
讨论 31
文学 31
打扮 31
平淡 31
暇 31
发出了 31
一听 31
青年 31
返 31
所谓 31
料 31
真诚 31
▁为什么 31
惊恐 31
烈日 31
▁我知道 31
集 31
我们不 31
口号 31
渐 31
中国的 31
杂 31
降 31
挪 31
女人 31
而不是 31
着脚 31
在风中 31
洪 31
简单的 31
民 31
高大的 31
魔法 31
凑 31
贡献 31
的季节 31
▁学校 31
绚烂 31
▁眼 31
王子 31
澈 31
闪闪发光 31
咪 30
说我 30
舒适 30
阁 30
耸 30
的美好 30
对自己 30
盘旋 30
激情 30
无比的 30
失落 30
辫 30
为人 30
堤 30
就没有 30
哺 30
坏了 30
是啊 30
▁而且 30
壮观 30
利的 30
激烈的 30
停下 30
键 30
年前 30
的黑 30
f 30
残疾人 30
家园 30
都不会 30
物的 30
描绘 30
亲爱的 30
我用 30
冽 30
见的 30
你看 30
庄 30
剔 30
岩 30
他不 30
我就是 30
挖 30
痕 30
注 30
结局 30
和我们 30
路上的 30
一个大 30
散了 30
艰辛 30
惊喜 30
炎 30
价值 30
和他 30
不一样 30
冲刺 30
鳞 30
大概 30
的方式 30
提高 30
跑道 30
浪漫 30
把你 30
某 30
的人都 30
彻 30
着头 30
▁为 30
屏 30
角的 30
刺激 30
场地 30
一定是 30
橙 30
责 30
不止 30
门前 30
神的 30
婀 30
四处 30
快速 30
澄 30
▁以 30
张开 30
的时刻 30
口水 30
那么多 30
侯 30
▁回 30
看过 30
玩了 30
▁站在 30
婷 30
粗糙 30
白天 30
优雅 30
留在 30
▁跳 30
人家 30
无限的 30
了他的 30
化为 30
里面的 30
安静的 30
的热 30
河流 30
地从 30
轻柔 30
就这么 30
▁生命 30
然的 30
眼眶 30
保 30
真是太 30
▁下午 30
的气 30
可怕 30
办 30
迎面 30
紧了 30
毅力 30
最美 30
火箭 30
证明 30
从中 30
骑着 30
社会的 30
悟空 30
对我的 30
糟 30
嗅 30
接触 30
渴 30
告 30
给她 30
地上的 30
个小 30
eng 30
▁生活 30
的原因 30
漫长 30
颈 30
这里的 30
汪汪 30
小心 30
所以我 30
▁在我的 30
躲在 30
报名 30
▁结果 29
三天 29
▁裁判 29
落到 29
的三 29
折射 29
仗 29
不息 29
无所 29
形成 29
很大的 29
好成绩 29
丁 29
治 29
▁啊 29
渡 29
不及 29
轻易 29
性的 29
摔倒了 29
人和 29
在小 29
说明 29
跪 29
保持 29
后退 29
▁走进 29
我也不 29
怦 29
问道 29
▁从此 29
迷失 29
竞争 29
伦 29
所有人 29
▁马 29
来自 29
”、“ 29
把他 29
小雨 29
着他 29
了自己 29
地望着 29
着脸 29
猜 29
台阶 29
搬 29
把握 29
麦 29
暴风雨 29
都说 29
还有一个 29
这片 29
就如 29
桐 29
使他 29
下着 29
小刚 29
掌握 29
期间 29
获胜 29
笼罩 29
几十 29
消失了 29
▁如果你 29
广 29
吞噬 29
顽皮 29
犹 29
舞台 29
家伙 29
梯 29
我从 29
线的 29
起伏 29
为之 29
当我们 29
宝宝 29
泄 29
▁快 29
米的 29
做事 29
飞过 29
就好像 29
也就是 29
窃 29
孕育 29
汇 29
井 29
机器 29
交流 29
在湖 29
飞到 29
对了 29
神奇 29
手的 29
焦急 29
滚滚 29
你也 29
年纪 29
革命 29
狠 29
金钱 29
对他 29
▁这样 29
都快 29
变化 29
头脑 29
发芽 29
我看到 29
又开始 29
俏 29
遥 29
登 29
正式开始 29
缺 29
戒 29
看着我 29
危险 29
闯 29
下来了 29
卧 29
东方 29
想去 29
始 29
草的 29
阶 29
上扬 29
睛 29
第二次 29
一排 29
欢笑 29
了一句 29
牺牲 28
ch 28
海的 28
超越 28
作品 28
滨 28
占 28
满头大汗 28
▁海 28
400 28
艺术 28
鞭 28
海伦 28
着你 28
在家 28
本书 28
献 28
柔软 28
者的 28
▁青 28
五十 28
我总是 28
的头 28
充实 28
那条 28
过我 28
风和 28
怅 28
▁果然 28
强大 28
摔倒 28
▁假如 28
烤 28
有一只 28
了她 28
书籍 28
爬山 28
乳 28
昨天 28
各个 28
盛开 28
牵挂 28
克 28
热烈的 28
的美丽 28
觉得自己 28
炎炎 28
魅 28
研究 28
答应了 28
饿 28
意外 28
诗人 28
小事 28
肺 28
议论 28
归来 28
努力的 28
北京 28
儿的 28
夺目 28
强者 28
森林里 28
府 28
脉 28
听说 28
大雨 28
’ 28
睁开 28
的有 28
花园里 28
看的 28
披着 28
在他的 28
桶 28
天生 28
都知道 28
▁( 28
的同时 28
一遍 28
上一次 28
嫣 28
炎热 28
着他的 28
电话 28
从我 28
笛 28
慧 28
柱子 28
安排 28
▁书 28
▁瞧 28
早早 28
殿堂 28
我现在 28
▁接下来 28
有一些 28
是的 28
很高 28
你是否 28
冷漠 28
有一点 28
分享 28
的成绩 28
晴朗 28
我明白了 28
曲折 28
萌 28
开口 28
小路 28
开学 28
帮我 28
臭 28
屁股 28
质 28
厘米 28
骄 28
复苏 28
怀里 28
赢得 28
▁安 28
脆弱 28
地点 28
最喜欢的 28
丰富多彩 28
留下一 28
我没 28
出发 28
都像 28
一点儿 28
列 28
泣 28
士兵 28
无瑕 28
▁不是 28
两颗 28
奈 28
表达 28
科 28
写了 28
意的 28
畏惧 28
一点一点 28
赞叹 28
让他们 27
炮 27
有过 27
西瓜 27
很美 27
了一片 27
挚 27
我们会 27
怎样的 27
互 27
承担 27
油的 27
球门 27
乃 27
忙碌 27
上天 27
走廊 27
▁那时 27
我只 27
又大 27
外表 27
来回 27
立的 27
随即 27
像在 27
出场 27
辱 27
毅 27
各位 27
弥漫 27
就是这样 27
我一定会 27
了一只 27
榕 27
欺负 27
了一点 27
▁二 27
的母亲 27
不应该 27
楼梯 27
▁第一 27
权 27
自主 27
用尽 27
我叫 27
放着 27
春季 27
汪 27
小猫 27
但又 27
还未 27
不顾 27
演绎 27
已被 27
哄 27
▁每次 27
的两 27
不甘 27
他用 27
▁李 27
州 27
沿着 27
照顾 27
起来的 27
我看到了 27
尤 27
的方向 27
对我们 27
200 27
尚 27
茵 27
魄 27
以前的 27
框 27
震 27
▁我们要 27
只是一 27
很小 27
布满 27
脑海中 27
在学校 27
▁周 27
却被 27
▁当时 27
人为 27
陵 27
的项目 27
是大 27
咚 27
父母的 27
不肯 27
偎 27
正好 27
等到 27
偶然 27
是一次 27
”,“ 27
分开 27
恬 27
呼啸 27
狮 27
塘 27
假期 27
睡着了 27
永远不会 27
器 27
的身体 27
苍穹 27
哪个 27
▁别 27
途中 27
灰色的 27
已久 27
挽 27
不平 27
累累 27
把这 27
举起 27
的神情 27
乌鸦 27
混 27
复杂 27
门的 27
拿到 27
达到 27
当他 27
雄伟 27
神圣 27
爱我 27
经历过 27
变幻 27
几分 27
A 27
▁面对 27
痛苦的 27
我开始 27
的下 27
这只 27
珍 27
写作 27
小巧 27
光的 27
爬到 27
马尾 27
宿 27
外面的 27
琳 27
单纯 27
演 27
驶 27
钥匙 27
嫌 27
湘 27
优 27
笑着说 27
是没有 27
它就 27
你知道 27
鲁迅 27
给它 27
见证 27
豆腐 27
自身 27
一时 27
加快 27
懦 27
逊 27
扁 27
老师和 27
立即 27
我真的 27
注视着 27
”! 26
椅 26
洗礼 26
很高兴 26
写下 26
靠近 26
▁先 26
逗 26
】 26
选择了 26
坚信 26
的口 26
沐 26
穿上了 26
总是在 26
抚摸着 26
复习 26
敬佩 26
迹 26
测 26
与你 26
风光 26
诸葛 26
s 26
在阳光 26
时期 26
鼓掌 26
故意 26
冷的 26
读懂 26
瀚 26
奔向 26
的老人 26
如果没有 26
规 26
▁双方 26
开着 26
打篮球 26
▁听到 26
秃 26
演奏 26
宿舍 26
拳头 26
想法 26
浊 26
▁只是 26
随时 26
玩具 26
霸 26
左边 26
不能再 26
哪儿 26
甜蜜 26
它能 26
僵持 26
活跃 26
个性 26
江河 26
驳 26
▁王 26
清醒 26
▁每天 26
日夜 26
错过 26
的情 26
避 26
骗 26
大方 26
郁郁葱葱 26
把头 26
精致 26
桌子 26
的确 26
姥爷 26
那只 26
▁第一个 26
鸽 26
疯 26
帽子 26
想的 26
抓着 26
疯狂 26
霎 26
情景 26
的黄 26
承认 26
通往 26
的女孩 26
十几 26
咦 26
▁有人说 26
支持 26
远去 26
只要你 26
不住了 26
独立 26
登上 26
的第一 26
淅淅 26
那时候 26
没有任何 26
舌头 26
▁直到 26
座位 26
释 26
绊 26
尽全力 26
的步伐 26
速 26
无一 26
有力 26
折磨 26
▁过了一会儿 26
解决 26
透明 26
动物园 26
肆 26
晖 26
增添 26
危 26
打算 26
缭 26
了不少 26
呲 26
绿树 26
勇于 26
遗忘 26
逆 26
▁金 26
假如 26
好象 26
铭记 26
从而 26
郭 26
青春的 26
葱 26
靠着 26
我怎么 26
大学 26
路的 26
瑞 26
十大 26
是这样的 26
图书馆 26
已是 26
的话语 26
自觉 26
小河 26
的一面 26
不高 26
冬季 26
郑 26
带我 26
燃烧 26
信任 26
嬉 26
雀跃 26
真的很 26
角落里 26
▁长 26
麻烦 26
鞋子 25
谁能 25
一匹 25
碌 25
污 25
的速度 25
ie 25
有趣的 25
唤醒 25
魏 25
受到 25
培养 25
仇 25
走的 25
事物 25
壶 25
腔 25
形容 25
财 25
的美景 25
祖母 25
的土地 25
就好 25
会不会 25
茉莉 25
哨子 25
你还 25
2011 25
- 25
一动不动 25
脚印 25
是一只 25
▁在这个 25
斩 25
喊道 25
▁观众 25
勤劳 25
喝彩 25
要去 25
英语老师 25
强的 25
究竟 25
国的 25
属 25
只剩 25
看似 25
导 25
贪婪 25
时不时 25
阔 25
▁也 25
五年级 25
过一 25
不放弃 25
窜 25
愤怒 25
厨房 25
▁只要 25
火焰 25
依靠 25
寞 25
灵活 25
是我们的 25
了一件 25
固执 25
鸡蛋 25
愤 25
皱眉 25
点了 25
具 25
知的 25
则是 25
他们在 25
是小 25
从容 25
自己是 25
塌 25
泰山 25
付 25
走出了 25
认真的 25
剧 25
感悟 25
零食 25
一百 25
拥有了 25
实力 25
穿越 25
香的 25
开启 25
挥舞着 25
而上 25
的学习 25
资料 25
照片 25
紫色 25
魔鬼 25
意识 25
纯真 25
但还是 25
郎 25
另 25
乐园 25
河的 25
▁校园 25
他又 25
道德 25
就不会 25
的女生 25
过得 25
真的是 25
他还 25
9 25
篮 25
的鱼 25
再加上 25
为他们 25
亡 25
这不 25
走到了 25
琪 25
习惯了 25
▁湖 25
心态 25
破了 25
上看 25
缺点 25
首诗 25
灯火 25
▁向 25
尊严 25
给了我们 25
身边的 25
尽了 25
一想 25
▁十 25
光辉 25
嗒 25
汐 25
足以 25
裤 25
无情的 25
的可 25
▁做 25
▁若 25
世上 25
世纪 25
殷 25
疚 25
也是一种 25
最爱 25
的人物 25
出一个 25
一本 25
供 25
基 25
虽然没有 25
无不 25
:” 25
隆 25
灌 25
十六 25
朝着 25
不幸 25
天上的 25
再一次 25
小心翼翼 25
粘 25
不就是 25
▁这一 25
辛勤 25
开玩笑 25
这份 25
很开心 25
违 25
不算 25
弧度 25
到处都是 25
打招呼 25
肩上 25
他没有 25
爷 24
可笑 24
不再是 24
敏 24
防 24
敢于 24
分的 24
动人 24
枯萎 24
期的 24
向外 24
闭上 24
饺子 24
花在 24
的血 24
ian 24
珑 24
澎湃 24
爹 24
遗 24
准 24
的神 24
不一样的 24
骤 24
的她 24
办公室 24
被子 24
那次 24
海中 24
▁晚上 24
眷 24
▁柳 24
倒在 24
更为 24
脾 24
这样一个 24
施 24
▁因此 24
停留 24
默默无 24
众人 24
地里 24
自由的 24
将它 24
普 24
演讲 24
残酷 24
有多少 24
博物馆 24
不必 24
主要 24
更好 24
板上 24
蜡烛 24
三十 24
了在 24
老了 24
着她 24
当成 24
也无法 24
已经在 24
▁读 24
任务 24
业 24
一日 24
生死 24
回家了 24
勃勃 24
搓 24
不一 24
高山 24
加入 24
胳膊 24
打击 24
朵花 24
就已经 24
栽 24
轰 24
不着 24
挥手 24
爪 24
天鹅 24
骏 24
才有 24
沉浸在 24
得上 24
▁开 24
迁 24
降临 24
停了 24
卫 24
确实 24
继 24
莉 24
抬起 24
忧郁 24
低着头 24
棒的 24
谢谢你 24
心疼 24
小孩子 24
组成 24
乡村 24
及时 24
底的 24
▁每个 24
批评 24
很少 24
画家 24
广阔 24
纳 24
额头上 24
而下 24
转动 24
安详 24
景点 24
肃 24
之地 24
某个 24
腊 24
不对 24
接过 24
所有人都 24
过了一会儿 24
这是我 24
也许是 24
用的 24
空白 24
贫 24
心地 24
的到来 24
唯一的 24
怀疑 24
花了 24
矛盾 24
赶快 24
末 24
拿到了 24
全都 24
蜘蛛 24
厉 24
又在 24
屈 24
一一 24
迟 24
高考 24
丰 24
的一次 24
弥漫着 24
的脸颊 24
老家 24
除 24
笋 24
清水 24
岭 24
他却 24
有人说 24
▁你的 24
的面孔 24
妩媚 24
这场比赛 24
天际 24
谋 24
笨 24
嗦 24
星光 24
▁一次 24
成为一个 24
好像是 24
闪耀 24
什么呢 24
草丛 24
也都 24
再也不 24
轮回 24
盛开的 24
楠 24
值得我们 23
枯燥 23
场景 23
步入 23
骨的 23
永远是 23
乐曲 23
几步 23
满意 23
了两 23
随意 23
紧张的 23
殇 23
我不是 23
给大家 23
伤痕 23
提出 23
专心 23
抵 23
不够 23
了多少 23
沙子 23
狐 23
适应 23
忆 23
品质 23
泰 23
落后 23
落地 23
无言 23
要把 23
呜 23
不太 23
现场 23
内容 23
可能会 23
说到 23
水果 23
体现 23
车上 23
蕾 23
▁在一个 23
不开 23
完成了 23
着一副 23
孟 23
直的 23
住在 23
犹豫 23
我这 23
▁开始 23
尽力 23
▁蓝 23
开幕 23
反正 23
蛋糕 23
你去 23
小小 23
我们应该 23
12 23
柿 23
严 23
眼光 23
痒 23
脚尖 23
▁林 23
的那一刻 23
运会 23
唠叨 23
一杯 23
他对 23
它会 23
打破 23
以来 23
蜗牛 23
沙滩 23
我做 23
兰花 23
▁整个 23
思维 23
普通的 23
波浪 23
联 23
整个世界 23
地位 23
情况 23
的很 23
(3) 23
我那 23
的夜 23
解释 23
至少 23
瞬 23
湿润 23
天气晴朗 23
尊 23
云层 23
荆 23
永恒的 23
的上 23
爱你 23
辽阔 23
查 23
森 23
改正 23
嵌 23
不大 23
买了 23
学校里 23
饭菜 23
气势 23
就是一个 23
具有 23
水里 23
攀登 23
灾难 23
享受着 23
撇 23
缠 23
四十 23
黑暗的 23
欧阳 23
看不见 23
说你 23
道路上 23
▁后 23
两天 23
▁成功 23
盼望 23
艰苦 23
哟 23
很长 23
的草 23
脂 23
盲 23
四年 23
▁此 23
美国 23
这才 23
的音乐 23
发了 23
眼中的 23
不分 23
是如此 23
新闻 23
碰到 23
一小 23
此时的 23
委屈 23
主持人 23
爆 23
延续 23
满怀 23
放手 23
这么多 23
▁你看 23
踏上 23
晚了 23
一口气 23
屋里 23
届 23
牢 23
一秒 23
偏偏 23
祸 23
过头 23
劝 23
人也 23
世界里 23
右边 23
山水 23
院子里 23
的金 23
十月 23
腹 23
伤口 23
大眼睛 23
栋 23
我来 23
长江 23
刚开始 23
比赛中 23
袄 23
放心 23
美人 23
悄 23
m 23
胜利的 23
得好 23
彬 23
▁由于 23
就没 23
脾气 23
【 23
垒 23
优秀的 22
华丽 22
遇到困难 22
箱 22
不听 22
给他们 22
退缩 22
宜 22
其中的 22
雨伞 22
▁让我 22
真好 22
银河 22
擞 22
唤 22
兴趣 22
并非 22
波纹 22
▁北 22
开门 22
倾诉 22
多个 22
铲 22
欲望 22
导致 22
闺 22
▁真是 22
我感觉 22
祈祷 22
那人 22
舔 22
冷酷 22
缺少 22
暗淡 22
投入 22
不成 22
事的 22
实现了 22
打量 22
和三 22
的少女 22
几个人 22
一年级 22
褪 22
而我们 22
冒着 22
劲儿 22
播种 22
控制 22
干嘛 22
年来 22
少的 22
节目 22
一跃 22
炫耀 22
自己在 22
奇的 22
咆哮 22
这座 22
领略 22
大约 22
▁心 22
朝我 22
无数的 22
滑落 22
三千 22
姿势 22
弧 22
死去 22
的希望 22
▁有人 22
棍 22
拘 22
面无 22
拇指 22
期待着 22
心跳 22
进行了 22
使用 22
领奖 22
一动 22
填 22
还是在 22
油菜 22
让我的 22
不好意思 22
有一个人 22
茁 22
满面 22
看我 22
才知道 22
的女子 22
家中 22
停了下来 22
斓 22
薄薄的 22
剩 22
中的一 22
良好的 22
使我们 22
的过程 22
诺 22
错的 22
吸取 22
的小鸟 22
里面有 22
树干 22
看出 22
点点头 22
▁当你 22
件事 22
▁新 22
可以看到 22
庆祝 22
影响 22
往上 22
竿 22
糊 22
停止 22
棱 22
褐 22
远离 22
洋溢着 22
察觉 22
围着 22
奖杯 22
还有很多 22
坚硬 22
落在了 22
逐 22
特点 22
我坐在 22
年轻的 22
惟 22
抄 22
举行了 22
咔 22
僧 22
走近 22
站在那里 22
些许 22
便会 22
充满着 22
等我 22
拿了 22
摊 22
愈 22
公司 22
球员 22
燥 22
坐下 22
▁我还 22
记忆中 22
重要的 22
歌曲 22
的妈妈 22
遮住了 22
奕 22
包裹 22
潇洒 22
还有许多 22
淤泥 22
几次 22
臣 22
精心 22
下一次 22
▁阿 22
游览 22
有一条 22
第二天 22
广场上 22
蹄 22
装饰 22
特别是 22
窟 22
拦 22
躁 22
的社会 22
锐 22
▁中国 22
罪 22
缀 22
全力 22
轨迹 22
中年 22
是很 22
高声 22
▁那是一个 22
教你 22
黑暗中 22
有两个 22
而在 22
膛 22
因为你 22
阻挡 22
▁美 22
宛 22
更有 22
在你的 22
可亲 22
翡翠 22
毛病 22
明年 22
有一座 22
▁叶 22
七八 22
对面 22
毕 22
美食 22
强大的 22
流下 22
发挥 22
这般 22
朝阳 22
同样的 22
十年 22
虚伪 22
纯净 22
透了 22
缓 22
语的 22
可见 22
给我的 22
着它 22
朗的 21
小子 21
但也 21
纪念 21
又会 21
历经 21
了一起 21
覆 21
算是 21
令人心 21
必定 21
嘱 21
第五 21
所以我们 21
课外 21
煦 21
诺言 21
的人是 21
你不是 21
路口 21
渲染 21
了一眼 21
戴上 21
十足 21
开来 21
这一天 21
港湾 21
打开了 21
向他 21
的树木 21
会被 21
弯腰 21
槐 21
的动力 21
素质 21
只有一个 21
人才 21
密密麻麻 21
上海 21
胖胖 21
扉 21
更快 21
使者 21
▁无论 21
凝固 21
游客 21
透露 21
拧 21
范 21
抛弃 21
辞 21
劫 21
楼下 21
因为在 21
那颗 21
儿童节 21
路边 21
个小时 21
掀 21
细节 21
饼 21
每一天 21
这样做 21
物理 21
生动 21
摘下 21
蛾 21
品尝 21
什么事 21
得太 21
几年 21
加快了 21
充 21
身高 21
主角 21
真心 21
吃完 21
几百 21
安全 21
城堡 21
▁试 21
在上面 21
翩 21
我最喜欢的 21
儿童 21
陆续 21
少了 21
体会到 21
之际 21
▁尽管 21
宣 21
菲 21
采访 21
党 21
温度 21
▁之后 21
奇妙 21
倩 21
今天是 21
随便 21
说他 21
大哥 21
▁梅 21
心思 21
迫 21
使得 21
是您 21
阳光下 21
觉得很 21
对你 21
诚 21
放眼 21
地狱 21
绚 21
斗争 21
的吗 21
的衣服 21
半天 21
玩笑 21
什么是 21
分明 21
等你 21
斤 21
之所以 21
特色 21
昏暗 21
冰冷的 21
停留在 21
ao 21
去过 21
夏季 21
▁去年 21
建设 21
不论 21
的发展 21
依然在 21
了一层 21
无尽 21
的路上 21
绣 21
溪流 21
屋子 21
那里的 21
就说 21
远处的 21
逃避 21
变得更 21
漆 21
宝贝 21
细腻 21
如一 21
正视 21
妍 21
虾 21
却发现 21
其它 21
大家一起 21
家族 21
形状 21
▁云 21
我国 21
和一 21
▁我说 21
一粒 21
一辆 21
君子 21
新鲜 21
的气氛 21
的了 21
我知道了 21
海底 21
行为 21
停下来 21
充斥着 21
津津 21
无形 21
一辈子 21
利益 21
之心 21
15 21
▁绿 21
)。 21
蔷薇 21
整个人 21
第三名 21
恰 21
表示 21
螃蟹 21
抓住了 21
▁有些 21
熊猫 21
点燃 21
我已 21
▁这一次 21
发现自己 21
快了 21
做到了 21
包括 21
▁”“ 21
难受 21
谛 21
加上 21
半个 21
课本 21
岚 20
缠绕 20
以至于 20
的小女孩 20
14 20
彻底 20
思索 20
你自己 20
迪 20
?! 20
曦 20
和我一起 20
患 20
计划 20
高三 20
帮你 20
感动了 20
尘埃 20
豁 20
连续 20
不出来 20
今后 20
传说 20
黝 20
存在的 20
师傅 20
响亮 20
▁这种 20
滩 20
喝水 20
学院 20
▁明 20
的地 20
过着 20
风格 20
莺 20
吉 20
记忆的 20
▁那是 20
续 20
抑 20
总能 20
30 20
煤 20
定了 20
的外 20
婆婆 20
图画 20
的脚 20
漆黑 20
了一位 20
悬崖 20
咖啡 20
是一件 20
拍照 20
筒 20
只能在 20
爱护 20
殊 20
▁来 20
就是在 20
播 20
活下去 20
缎 20
帮忙 20
好友 20
奔腾 20
桌上 20
分离 20
不会再 20
簌 20
她在 20
奖状 20
人说 20
增 20
中国人 20
她也 20
旅游 20
猛然 20
异的 20
佩服 20
发出的 20
顶上 20
片刻 20
意识到 20
闪光 20
梦想中的 20
惘 20
和他们 20
熄灭 20
承 20
散的 20
宝贵的 20
但你 20
更大 20
饱满 20
拒绝 20
过往 20
给我们的 20
受不了 20
长大的 20
地问 20
有多么 20
蹈 20
身着 20
疏 20
谁会 20
▁而我 20
氏 20
熠熠 20
▁这里 20
酷 20
世界上最 20
作响 20
非凡 20
日出 20
草坪上 20
颂 20
▁前 20
时常 20
诱惑 20
恐怕 20
恐怖 20
一起来 20
美术 20
乐于 20
目的地 20
赛场 20
再说 20
甜美的 20
耀眼的 20
泉水 20
紧握 20
亮了 20
尽的 20
恶魔 20
茫 20
技术 20
创造了 20
型 20
们也 20
条件 20
▁以前 20
到最后 20
粗心 20
带上 20
看他 20
永远的 20
未曾 20
的树 20
地将 20
录 20
▁班 20
想在 20
一脚 20
外套 20
▁苏 20
总有 20
批 20
惆 20
亲吻 20
一起在 20
小船 20
观赏 20
警察 20
胜负 20
襟 20
休 20
闻到 20
那年 20
泼 20
带走了 20
丰富的 20
展开了 20
茹 20
你没有 20
检查 20
赫 20
愉悦 20
在脸上 20
身份 20
踏实 20
柔软的 20
稍 20
俱 20
时空 20
答应 20
中学生 20
最近 20
当作 20
的一点 20
爬上 20
坚守 20
密密 20
老天 20
他把 20
看到的 20
有力的 20
不一定 20
星球 20
鸦 20
韩 20
脊 20
煞 20
污染 20
那一天 20
薇 20
在比赛 20
一笔 20
鸿 20
聚 20
清爽 20
现在我 20
记者 20
涂 20
小心翼翼地 20
摇晃 20
言语 20
照着 20
得知 20
将我 20
斯特 20
好事 20
一方 20
仅 20
的门 20
行人 20
怎么回事 20
驼 20
窗子 20
弥 20
笼罩着 20
看着他 20
和尚 20
疲倦 20
香甜 20
整整 20
嘟嘟 20
大事 20
类 20
踏入 20
来不及 20
钢 20
难忘的 20
我感到 20
起身 20
课时 20
姿态 20
耶 20
年代 20
遥远的 20
心脏 20
炎热的 20
忘记了 20
的知识 20
屈服 19
▁一开始 19
最好的朋友 19
笑话 19
有用 19
登上了 19
的队伍 19
周末 19
了整个 19
鞭炮 19
日葵 19
一点也不 19
憔 19
活的 19
的多 19
浇灌 19
▁发 19
到现在 19
尖叫 19
耿 19
只为 19
古老 19
点头 19
承载 19
路灯 19
了一大 19
准备好 19
希 19
我刚 19
火车 19
▁请 19
严寒 19
欢喜 19
火烧 19
淳 19
要有 19
队在 19
一定能 19
每一个人 19
▁怎么 19
▁没错 19
画画 19
深渊 19
光明的 19
百姓 19
▁女孩 19
叛逆 19
岛上 19
失明 19
无疑 19
湾 19
光亮 19
讲话 19
如梦 19
▁早晨 19
▁学习 19
画的 19
挫 19
焉 19
得以 19
最后一个 19
敌方 19
另外 19
▁我真 19
但他们 19
困难的 19
厌 19
忐忑 19
稀疏 19
车的 19
一行 19
偷懒 19
咸 19
流动 19
一夜 19
我都会 19
不完 19
煮 19
怎么可能 19
悴 19
尸 19
认真地 19
腮 19
鲜血 19
▁不管 19
作用 19
玛 19
海边 19
置 19
星期 19
挡住了 19
一次又一次 19
了这个 19
▁的 19
贤 19
叽叽喳喳 19
莎 19
享 19
部分 19
决心 19
的小路 19
寒冬 19
金牌 19
回家的路上 19
▁相信 19
颖 19
一览 19
现代 19
崭新的 19
身为 19
我们还 19
哉 19
破碎 19
意味着 19
棕色的 19
顺利 19
不易 19
地对 19
懒腰 19
注意到 19
啃 19
更高 19
就去 19
在自己的 19
砖 19
胡子 19
▁雷 19
开阔 19
停在 19
融入 19
海里 19
配合 19
未知 19
值 19
有一股 19
担 19
的空气 19
越大 19
交往 19
在水中 19
症 19
深刻的 19
两岸 19
怯 19
但是我们 19
羁 19
催 19
流过 19
淑 19
美味 19
的皮肤 19
他已经 19
正式 19
泽东 19
亲自 19
旭 19
碧玉 19
倒在地 19
▁夜晚 19
刺痛 19
搂 19
阳台 19
而起 19
跺 19
霖 19
堕落 19
见底 19
的眼光 19
揪 19
一轮 19
河里 19
代表着 19
赖 19
想念 19
火的 19
蜿蜒 19
碎了 19
”; 19
虚无 19
亲人 19
会是 19
劈 19
那么多的 19
筑 19
强烈的 19
▁月亮 19
那个人 19
伐 19
进门 19
的梦想 19
姓 19
说出 19
睡着 19
只想 19
攀 19
这下 19
将军 19
妈妈说 19
轮椅 19
遭 19
度的 19
秋季 19
工人 19
伪装 19
之外 19
来找 19
否则 19
平安 19
的呢 19
不错的 19
遨 19
视着 19
用脚 19
肚 19
用来 19
甚 19
地为 19
游乐 19
离合 19
嘲讽 19
沟 19
视野 19
黎明 19
送来 19
萦绕 19
气愤 19
日里 19
妖娆 19
趁着 19
雪人 19
的那一天 19
▁总 19
梭 19
快速地 19
▁果 19
委员 19
浸 19
十三 19
栀 19
枣 19
雅的 19
焰 19
耀 19
马路 19
有两 19
同情 19
▁我们在 19
愉快 19
散发 19
▁早上 19
走过来 19
反复 19
这次的 19
标 19
电影 19
浇 19
阴影 19
得多 19
一点的 19
水流 19
古老的 19
我的朋友 19
空虚 19
颓 19
诡 19
你已经 19
欺骗 19
的时光 19
两位 18
颊 18
十九 18
▁坐在 18
倦 18
排队 18
一束 18
气球 18
之旅 18
迎来了 18
胎 18
了一番 18
传来的 18
p 18
▁我不知道 18
入学 18
熏 18
鼓舞 18
传递 18
当时的 18
交织 18
了一道 18
放假 18
激起 18
扶着 18
也想 18
化的 18
▁中午 18
窗帘 18
我与 18
战斗 18
你了 18
喇叭 18
庄稼 18
闭上眼睛 18
出口 18
旱 18
约定 18
的夜晚 18
▁正如 18
咕 18
离不开 18
谦 18
悬 18
去寻找 18
厚的 18
▁就是 18
无意 18
构成 18
其他人 18
不被 18
羽毛球 18
抽出 18
阶梯 18
滞 18
忍受 18
搞 18
比分 18
摧 18
小巷 18
例 18
蛮 18
的目标 18
热烈 18
古朴 18
相识 18
了一遍 18
不爱 18
紧接着 18
此起 18
脑海 18
表扬 18
适 18
▁俗话说 18
的世界里 18
渔 18
拐 18
▁很 18
才会有 18
园丁 18
长时间 18
醇 18
大意 18
手脚 18
大哭 18
水平 18
包围 18
好吃 18
哧 18
冒险 18
半个小时 18
你就会 18
可口 18
是一名 18
不留 18
尊敬 18
境界 18
梦里 18
的他 18
话说 18
丧失 18
微的 18
▁我认为 18
铿 18
读了 18
马上就 18
警惕 18
宴 18
是为 18
时代的 18
捞 18
有种 18
▁有了 18
饿了 18
开出 18
淡的 18
蓦 18
拉了 18
璃 18
忘却 18
着大 18
祖父 18
见面 18
▁深 18
队友 18
变得更加 18
▁日 18
神圣的 18
▁走 18
实践 18
欣慰 18
反思 18
她却 18
听得 18
汹涌 18
▁第一次 18
咋 18
华丽的 18
设备 18
已经被 18
诗意 18
货 18
▁但是我 18
以后的 18
五个 18
锵 18
与我们 18
刻苦 18
向下 18
感的 18
脑后 18
两队 18
说得 18
的一位 18
的小孩 18
剩下 18
产生 18
举着 18
盏灯 18
高贵 18
课程 18
发光 18
我们能 18
经得起 18
成果 18
的一种 18
麻雀 18
运用 18
我们已经 18
只是一个 18
束缚 18
从天 18
镶嵌 18
攥 18
又能 18
面具 18
为什么不 18
回过 18
气质 18
不苟 18
人类的 18
▁上课 18
合作 18
冲出 18
走吧 18
砺 18
我还要 18
因为有 18
齐心 18
大部分 18
关爱 18
看不 18
深的 18
节约 18
座位上 18
抗争 18
原来的 18
协力 18
到我的 18
平静的 18
全国 18
梳 18
人民的 18
不解 18
追赶 18
公里 18
快乐地 18
著名的 18
各式 18
▁这时候 18
可以说 18
车子 18
强壮 18
我想起了 18
的工作 18
餐 18
今日 18
你可 18
张扬 18
武器 18
当中 18
▁被 18
阻止 18
国王 18
和其他 18
源泉 18
省 18
是一颗 18
老板 18
使命 18
永久 18
叹了口气 18
跌 18
音乐家 18
流连忘返 18
走过的 18
很容易 18
问候 18
仲 18
规则 18
的主 18
摇了摇头 18
投向 18
小山 18
关注 18
▁幸福 18
▁他在 18
佩 18
的果实 18
你来 18
苦苦 18
叉 18
为此 18
邻居 18
炽 18
也好 18
向你 18
黝黑 18
▁未来的 18
惊奇 18
伟人 18
中考 18
幸好 18
已经开始 17
睿 17
成了一个 17
蜷 17
饶 17
转过身 17
我们有 17
不知所措 17
沉着 17
农村 17
肢 17
追寻 17
热闹的 17
▁既然 17
最多 17
振奋 17
历史的 17
榜样 17
小区 17
入睡 17
交响曲 17
再也没有 17
感觉不到 17
清新的 17
制 17
容颜 17
现实的 17
分为 17
那你 17
职 17
这就 17
▁吃 17
邻 17
将要 17
卫生 17
说不定 17
不为 17
医 17
一到 17
造成 17
的位置 17
盯 17
庭 17
就会有 17
矣 17
烫 17
有好 17
▁小时候 17
越来越多 17
裙子 17
寂寞的 17
陷入 17
惭 17
▁不久 17
老头 17
期末考试 17
对话 17
做准备 17
社 17
悲剧 17
芙蓉 17
ui 17
零零 17
婴儿 17
在那儿 17
弄得 17
t 17
火花 17
了我们的 17
▁顺 17
地毯 17
▁与 17
以往 17
学生们 17
斗志 17
峨 17
讲述 17
的城市 17
春秋 17
只是在 17
姑姑 17
倒霉 17
湿的 17
参观 17
的后 17
在做 17
的精 17
16 17
紧闭 17
在阳光下 17
循 17
脑子里 17
笑起来 17
橘子 17
正确的 17
萝卜 17
躺在床上 17
打扰 17
庙 17
人是 17
同时也 17
奉 17
,1 17
全世界 17
有意义 17
沟通 17
▁还是 17
恒 17
完后 17
什么都不 17
繁荣 17
名利 17
的一样 17
喧闹 17
绷 17
残酷的 17
多年 17
很远 17
所说的 17
餐厅 17
片的 17
的马 17
爆炸 17
不下 17
还好 17
丑陋 17
要在 17
定格 17
惠 17
通向 17
喷泉 17
巨人 17
平等 17
的内容 17
嫁 17
济 17
星期六 17
最美丽的 17
农 17
吃过 17
我再 17
笑笑 17
栩栩如 17
不变 17
扭曲 17
沉浸 17
主题 17
的云 17
的表现 17
圆满 17
水泥 17
墙上 17
颤动 17
▁拉 17
一队 17
设计 17
旦 17
▁同 17
拍打 17
爱国 17
没错 17
剂 17
风景线 17
小王 17
全场 17
屁 17
ha 17
新鲜的 17
花花 17
颇 17
第二个 17
放弃了 17
也像 17
尘土 17
通的 17
蟋蟀 17
实地 17
久了 17
讲台 17
考了 17
缘分 17
面容 17
欺 17
面临 17
成员 17
不住的 17
弥补 17
伤痛 17
之情 17
跃跃 17
书本 17
环绕 17
念头 17
迷雾 17
啼 17
打破了 17
凤凰 17
正常 17
绒 17
十四 17
干的 17
熟睡 17
难免 17
之门 17
沙滩上 17
放开 17
宠 17
停止了 17
道歉 17
付出了 17
脚踏 17
生活中的 17
时节 17
他会 17
阴沉 17
也将 17
楼的 17
灵动 17
勿 17
足球比赛 17
善于 17
青少年 17
艺 17
栏杆 17
就此 17
屹 17
但是他 17
见到了 17
替 17
负有 17
而言 17
巫 17
彷 17
放了 17
姬 17
积雪 17
去看看 17
看完 17
严肃的 17
感染 17
下巴 17
阻 17
一组 17
相比 17
女孩子 17
晴天 17
嘶 17
▁有时候 17
燃 17
胸前 17
掐 17
的人群 17
蔓延 17
我只能 17
的过程中 17
经验 17
的还是 17
是成功 17
同一个 17
讨 17
那不是 17
搭配 17
三三 17
胧 17
芦苇 17
做错 17
雷电 17
芒 17
各样的 17
想把 17
心爱的 17
夜的 17
情愿 17
徨 17
我们自己 17
矗立 17
蒸 17
天才 17
礁 17
可怕的 17
却说 17
震耳 17
依然是 17
黯然 17
高手 17
探索 17
到了一个 17
寄托 17
宗 17
不满 17
坠落 17
▁今年 17
▁这句话 17
预备 17
有谁 17
▁这场 17
耻 17
过来的 17
就好了 17
你我 17
是这样 17
黄金 17
依旧是 17
恶劣 17
楼房 16
水池 16
弹钢琴 16
友好 16
传奇 16
堵 16
誓 16
点了点头 16
海上 16
叶的 16
正在进行 16
人们在 16
孩 16
一件事 16
怔 16
中等 16
空洞 16
倒是 16
饰 16
打扫 16
▁如此 16
到一个 16
开幕式 16
光了 16
糕 16
我一个 16
了一张 16
驹 16
贾 16
小学生 16
张望 16
蚯 16
不远 16
膝盖 16
溶 16
的女 16
你喜欢 16
我就会 16
莫过于 16
跟你 16
台下 16
的一幕 16
买了一 16
过程中 16
定的 16
眼皮 16
连连 16
四射 16
很好的 16
事实 16
透明的 16
是中国 16
牧 16
只要有 16
疯狂的 16
在这儿 16
在外 16
没能 16
承诺 16
等于 16
兴奋地 16
黑了 16
予 16
洼 16
风采 16
的一句话 16
绑 16
朝天 16
神仙 16
的海洋 16
总之 16
▁当我们 16
▁而在 16
是人类 16
▁其他 16
十七 16
轻声 16
▁20 16
沿 16
攻 16
已不再 16
想知道 16
膀 16
的主人 16
温和 16
房屋 16
▁莫 16
寐 16
能看到 16
越快 16
眈 16
(5) 16
急促 16
她就是 16
可恶 16
演员 16
在微 16
夹杂 16
松鼠 16
从头 16
全家 16
放入 16
丫头 16
重复 16
对她 16
▁1 16
重心 16
着了 16
陷 16
了一切 16
竟是 16
不是我 16
瑰 16
的诗 16
淌 16
独一无二的 16
胸怀 16
镶 16
编织 16
给你们 16
两个人 16
附 16
攘 16
足够 16
一度 16
一见 16
是否会 16
勉强 16
互助 16
60 16
看到我 16
上班 16
拍手 16
咯咯 16
估计 16
▁我把 16
萤火虫 16
曰 16
惧 16
冰冰 16
颤抖着 16
是人 16
▁少年 16
血液 16
也不再 16
事事 16
早早地 16
著名 16
颠 16
幸运 16
嚓 16
地理 16
还是很 16
笑道 16
澜 16
▁两个 16
是一座 16
麻木 16
下楼 16
厌恶 16
发抖 16
短暂的 16
抓紧 16
许多人 16
古城 16
不离 16
关键 16
惯 16
宁愿 16
的方法 16
知道自己 16
孩童 16
▁第三 16
凳 16
年轻人 16
功课 16
路人 16
裤子 16
炒 16
翁 16
毛虫 16
雕刻 16
峡谷 16
减少 16
的一年 16
对您 16
▁这一天 16
的时代 16
我太 16
在乎 16
慵 16
万分 16
艾 16
长了 16
奔驰 16
至极 16
消逝 16
更高的 16
旅行 16
蚓 16
咱们 16
鑫 16
松树 16
钩 16
脑子 16
擂 16
▁3 16
木头 16
哒 16
在前 16
关键时刻 16
的痛苦 16
的外表 16
找来 16
满意的 16
雪球 16
维 16
不尽 16
诠释 16
咯 16
舞台上 16
眼底 16
图案 16
去年 16
▁但我 16
相伴 16
也曾 16
饥 16
当然是 16
英国 16
世的 16
群山 16
百合 16
那里有 16
走出来 16
而有 16
▁亲爱的 16
实际 16
仙人掌 16
从我的 16
已经是 16
肌肉 16
第四 16
正义 16
征 16
杵 16
遵守 16
银杏 16
没办法 16
郁闷 16
的道路 16
人世 16
听的 16
落入 16
顽强的 16
马虎 16
曲子 16
深夜 16
绕过 16
至于 16
陌生人 16
爪子 16
难得 16
课的 16
一天的 16
我吗 16
告诉了 16
昆虫 16
做好准备 16
什么都 16
联系 16
冷汗 16
晚饭 16
纸上 16
铅笔 16
炫 16
机器人 16
发言 16
球的 16
斥 16
僵 16
两边的 16
牛奶 16
屑 16
最大 16
自强 16
返回 16
蛙 16
神经 16
全新的 16
巴掌 16
我只是 16
压抑 16
哆 16
白纸 16
让我在 16
带到 16
敏捷 16
无处 16
触摸 16
信仰 16
d 16
面貌 16
消失在 16
师生 16
仪 16
大厦 16
缝隙 16
五颜六 16
走过去 16
开得 16
虞 16
先是 16
他们是 16
灰色 16
金鱼 16
带有 16
的消息 16
艘 16
看电视 16
接近 16
多次 16
娟 16
呆了 16
吸引了 16
尴尬 16
对小 16
在进行 16
伸出手 16
囊 16
诚实 16
ia 16
在我们的 16
亏 16
渣 16
▁女 16
遮挡 16
劳累 16
点儿 16
喧嚣 16
珍贵的 16
姐妹 16
叫到 16
▁家 16
经受 16
胆小 16
在自己 15
助人 15
的历史 15
在路上 15
意味 15
▁远 15
嘟 15
▁在那 15
▁现在的 15
遮住 15
不是一个 15
匆忙 15
无处不在 15
连着 15
在最 15
高楼 15
同意了 15
咚咚 15
胡须 15
荣耀 15
总觉得 15
不屑 15
五颜六色的 15
感到了 15
▁愿 15
▁此刻 15
谈论 15
▁老人 15
颁奖 15
是怎样 15
文人 15
旅程 15
缚 15
聆听 15
不管是 15
他要 15
应有的 15
分成 15
公园里 15
的自由 15
大象 15
▁唉 15
收到 15
大家的 15
▁即使 15
它们在 15
三四 15
吃东西 15
为什么会 15
很简单 15
我们才能 15
直线 15
▁连 15
你的手 15
韵味 15
判 15
叫人 15
干干净净 15
填满 15
也不敢 15
扒 15
▁体育 15
驰 15
卧室 15
扛 15
就象 15
昼 15
是被 15
地去 15
冒出了 15
输给 15
他的眼睛 15
从一个 15
▁反 15
江水 15
到了最后 15
筱 15
你为什么 15
▁不要 15
相当 15
人口 15
▁我被 15
搏 15
残留 15
▁进入 15
呦 15
侠 15
很喜欢 15
挡住 15
整洁的 15
奔波 15
回了家 15
秘密 15
娴 15
我们将 15
他们都 15
漏 15
飞驰 15
又说 15
宽大的 15
佝 15
和不 15
为她 15
极其 15
每一位 15
淡定 15
古典 15
恭 15
读者 15
交谈 15
祝愿 15
背叛 15
误会 15
交通 15
恼 15
犬 15
引领 15
▁放 15
突 15
说起 15
绪 15
的一部分 15
偻 15
简直是 15
从小就 15
峦 15
1000 15
上面的 15
老鹰 15
▁一切 15
冰箱 15
明显 15
我十分 15
拌 15
容貌 15
下定决心 15
毁 15
房间里 15
好吧 15
瘫痪 15
百分 15
贴着 15
就想 15
老爸 15
闹钟 15
还有什么 15
百年 15
票 15
是什么样的 15
豆豆 15
一齐 15
阴暗 15
她就 15
彩色的 15
▁陈 15
光滑 15
将自己 15
创作 15
和大 15
随后 15
早餐 15
睁开眼睛 15
神秘的 15
书的 15
乒乓球 15
手里拿着 15
布置 15
水母 15
技 15
人群 15
巴巴 15
你一定 15
改变了 15
征服 15
慰 15
尤其是 15
再去 15
只有在 15
诱人的 15
海浪 15
沦 15
名人 15
赛事 15
遥遥 15
这也是 15
送到 15
自从 15
自如 15
蕴 15
坦 15
我们的生活 15
我永远 15
生病 15
把自己的 15
模 15
珠子 15
的蓝 15
块钱 15
石榴 15
你不知道 15
这道 15
询问 15
因为她 15
一个月 15
烛 15
心事 15
它就是 15
基础 15
工具 15
冲动 15
鹊 15
密布 15
独特 15
▁他是 15
固然 15
最初的 15
连接 15
倒下 15
顷 15
我向 15
▁石 15
椅子 15
一家人 15
钢铁 15
完整 15
的灵魂 15
流的 15
传统 15
说要 15
发明 15
他想 15
细的 15
秋冬 15
设施 15
了一份 15
大道 15
修养 15
真实的 15
陡 15
反超 15
的动物 15
▁比 15
帮助下 15
司机 15
在上 15
娶 15
描写 15
伫 15
小镇 15
前后 15
的心态 15
的几 15
预 15
不多 15
贺 15
了它 15
雷鸣 15
哩 15
成熟的 15
一堆 15
意境 15
显现 15
蓬勃 15
看着她 15
气喘吁吁 15
▁大家都 15
与他 15
请教 15
姗 15
踪 15
火柴 15
山下 15
喉咙 15
▁这么 15
下山 15
热气 15
铅 15
多年的 15
灯笼 15
考场 15
圣洁 15
瀑 15
衰 15
现在是 15
渗 15
遐想 15
守门员 15
引导 15
驴 15
有人在 15
请你 15
把他们 15
目不 15
跳动 15
神话 15
噩 15
倒数 15
参与 15
正要 15
炊 15
打电话 15
秒钟 15
诧 15
正准备 15
在她的 15
逍遥 15
现在开始 15
表面 15
来看看 15
开展 15
沉寂 15
有一颗 15
嫦娥 15
走上了 15
过于 15
包容 15
特殊 15
一发 15
宽广 15
雨天 15
嚎 15
需 15
例如 15
孔雀 15
自己去 15
烈的 15
肖 15
了一段 15
大脑 15
案 15
输给了 15
辈子 15
标志 15
职业 15
没关系 15
埋怨 15
如画 15
释放 15
太空 15
凌晨 15
英勇 15
▁曾 15
总结 15
祖 15
这一刻 15
掉以轻心 15
推开 15
接下来 15
懊 15
足球赛 15
而努力 15
丝带 15
随之 15
细小的 15
现象 15
生了 15
惊呆了 15
脚步声 15
留着 15
理会 15
被称为 15
这段 15
拯救 15
体力 15
▁更 15
19 15
骑自行车 15
康 15
垠 15
的想法 15
40 14
只不过是 14
已在 14
巢 14
何处 14
恐龙 14
显得更加 14
在家里 14
雾气 14
不长 14
大气 14
葬 14
做梦 14
这样的人 14
指着 14
使它 14
回想 14
楼上 14
或许是 14
的青春 14
人人 14
有三 14
独自一人 14
洪水 14
列车 14
钉 14
甜美 14
诸 14
该怎么办 14
邦 14
怪物 14
无所谓 14
崇拜 14
掩饰 14
体育场 14
四方 14
有余 14
树立 14
面目 14
仍是 14
下降 14
做的事 14
有机会 14
伸向 14
也是一 14
随手 14
挣脱 14
▁走出 14
13 14
放进 14
妇女 14
指挥 14
哭着 14
一篇 14
准备好了 14
救命 14
水滴 14
卵石 14
冲破 14
草莓 14
矫 14
必然 14
榆 14
得不到 14
兢 14
▁一直 14
从天上 14
上网 14
鲜艳的 14
不是很 14
即便 14
心来 14
的手指 14
月球 14
有关 14
爱的人 14
年级的 14
争夺 14
假装 14
不可思议 14
窒息 14
山峰 14
足足 14
消息 14
我的眼睛 14
才可以 14
深情 14
培育 14
诲 14
罐 14
变换 14
祝 14
我所 14
让我们的 14
迅 14
而且还 14
她会 14
▁毕竟 14
我并不 14
的姿态 14
▁这位 14
只得 14
这对 14
吱吱 14
ong 14
之感 14
述 14
无语 14
带我去 14
城市的 14
▁我的心 14
温柔的 14
大赛 14
发觉 14
犀 14
这一点 14
力和 14
肆虐 14
在不 14
掉的 14
做饭 14
用它 14
流露出 14
流露 14
筷子 14
海水 14
葫芦 14
对方的 14
误 14
漆黑的 14
啸 14
晶晶 14
啄 14
她要 14
篮球比赛 14
序 14
路过 14
心痛 14
妄 14
年了 14
朴素 14
庸 14
以上 14
已成为 14
相似 14
▁欧阳 14
罩 14
世俗 14
好处 14
糖果 14
他是一个 14
万万 14
讽刺 14
说的话 14
不变的 14
右脚 14
遭受 14
对此 14
几分钟 14
家门 14
-- 14
晋 14
揣 14
道题 14
指导 14
仔细地 14
漓 14
山坡 14
驻足 14
嘀 14
当她 14
从来没有 14
算了 14
卑微 14
越来越大 14
直奔 14
足迹 14
屋子里 14
恢复 14
精打 14
当天 14
阳台上 14
保持着 14
主动 14
是他们 14
散去 14
▁杨 14
寨 14
发展的 14
▁比如 14
动静 14
在意 14
氛围 14
却很 14
的从 14
响声 14
耐心 14
好人 14
警 14
时时 14
归于 14
本领 14
大量 14
不定 14
网上 14
方面 14
那是一个 14
三百 14
看法 14
绘 14
是怎么 14
领导 14
我跟 14
的压力 14
特别的 14
的景象 14
依稀 14
惊叹 14
描 14
这时候 14
拿着一 14
时尚 14
辩 14
▁接 14
其他的 14
一处 14
激发 14
继续努力 14
放到 14
村庄 14
孤独的 14
记忆犹 14
懂的 14
那段 14
走走 14
光秃 14
柄 14
队和 14
女的 14
萍 14
痛哭 14
了两个 14
荆棘 14
姜 14
营养 14
诉说 14
惊天 14
誓言 14
忽略 14
像我 14
▁鸟儿 14
45 14
赋 14
这两个 14
终身 14
灾 14
这天 14
咱 14
的一笔 14
偶 14
有几个 14
欢快 14
跤 14
攻击 14
的环境 14
自有 14
一切都是 14
美女 14
的微 14
聆 14
杖 14
擦肩而过 14
蚊子 14
的响声 14
眼花 14
成群结 14
水和 14
猛烈 14
泡泡 14
得不 14
他了 14
的所有 14
英俊 14
子弹 14
不绝 14
▁本 14
枕 14
▁父母 14
▁仿佛 14
压迫 14
庆幸 14
大量的 14
摆脱 14
宾 14
的灯光 14
写字 14
对我来说 14
少林 14
户 14
谣 14
信息 14
遭遇 14
这样说 14
喃 14
未知的 14
大多 14
幼儿园 14
举手 14
我今天 14
或者是 14
你知道吗 14
萱 14
的变化 14
传出 14
的父亲 14
帅气 14
把我的 14
然大 14
安心 14
粉的 14
烁 14
21 14
也越来越 14
光荣 14
▁何 14
我们对 14
吮吸 14
沈 14
咛 14
书桌 14
▁我用 14
胸口 14
猎物 14
生命中 14
耍 14
决赛 14
努 14
贞 14
国际 14
做完 14
让您 14
十分钟 14
屏住呼吸 14
杜 14
四面 14
在我身上 14
奇怪的 14
跌倒 14
旺 14
时不 14
链 14
是由 14
中的小 14
潜 14
运动场 14
▁这是我 14
郁 14
等候 14
公路 14
品格 14
城墙 14
吃惊 14
▁地球 14
不远处 14
坏的 14
人会 14
▁太 13
问他 13
因为我的 13
两年 13
的回 13
伤的 13
流浪 13
注重 13
传给 13
他的手 13
▁2 13
▁细 13
仆 13
换了 13
想起来 13
24 13
些什么 13
送去 13
来得 13
掩盖 13
赶上 13
一路上 13
璧 13
缓慢 13
不仅仅 13
▁说起 13
岁那年 13
我看着 13
晨曦 13
▁他说 13
几位 13
亿 13
也变得 13
活得 13
成一个 13
窄 13
堡 13
锤 13
它也 13
牢牢 13
摇头 13
廖 13
不耐烦 13
了小 13
辜负 13
和妈妈 13
更大的 13
▁令 13
涧 13
能否 13
▁孙 13
滚动 13
▁所有 13
▁不知道 13
敛 13
清洁工 13
大师 13
稻田 13
心惊 13
沮丧 13
▁世 13
垫 13
昔 13
藕 13
袁 13
淋漓 13
但这 13
听听 13
玫瑰花 13
妃 13
造就 13
▁地 13
庄重 13
将成为 13
怜悯 13
担当 13
莱 13
乐器 13
五星 13
受了 13
可谓是 13
之母 13
波澜 13
胀 13
毛茸茸 13
交给 13
在一片 13
兰的 13
最快 13
驾 13
另一种 13
啤酒 13
景区 13
嘲 13
在这一 13
宰 13
更显 13
▁偶尔 13
便能 13
古人 13
启 13
中所 13
园林 13
也不要 13
比如说 13
高端 13
扫帚 13
上还 13
做好了 13
策 13
了一块 13
撩 13
砂 13
朦 13
彩色 13
梓 13
渝 13
嘘 13
的被 13
往常 13
主持 13
了对 13
赋予 13
霍金 13
网吧 13
流畅 13
玥 13
也无 13
▁沿着 13
来的时候 13
会使 13
就该 13
合唱 13
位于 13
不仅是 13
载着 13
巧克力 13
毽 13
家境 13
突破 13
获 13
精神的 13
大发 13
岁了 13
精美的 13
▁时 13
优点 13
最快的速度 13
倾盆大雨 13
娃 13
空调 13
基本 13
结实 13
对它 13
蹿 13
健壮 13
11 13
黯淡 13
制造 13
栗 13
反驳 13
为它 13
顶着 13
诞生 13
太多了 13
历程 13
应当 13
很累 13
肝 13
25 13
这一幕 13
恋爱 13
如果说 13
寺庙 13
▁刚开始 13
▁离 13
封信 13
不让 13
头皮 13
我先 13
流出 13
的起 13
稻草 13
▁我刚 13
下腰 13
靥 13
特别好 13
厕所 13
的气质 13
竞选 13
找个 13
旗帜 13
我的小 13
中了 13
喝了 13
蜡 13
学子 13
我来说 13
你不会 13
学业 13
我是一个 13
点滴 13
带到了 13
看到的是 13
袋鼠 13
沉淀 13
还是要 13
之意 13
橡皮 13
爱上 13
的情况下 13
惺 13
突出 13
绳索 13
我的父亲 13
觅 13
软弱 13
想像 13
身体的 13
重要的是 13
熬 13
寄 13
了一把 13
隔壁 13
最后一刻 13
前去 13
依赖 13
节日 13
邪恶 13
拖着 13
的和 13
栖息 13
发烧 13
爱因斯坦 13
惊险 13
赠 13
覆盖 13
孝顺 13
旅途 13
,《 13
也只有 13
两侧 13
来到这里 13
丈夫 13
两个小 13
妻子 13
太湖 13
残疾 13
问了 13
▁我一直 13
栏 13
节俭 13
之美 13
喃喃 13
守卫 13
却依然 13
口中 13
纪 13
秘 13
借着 13
背后的 13
又是一 13
男女 13
山谷 13
吝 13
声和 13
▁4 13
绿洲 13
的是一个 13
.... 13
丐 13
傲慢 13
▁西 13
可不是 13
逛 13
黑白 13
毯 13
让人们 13
讲解 13
怒火 13
特殊的 13
什 13
俭 13
太大 13
一些人 13
得住 13
器材 13
与人 13
错过了 13
洞口 13
所说 13
从他 13
那不 13
有些人 13
李明 13
理想的 13
呻 13
的可能 13
越多 13
伴奏 13
小声 13
创 13
卷起 13
每天都在 13
身处 13
评 13
刚好 13
观光 13
卿 13
生于 13
不忍 13
柜 13
▁半 13
战胜了 13
这个人 13
牵着 13
丘 13
让别人 13
勉 13
▁温 13
以求 13
▁轻 13
自言自语 13
只是为了 13
付出的 13
就是你 13
编 13
人一样 13
大陆 13
南方 13
胭 13
人人都 13
的背后 13
朴实 13
是她的 13
自拔 13
六个 13
植物园 13
拐杖 13
霓虹 13
祭 13
来时 13
相间 13
长辈 13
口哨 13
做过 13
不该 13
乱了 13
k 13
万一 13
内的 13
躺着 13
愈加 13
岸边 13
而你 13
通知 13
天然 13
进取 13
呈现 13
好比 13
良心 13
▁各 13
男孩的 13
王国 13
钓鱼 13
斧 13
昭 13
荡荡 13
迷宫 13
薄的 13
亘 13
▁手 13
象征 13
拥有的 13
焦 13
萝 13
大风 13
相继 13
董 13
c 13
梦境 13
▁第二个 13
一生的 13
和一个 13
可谓 13
愚 13
被打 13
惋惜 13
典 13
实在是 13
寻求 13
喵 13
桥上 13
钢笔 13
拉开 13
瑜 13
▁我对 13
赞扬 13
▁如果我 13
鲜明 13
不了的 13
原则 13
榜 13
受益 13
平衡 13
妥协 13
山羊 13
鸽子 13
18 13
将其 13
你对 13
了她的 13
柯 13
层的 13
三月 13
瞄准 13
▁很多 13
进球 13
的野 13
大叔 13
,5 13
这是一个 13
自立 13
读到 13
爆发 13
引人注目 13
芊 13
素的 13
若无 13
阑 13
避免 13
姑 13
上演 13
吆 13
还很 13
烟火 13
和他的 13
创新 13
学到 13
想要的 13
人来 13
叶片 13
耸立 13
甚至是 13
而来的 13
的责任 13
衷 13
我爱你 13
馁 13
站立 13
缰 13
游荡 13
回旋 13
面孔 13
咳 13
柔和的 13
鸭子 13
丝毫不 13
长袍 13
休闲 13
这几 13
肯定会 13
嚷 13
豪华的 13
绕着 13
津 13
学习成绩 13
核桃 13
安逸 13
严重 13
腐 13
当做 13
田间 13
赴 12
▁台 12
巅峰 12
▁一个人 12
万人 12
宠物 12
蕴含 12
视为 12
大多数 12
骆驼 12
刃 12
嫉妒 12
回去了 12
我应该 12
你会发现 12
的一只 12
你的人 12
试试 12
吕 12
例子 12
荏苒 12
手术 12
的车 12
坏习惯 12
想让 12
在那个 12
街道 12
摧毁 12
家家 12
兼 12
’, 12
蹲在 12
人有 12
携手 12
窗口 12
之以 12
在一边 12
去世 12
▁近 12
腥 12
嗡嗡 12
个月 12
我就要 12
▁那里 12
所有人的 12
闻名 12
卓 12
我的梦想 12
黎 12
在一起的 12
他被 12
后就 12
上来了 12
▁晨 12
依次 12
心上 12
棚 12
交到 12
秧 12
小时的 12
烦躁 12
心怀 12
杀了 12
禁止 12
但没有 12
▁松 12
深入 12
写了一 12
▁八 12
涉 12
点亮 12
屏幕 12
地图 12
驻 12
花纹 12
极为 12
拎 12
郁金香 12
同胞 12
他的脸 12
戈 12
▁的确 12
还得 12
▁飞 12
沧 12
摸索 12
▁可能 12
内在 12
纵横 12
单词 12
自身的 12
芍 12
意见 12
午后 12
是怎样的 12
没完 12
而被 12
一顿 12
叼 12
况且 12
剪刀 12
能量 12
的语言 12
腾飞 12
安宁 12
全程 12
▁我曾 12
要开 12
羞愧 12
年中 12
毛泽东 12
没有一点 12
优异的成绩 12
▁其 12
只有一次 12
举止 12
这个地方 12
这个项目 12
专注 12
我的母亲 12
对比 12
珍贵 12
在此 12
城的 12
群的 12
一样在 12
在心 12
不给 12
在下 12
羡 12
处在 12
呗 12
▁龙 12
时分 12
▁他们的 12
e 12
后腿 12
不快 12
背景 12
的一切都 12
啥 12
着迷 12
足球场上 12
管理 12
锅里 12
深了 12
说出来 12
大战 12
鹏 12
略带 12
▁例如 12
失败的 12
各自的 12
恍惚 12
一点都不 12
这么说 12
共享 12
那么大 12
星期天 12
老人的 12
开车 12
啬 12
低的 12
灼 12
拍了 12
衬衫 12
▁东 12
我们终于 12
说说 12
回想起 12
酷暑 12
冲刷 12
先把 12
更像 12
金子 12
十个 12
带你 12
你现在 12
学习中 12
有一块 12
一世 12
个头 12
冶 12
他们不 12
藏着 12
你这 12
水上 12
跑来 12
蕉 12
农夫 12
鼓起 12
自动 12
禁不住 12
桂林 12
伤了 12
最终还是 12
一起玩 12
消耗 12
夫人 12
很多的 12
也非常 12
上前 12
脱俗 12
心存 12
学到了 12
标准的 12
期末 12
分手 12
权利 12
椅上 12
见我 12
掀起 12
爱与 12
他们就 12
好不好 12
上没有 12
组的 12
残忍 12
自己所 12
骑士 12
▁树 12
的对 12
看清 12
不理 12
名为 12
升华 12
来讲 12
曾在 12
▁我们都 12
▁世界上 12
期待的 12
绝望的 12
一套 12
手拿 12
他还是 12
数的 12
著 12
提到 12
不懈 12
的生物 12
仔 12
▁好了 12
公子 12
达到了 12
称赞 12
比你 12
图书 12
▁鲁 12
捶 12
屋顶 12
▁我开始 12
墙壁 12
缘故 12
▁这是一 12
树林中 12
▁紧接着 12
还是没有 12
喧 12
将在 12
战场 12
相对 12
三国 12
的女儿 12
而生 12
说她 12
丢了 12
不知道为什么 12
馋 12
兜 12
是非 12
拥挤 12
我有点 12
妻 12
不起来 12
砌 12
推荐 12
心生 12
失败了 12
正值 12
头戴 12
磅 12
椅子上 12
的重要 12
我问 12
的快 12
上空 12
已然 12
▁喜欢 12
伸展 12
长出 12
并肩 12
左脚 12
叔 12
照样 12
儒 12
四肢 12
▁这是一个 12
心愿 12
毫 12
规律 12
的态度 12
毅然 12
琥珀 12
漫画 12
不公 12
▁每一次 12
开始的 12
电视剧 12
棕 12
写照 12
被他 12
也说 12
产生了 12
终生 12
几个月 12
更深 12
个大 12
吱 12
如果我 12
B 12
家庭的 12
▁在我们 12
▁可惜 12
要做 12
佳人 12
衔 12
明珠 12
太慢 12
交错 12
相反 12
完毕 12
身体健康 12
的男人 12
央 12
宵 12
转变 12
安静地 12
做些什么 12
数不清 12
不一定要 12
上讲 12
身在 12
高尚 12
这让我 12
崩 12
瑾 12
下有 12
顶端 12
我无法 12
还算 12
了三 12
扇子 12
的品质 12
送给 12
然后又 12
细心 12
对我们的 12
陪着 12
口的 12
▁这样的 12
最深 12
篇章 12
小屋 12
角度 12
滔滔 12
碎片 12
她想 12
商 12
▁我最 12
在为 12
谁的 12
▁跑 12
面子 12
的事物 12
地发现 12
病房 12
那块 12
富贵 12
一年的 12
目的是 12
河中 12
游记 12
可以是 12
在中国 12
地板 12
漫长的 12
总是会 12
传遍 12
渐行 12
甚至连 12
他人的 12
这只是 12
家门口 12
芭 12
语气 12
良好 12
都非常 12
肿 12
重点 12
就不能 12
带走 12
的女人 12
家人的 12
蹒跚 12
洗澡 12
催促 12
出手 12
老的 12
各异 12
翻身 12
趣事 12
绿水 12
丝毫 12
等人 12
印记 12
优雅的 12
回来的 12
明星 12
人去 12
髻 12
我当时 12
他就是 12
摇篮 12
悠长 12
▁我方 12
在高 12
摩托车 12
乔 12
埋在 12
就是我们 12
布条 12
平和 12
姹 12
先进 12
我曾 12
迷惑 12
生命中的 12
你所 12
神奇的 12
直至 12
的对手 12
唧 12
狡 12
愤怒的 12
▁海伦 12
买的 12
更能 12
两次 12
散文 12
居住 12
真理 12
轮廓 12
人了 12
鱼的 12
▁学 12
最为 12
为我的 12
辈 12
欠 12
荒漠 12
的名 12
将他 12
贼 12
潮水 12
了大 12
钉子 12
低落 12
疫情 12
自古 12
可以说是 12
百万 12
面包 12
着一股 12
干活 12
厌烦 12
威严 12
做的事情 12
铆 12
肌肤 12
养育 12
面对着 12
要不要 12
一分钟 12
脚上 12
我们很 12
摸摸 12
你最 12
的意思 12
蔡 12
是最好的 12
多种 12
精力 12
你应该 12
全年 12
抹去 12
▁你知道 12
运动服 12
村民 11
乍 11
巧的 11
玉米 11
生态 11
经济 11
按照 11
▁竹 11
孰 11
学家 11
南京 11
而活 11
攒 11
巨大 11
掉落 11
讲的 11
▁我真的 11
书法 11
正确 11
摔跤 11
乏味 11
魁 11
冈 11
飒 11
绅士 11
使她 11
环境的 11
▁天气 11
写得 11
够了 11
辫子 11
绝不 11
会很 11
的开 11
日在 11
颜料 11
下方 11
你的爱 11
翻滚 11
政 11
疯狂地 11
冰淇淋 11
小组 11
早点 11
问题的 11
能把 11
半夜 11
猜想 11
▁今天下午 11
附近 11
▁虽 11
措手不及 11
也从 11
尹 11
鄙视 11
困境 11
凸 11
把它们 11
尽量 11
游人 11
它还 11
变为 11
优势 11
瓶子 11
大大小小的 11
不公平 11
大衣 11
课后 11
模仿 11
话来 11
散落 11
在海 11
80 11
都是在 11
黑衣 11
体的 11
一字 11
又去 11
前一 11
庄严 11
饥饿 11
▁整 11
所在 11
▁在我看来 11
▁可以 11
太小 11
宏 11
相连 11
绞 11
昨晚 11
踏上了 11
惊人的 11
设 11
深处的 11
竟然是 11
他为 11
喘息 11
惊醒 11
一幕 11
桃子 11
他便 11
从事 11
燃烧的 11
穗 11
跳出 11
皮球 11
隧道 11
躲避 11
打起 11
崎 11
磕 11
阴霾 11
证明了 11
▁万 11
地震 11
想什么 11
寥 11
自己没有 11
那以后 11
坐车 11
天哪 11
差距 11
猜测 11
手掌 11
您对 11
无论是 11
人不 11
的一块 11
消散 11
并未 11
▁我从 11
不与 11
我们用 11
▁多少 11
邱 11
蔓 11
扰 11
技能 11
棕色 11
资格 11
un 11
墨水 11
厅 11
疾病 11
评价 11
一个是 11
吃掉 11
衣着 11
语中 11
病毒 11
僵硬 11
引起 11
在雨中 11
▁九 11
▁那时候 11
茗 11
耻辱 11
不信 11
适合 11
显眼 11
为人们 11
▁正是 11
先后 11
技巧 11
我吧 11
必须要 11
黄瓜 11
您好 11
之势 11
琉 11
大胆 11
▁真的 11
高了 11
什么的 11
▁当他 11
很有趣 11
得到的 11
记载 11
生病了 11
但是却 11
吒 11
纸条 11
▁跟 11
就来 11
层楼 11
忧虑 11
跟随 11
漉漉 11
冲到 11
运动项目 11
最有 11
的口号 11
感到很 11
日光 11
四大 11
本文 11
生长在 11
丰满 11
▁对方 11
三人 11
驱散 11
制作 11
▁等到 11
▁紫 11
诵 11
即将结束 11
▁你在 11
来形容 11
即使在 11
有意思 11
罪恶 11
夺得 11
跟我说 11
耷 11
却有 11
在夜 11
干了 11
更何况 11
蔬菜 11
感觉很 11
写到 11
日落 11
卑 11
工厂 11
的出现 11
捣 11
都不知道 11
基石 11
山西 11
漾 11
弹奏 11
见证了 11
班和 11
允 11
上说 11
慷慨 11
不朽 11
让自己的 11
尺子 11
桌子上 11
蠢 11
奖品 11
......”“ 11
搅 11
挞 11
哈欠 11
印象深刻 11
不忘 11
大力 11
瘫 11
不清楚 11
▁上帝 11
邀 11
爱好 11
蓬松 11
隐藏 11
想和 11
真切 11
称号 11
称为 11
这是我的 11
你不能 11
但不 11
?? 11
▁我非常 11
▁孩子 11
高飞 11
丢弃 11
也随之 11
哲学 11
跨越 11
简直就是 11
优良 11
艰难的 11
地笑 11
竞相 11
的行为 11
反抗 11
头是 11
虽说 11
▁以后 11
一号 11
杉 11
" 11
▁任 11
忙着 11
我们现在 11
炉 11
进攻 11
围绕 11
灌溉 11
了你的 11
产 11
走过了 11
近视 11
全体 11
就让 11
过多久 11
我的爱 11
长久 11
蔽 11
无知 11
喜爱的 11
这里有 11
何况 11
四川 11
芬 11
▁祝 11
腆 11
说再见 11
我只想 11
两根 11
有限的 11
宝贵 11
▁但他 11
齐声 11
守候 11
▁人类 11
纪律 11
的性格 11
的那个 11
我正在 11
的伟大 11
你一 11
淘汰 11
还有些 11
预示着 11
飞出 11
会说 11
便成了 11
综合 11
仪式 11
六十 11
这个世界上 11
睡不着 11
岩石 11
高挑 11
时机 11
请求 11
吃不 11
仇恨 11
难的 11
这一个 11
三个人 11
▁我记得 11
的人类 11
峭 11
冷清 11
闷热 11
干旱 11
▁她在 11
身心 11
交给了 11
的一份 11
似是 11
稍稍 11
肤 11
朋 11
冒出 11
捷 11
风在 11
一架 11
了这一 11
愉快的 11
难怪 11
了一颗 11
▁话 11
发球 11
▁华 11
展现在 11
侃 11
组成的 11
行了 11
这一生 11
不要再 11
你的心 11
博大 11
分析 11
截 11
摩天 11
的天气 11
篱 11
于心 11
正当 11
晓明 11
自大 11
成人 11
人对 11
打架 11
礴 11
酿 11
镜头 11
以待 11
的能力 11
非常好 11
但现在 11
亲近 11
聪明的 11
礼仪 11
解放 11
稳稳 11
筝 11
荔枝 11
跳到 11
读过 11
出现了一个 11
狰狞 11
袋子 11
心房 11
掏 11
期中 11
她没有 11
法律 11
的存在 11
政治 11
拿出了 11
代价 11
之处 11
歌词 11
主人公 11
你呢 11
尽快 11
棒了 11
忌 11
到这里 11
而感到 11
夜间 11
谅解 11
膝 11
宣传 11
的热情 11
▁我叫 11
法的 11
银色的 11
果园 11
造成的 11
华夏 11
▁晚 11
雨后 11
性命 11
而奋斗 11
磨灭 11
掉下来 11
莫及 11
蛋黄 11
请不要 11
▁我看到 11
封建 11
▁总之 11
车站 11
装扮 11
取得胜利 11
腻 11
本身 11
液体 11
挥舞 11
感触 11
掬 11
骨头 11
你又 11
塑造 11
闪亮 11
换上 11
的身材 11
旅 11
的魅力 11
它没有 11
秒的 11
这也 11
之人 11
昆明 11
耕 11
仍在 11
帷幕 11
众多 11
上车 11
三年的 11
▁昨天 11
而降 11
▁身 11
也只能 11
火星 11
大厅 11
再也不会 11
生气了 11
▁萧 11
徽 11
我们还是 11
这幅 11
振 11
等了 11
痛的 11
特长 11
考试成绩 11
而现在 11
回应 11
松开 11
颜色的 11
遍地 11
味地 11
折不 11
跟他 11
伶 11
我去了 11
▁平 11
▁每当我 11
谁在 11
忠诚 11
禹 11
吃饱 11
之外的 11
问她 11
星的 11
喜欢它 11
了些 11
能将 11
憨 11
▁一位 11
雷声 11
新一 11
醒悟 11
公园的 11
酒店 11
的重要性 11
客厅 11
▁纵 11
岔 11
单调 11
▁听说 11
颇有 11
都不能 11
出汗 11
各有 11
回忆起 11
汲取 11
▁很快 11
一个好 11
这两 11
银色 11
微不足道 11
阻碍 11
减 11
叫喊 11
生意 11
企业 11
汽 11
邓 11
煎熬 11
悲惨 11
召唤 11
成为一名 11
之前的 11
报了 11
痣 11
破烂 11
就知道 10
▁理想 10
脖 10
可乐 10
壮观的 10
把这些 10
租 10
天安 10
不光 10
可望 10
滴答 10
情节 10
就是为了 10
坏人 10
会让你 10
▁自己 10
突如其来的 10
赐 10
芝 10
向她 10
敲击 10
保证 10
罚 10
景观 10
一帆风顺 10
充足 10
轰鸣 10
心目 10
不好的 10
他们也 10
域 10
满心 10
贱 10
逃离 10
凭着 10
800 10
欢乐的 10
愈发 10
摩擦 10
老年 10
老是 10
烧烤 10
地说道 10
比以前 10
低声 10
促 10
捐款 10
压制 10
标准 10
维持 10
均 10
命的 10
▁未 10
▁世界 10
玷 10
▁木 10
花粉 10
百分之 10
一项 10
▁看看 10
篱笆 10
困难和 10
会让 10
有空 10
液 10
偌 10
恢复了 10
光环 10
漂浮 10
自卑 10
年后 10
一击 10
将是 10
夸奖 10
他和 10
传授 10
共同努力 10
忏悔 10
在他身上 10
杰作 10
妮 10
律 10
的刘 10
取得成功 10
下场 10
▁车 10
交响乐 10
咀嚼 10
是十分 10
的男孩 10
狈 10
新奇 10
这本 10
饭后 10
▁它是 10
贵族 10
寝 10
是非常 10
冲进 10
谈话 10
坎 10
很想 10
超越了 10
物品 10
弟子 10
澡 10
款 10
英文 10
开始在 10
已经有 10
去世了 10
又长 10
淹没 10
说自己 10
珂 10
践踏 10
▁唐 10
▁。 10
炙烤 10
认识到 10
▁待 10
衣裙 10
流动的 10
▁似乎 10
向人们 10
汩 10
挣 10
她很 10
▁上次 10
放学后 10
携 10
摄 10
亲密 10
毫不犹豫地 10
热火 10
了一名 10
躬 10
敏感 10
不会在 10
人所 10
相同 10
昔日 10
可以用 10
朔 10
剧烈 10
出血 10
琢 10
婶 10
家务 10
ou 10
成年 10
是天 10
游行 10
▁...... 10
演唱会 10
花盆 10
都不是 10
对面的 10
杭 10
▁翻 10
毛巾 10
哪怕是 10
和睦 10
咏 10
抵挡 10
水是 10
漂流 10
转到 10
匠 10
▁于 10
庞大的 10
就一直 10
庚 10
委 10
的大脑 10
打工 10
详 10
对的 10
对自己的 10
保护环境 10
人员 10
地区 10
了一半 10
姣 10
沙发上 10
岖 10
册 10
▁想想 10
娓 10
为荣 10
▁我有 10
指甲 10
也不例外 10
快速的 10
但是他们 10
元钱 10
光泽 10
以前一样 10
忍耐 10
比起 10
乞 10
行驶 10
就有了 10
下令 10
有限 10
突兀 10
足球场 10
▁今天的 10
我曾经 10
(4) 10
和你一起 10
但是她 10
这回 10
过分 10
我到 10
价 10
嗓音 10
不通 10
惊艳 10
创伤 10
交换 10
障碍 10
普通人 10
我们才 10
延伸 10
另一只 10
瞥 10
都不敢 10
抽搐 10
它可以 10
收藏 10
写下了 10
放纵 10
她一 10
亢 10
的一条 10
我们知道 10
有一份 10
越过 10
但我还是 10
凝视 10
樟 10
暂时 10
缥缈 10
的手臂 10
旅途中 10
血的 10
材料 10
商量 10
尼 10
国家的 10
质的 10
大火 10
还有一些 10
盒子 10
不敢相信 10
可以把 10
不在意 10
和人 10
掠 10
年老 10
长期 10
开头 10
能让 10
主人的 10
翻转 10
地平线 10
隆隆 10
也是如此 10
也比 10
中没有 10
a 10
直立 10
灯泡 10
保存 10
拉开了 10
呯 10
▁草 10
有序 10
街道上 10
依恋 10
支柱 10
甜蜜的 10
宾馆 10
在它的 10
高雅 10
所能 10
收入 10
来吧 10
要不是 10
年年 10
太好 10
懈 10
窥 10
喝茶 10
她不 10
捡起 10
抉择 10
游乐园 10
又把 10
身披 10
建立 10
保卫 10
了这些 10
俗话说 10
的照片 10
▁静 10
一个小时 10
灵魂的 10
资 10
鱼缸 10
洗涤 10
会成为 10
的一名 10
科目 10
哭声 10
想不到 10
不走 10
▁中华 10
话语 10
这些都是 10
御 10
净化 10
保留 10
讲故事 10
吵架 10
是一把 10
放慢 10
干脆 10
参加的 10
特意 10
高度 10
毁灭 10
结尾 10
你是谁 10
孔子 10
的尽头 10
轰轰 10
奢侈 10
震惊了 10
▁跑步 10
空旷 10
换来 10
貌似 10
指责 10
乡下 10
空了 10
= 10
虫子 10
歉意 10
与她 10
凝结 10
别墅 10
奸 10
▁男孩 10
是无法 10
健康的 10
本人 10
不来 10
赛道 10
可以看出 10
就等于 10
▁首先是 10
其实是 10
凹 10
走了出来 10
天文 10
打的 10
提到了 10
从哪里 10
启示 10
外地 10
蜀 10
中小 10
就只有 10
而出的 10
想象的 10
辩论 10
凉亭 10
公鸡 10
很紧张 10
多多 10
忪 10
效 10
国度 10
就像在 10
西装 10
河岸 10
腼 10
偷偷地 10
就是因为 10
作斗争 10
一共 10
旧的 10
集合 10
靴 10
在树上 10
挽回 10
都具有 10
凳子 10
新月 10
如果不 10
也使 10
这是我们 10
传承 10
而后 10
也只是 10
去参加 10
号角 10
第一天 10
但是它 10
捕 10
难关 10
呼喊 10
▁如果没有 10
纠结 10
祝贺 10
下坡 10
发起 10
震惊 10
抑制 10
的感情 10
的事实 10
朕 10
不放 10
果子 10
实际上 10
考虑 10
也开始 10
进行着 10
最后一次 10
伴随 10
白马 10
唯独 10
动画片 10
然后就 10
昊 10
步步 10
刑警 10
疑问 10
乏 10
结构 10
▁贝 10
另一边 10
小李 10
严格 10
摇摇头 10
会把 10
鼓起勇气 10
我决定 10
腑 10
越是 10
都无法 10
是自己 10
呜呜 10
做错了 10
树荫 10
烛光 10
提前 10
部队 10
步行 10
上门 10
收集 10
拿出来 10
螺 10
蘑菇 10
厂 10
绰 10
度过了 10
的钱 10
在后 10
后果 10
谈起 10
方便 10
妈妈在 10
在社会 10
太久 10
我每天 10
妇 10
你再 10
刑 10
17 10
匕首 10
的那样 10
涕 10
叙 10
糊涂 10
人意 10
高科技 10
视觉 10
感冒 10
没有人能 10
叮当 10
拉到 10
迈向 10
开拓 10
一台 10
肥沃 10
坦然 10
玩游戏 10
吃得 10
一本书 10
我们必须 10
外国 10
都会有 10
前途 10
褐色 10
无话 10
过来了 10
当年的 10
热情的 10
给人以 10
滋养 10
秀丽 10
不愿意 10
▁千 10
的任务 10
民间 10
▁新的 10
都已经 10
得的 10
发力 10
傻子 10
挽留 10
不仅仅是 10
时就 10
▁这里的 10
靓 10
▁灵 10
遂 10
心动 10
相依 10
▁一只 10
高级 10
有一张 10
埋葬 10
早有 10
这篇 10
琼 10
家里的 10
下车 10
也为 10
果树 10
情侣 10
篇文章 10
都有一个 10
辉映 10
海洋中 10
一的 10
牌子 10
绒毛 10
可以使 10
领悟 10
结婚 10
矜 10
峻 10
这些人 10
疆 10
在中 10
资源 10
对战 10
是否有 10
▁作为 10
伍 10
这几天 10
埋头 10
坚固 10
复兴 10
袭击 10
要走 10
拿来 10
反射 10
说的是 10
偶像 10
点钟 10
人们对 10
贴在 10
还真 10
▁) 10
受伤了 10
触电 10
就是要 10
佐 10
在与 10
―― 10
挖掘 10
▁至于 10
如果我们 10
骄傲的 10
给了他 10
会像 10
衡 10
上面写着 10
都用 10
飞跃 10
废墟 10
中带 10
美味的 10
真诚的 10
希望我 10
件事情 10
接到 10
月中 10
都已 10
对于我们 10
的四 10
28 9
落幕 9
辙 9
制定 9
五一 9
包含 9
不改 9
仍旧 9
下面的 9
迅速地 9
坚决 9
缓慢的 9
重大的 9
效果 9
手段 9
倏 9
认为自己 9
瞅 9
屈原 9
象征着 9
田径 9
打个 9
一大早 9
长大后 9
增长 9
因为这 9
欧 9
也应该 9
冲着 9
我要去 9
留念 9
风声 9
看不起 9
便开始 9
太阳系 9
眶 9
几条 9
天赋 9
雕像 9
丢掉 9
自己想 9
太难 9
不过了 9
蠕 9
▁据说 9
的道路上 9
礼服 9
捆 9
不全 9
捕捉 9
肌 9
藉 9
为止 9
的都是 9
日复一日 9
事故 9
多远 9
打动了 9
唔 9
援 9
总理 9
这三 9
交易 9
更重要的是 9
叫道 9
▁能 9
谓 9
踢球 9
之手 9
希望在 9
恰好 9
他认为 9
回合 9
浮躁 9
原始 9
抛开 9
放出 9
来临时 9
的人说 9
用小 9
們 9
勾勒 9
涓涓 9
带领下 9
打造 9
的人来说 9
能不能 9
幕降临 9
甸 9
屈服于 9
把人 9
物质 9
率 9
▁望 9
他可以 9
精华 9
敌人的 9
极大的 9
力量的 9
安妮 9
祟 9
装满了 9
养成 9
其它的 9
我们却 9
汽车的 9
一周 9
▁第 9
假的 9
▁许多 9
加了 9
”? 9
寻觅 9
劣 9
肯定是 9
曙光 9
三分 9
千万别 9
电子 9
求你 9
浃 9
叫他 9
灵感 9
村里 9
跟前 9
和我的 9
我们不能 9
保安 9
岛屿 9
惶 9
斗篷 9
渗透 9
今年的 9
里最 9
入场 9
来得及 9
共有 9
哈利 9
不情愿 9
的痕迹 9
笔记 9
抚慰 9
▁从前 9
最快的 9
小张 9
赞同 9
来之 9
重庆 9
袅袅 9
向上的 9
轻蔑 9
排在 9
泡沫 9
我也会 9
得起 9
出水 9
军队 9
昔日的 9
他自己 9
▁表 9
沓 9
之余 9
勺 9
各项 9
噔 9
▁毛 9
这封信 9
的汽车 9
初级 9
物体 9
拍拍 9
似乎是 9
参赛 9
团的 9
自己的命运 9
外衣 9
▁现在我 9
流连 9
胃 9
抵抗 9
点多 9
让你的 9
现实中 9
地看 9
首领 9
车在 9
边说 9
让世界 9
淹 9
开放的 9
梳理 9
也更 9
主宰 9
地球上 9
这是一种 9
放射 9
是吗 9
坏事 9
本事 9
清晰的 9
上楼 9
无需 9
煜 9
皇宫 9
医务 9
其中一个 9
晗 9
不稳 9
▁双 9
沿途 9
浓郁 9
小的时候 9
奖牌 9
就用 9
籽 9
动手 9
但是在 9
厚重的 9
的追求 9
▁《 9
的自 9
▁星期五 9
妾 9
富裕 9
不许 9
开始时 9
ip 9
是用来 9
大概是 9
之后的 9
换上了 9
水分 9
双方的 9
下去了 9
堪 9
但他没有 9
》《 9
背诵 9
谅 9
与其 9
我为 9
国旗 9
驱 9
铃铛 9
服装 9
做好了准备 9
南北 9
▁船 9
▁继续 9
冰山 9
年幼 9
每年 9
就在眼前 9
也可能是 9
杜鹃 9
掷 9
刹车 9
很漂亮 9
纯粹 9
演出 9
延 9
固 9
两种 9
春节 9
我需要 9
松懈 9
不正 9
责怪 9
江湖 9
发生过 9
公平 9
厌倦 9
相爱 9
杯子 9
我这个 9
在河 9
两步 9
▁文 9
军人 9
想说 9
火热 9
有味 9
装备 9
的字 9
卓越 9
院子 9
受到了 9
也不错 9
话筒 9
鲜活 9
前往 9
能为 9
当他们 9
使你 9
凭借 9
蜂 9
手下 9
当代 9
葩 9
人心的 9
认识了 9
下子 9
较量 9
搜索 9
走后 9
肮脏 9
粮食 9
更多的是 9
地方的 9
迸 9
连衣裙 9
说这 9
睡在 9
观点 9
▁我当时 9
锄 9
带动 9
厚重 9
超级 9
乐乎 9
本质 9
稠 9
区的 9
温泉 9
牵着手 9
反省 9
居民 9
手法 9
熊熊 9
看待 9
的男子 9
麻痹 9
上过 9
拜访 9
大吃一惊 9
▁苹果 9
大小的 9
接受了 9
颦 9
微弱 9
下雪 9
泥泞 9
赏心悦 9
引人 9
打水 9
的情景 9
惧怕 9
也可能 9
它将 9
▁从小 9
然后把 9
显得很 9
最伟大的 9
高处 9
只在 9
全球 9
辽 9
是什么呢 9
倔 9
重叠 9
就走 9
夷 9
积累 9
上方 9
王朝 9
五年 9
模型 9
扩大 9
转载 9
的文化 9
盖上 9
新生 9
第四名 9
这张 9
di 9
想再 9
出生的 9
无愧 9
砍伐 9
褴褛 9
侵袭 9
正直 9
将她 9
参赛选手 9
符合 9
酥 9
的王 9
飞船 9
蜕变 9
▁并且 9
一万 9
许愿 9
▁再说 9
提升 9
线条 9
300 9
缺陷 9
氧气 9
一派 9
上一个 9
辛苦了 9
西安 9
惊慌 9
薰衣 9
昙花 9
顶峰 9
大半 9
不受 9
捕食 9
口渴 9
第六 9
多人 9
▁前面 9
结识 9
靡 9
提起 9
玩得 9
× 9
▁因为我 9
塑料袋 9
核 9
他们会 9
泯 9
植 9
振兴 9
宸 9
一栋 9
▁回首 9
赛场上 9
竭 9
穴 9
就走了 9
赶来 9
碍 9
黑洞 9
发射 9
杀手 9
优越 9
也已经 9
粥 9
见她 9
很像 9
举世 9
聚在一起 9
了一种 9
交叉 9
用手指 9
结晶 9
天津 9
嘀咕 9
却没 9
婴 9
呤 9
打动 9
钟声 9
▁刚刚 9
跋涉 9
给学生 9
才华 9
就成了 9
由此 9
仓 9
一来 9
瑕疵 9
岁的小 9
直流 9
走动 9
》、《 9
口气 9
笼罩在 9
愈合 9
▁好像 9
冲冲 9
耗 9
男孩子 9
▁考 9
书写 9
这让 9
展望 9
的运动员 9
乃至 9
希望能 9
亲手 9
军事 9
磐 9
有着不同的 9
只需 9
区别 9
人格 9
围墙 9
▁都 9
茅 9
他不知道 9
碾 9
▁出 9
不休 9
没有一个人 9
创造出 9
从没 9
不会有 9
专门 9
注意力 9
发生的事 9
▁带着 9
拉手 9
▁我是一个 9
考上 9
▁两人 9
变成了一个 9
行程 9
撮 9
走时 9
了他们 9
见识 9
遐 9
内部 9
摆在 9
尸体 9
有位 9
几句 9
保持警惕 9
僵尸 9
湿地 9
在新 9
焕 9
肤色 9
▁米 9
你和 9
真相 9
采用 9
w 9
太好了 9
我呢 9
松软 9
穿透 9
上一层 9
▁银 9
挥动 9
贬 9
形成了 9
行李 9
的啊 9
消灭 9
▁往 9
形态 9
一段时间 9
反对 9
珊 9
从现在 9
专业 9
坑里 9
而是在 9
哪些 9
了不起 9
粉丝 9
莞 9
雪中 9
发自 9
栖 9
▁同时 9
妨 9
,( 9
这篇文章 9
那头 9
不同于 9
洗衣 9
不可及 9
益 9
脸色苍白 9
纠缠 9
她还 9
的一个小 9
紫罗兰 9
蹙 9
向右 9
惊心动魄 9
芭蕾 9
北方 9
越过了 9
越高 9
二号 9
我们俩 9
下去的 9
男人的 9
还不是 9
选出 9
▁空 9
n 9
户户 9
邀请 9
氤氲 9
还是一个 9
崇高 9
大楼 9
陷阱 9
贴近 9
杀死 9
不失 9
排练 9
员的 9
对人类 9
雨季 9
规矩 9
花生 9
分钟后 9
不高兴 9
流失 9
▁森林 9
防止 9
发生在 9
虚荣 9
酷热 9
到大 9
村的 9
的真 9
我自己的 9
哪一个 9
蒜 9
筐 9
事件 9
的世界中 9
必要 9
的经历 9
踱 9
三七 9
我的话 9
在他们 9
▁余 9
若有 9
红线 9
骑车 9
这么大的 9
波动 9
帮助我 9
面前的 9
它就会 9
压在 9
让孩子 9
佣 9
米多 9
每个人都有 9
的象征 9
指向 9
赞赏 9
乞求 9
好几个 9
冰冻 9
他去 9
挡不住 9
▁教师 9
饮 9
一切的 9
桥梁 9
我想要 9
直下 9
过一个 9
礼貌 9
暴露 9
这点 9
奋进 9
温和的 9
比的 9
不要让 9
▁动物 9
这部 9
坤 9
怒气 9
的一座 9
▁大约 9
发动 9
青龙 9
~ 9
是可以 9
▁同样 9
狗狗 9
栈 9
侍 9
不明白 9
回顾 9
在其中 9
的国家 9
演唱 9
抖动 9
▁我已经 9
金黄色 9
经营 9
公交车 9
一个字 9
给人们 9
叫你 9
胡萝卜 9
前几 9
还是不 9
一说 9
那是我 9
烨 9
配上 9
温馨的 9
犷 9
迪士尼 9
衡量 9
趣味 9
最重要的 9
湖泊 9
取代 9
顺畅 9
野外 9
遇到的 9
评委 9
▁谢谢 9
出于 9
就从 8
旁观 8
用水 8
失误 8
▁朱 8
腕 8
作出 8
梳妆 8
你这个 8
新颖 8
▁内 8
也算 8
成名 8
自由地 8
▁这座 8
”、 8
回归 8
最深的 8
怨言 8
▁孔子 8
洲 8
买到 8
混乱 8
▁另外 8
径直 8
活在 8
的低 8
患上 8
而放弃 8
航海 8
倔强 8
踪迹 8
在马 8
愕 8
女神 8
犯了 8
乱的 8
失利 8
Y 8
恐怖的 8
每一处 8
太阳光 8
我们没有 8
谁都 8
我不喜欢 8
明了 8
圆润 8
而他 8
▁会 8
嗓 8
龄 8
▁在那里 8
▁没想到 8
出现的 8
毫不犹豫 8
困惑 8
一书 8
悲观 8
的信息 8
手腕 8
张口 8
南山 8
典雅 8
钓 8
相机 8
钻研 8
她用 8
价格 8
汉字 8
莫名其妙 8
无所畏惧 8
张开双臂 8
很小的 8
成群 8
围绕着 8
还需要 8
这么快 8
这个故事 8
们说 8
个好 8
的食物 8
主义 8
上台 8
有很大的 8
ti 8
发表 8
多岁 8
爱和 8
叨 8
吓坏了 8
状的 8
加入了 8
狱 8
灭绝 8
的玻璃 8
之物 8
派的 8
清朝 8
落成 8
伸长 8
肆无忌 8
个孩子 8
凭什么 8
▁猫 8
漱 8
也不用 8
黠 8
电梯 8
一顶 8
人士 8
▁您的 8
不过是 8
蛹 8
▁凌 8
历代 8
机遇 8
一遍又一遍 8
愚蠢 8
中挣扎 8
见状 8
暧昧 8
然无 8
主义的 8
耐烦 8
▁坚持 8
气体 8
吸引人的 8
喝酒 8
射门 8
▁去 8
▁所有的 8
这个消息 8
▁许 8
楼里 8
茜 8
有一个小 8
举动 8
各国 8
不只是 8
▁明天 8
一波 8
船上 8
责备 8
缸 8
千斤 8
有不同的 8
情怀 8
牢记 8
我一直在 8
两百 8
查看 8
换取 8
媛 8
特地 8
在里面 8
追随 8
的小男孩 8
行星 8
眼球 8
▁但在 8
第七 8
谨慎 8
媳妇 8
陋 8
丁香 8
▁我们从 8
从这 8
高等 8
▁军 8
增加了 8
嗨 8
扮演 8
自我介绍 8
也是一个 8
每位 8
▁打 8
▁但这 8
在白 8
清明 8
跑出 8
暴力 8
植树 8
溺 8
的思想 8
同行 8
坐在一起 8
70 8
▁我发现 8
句话说 8
拥有一个 8
街头 8
▁这件事 8
多米 8
赞许 8
市场 8
▁鱼 8
吸收 8
体内 8
出色的 8
萎 8
并不代表 8
了一天 8
▁但它 8
▁百 8
粟 8
然后是 8
锲 8
人性 8
可在 8
星期四 8
应是 8
继承 8
起步 8
耳机 8
拄 8
要用 8
找一个 8
到你 8
代替 8
概念 8
上是 8
▁香 8
一条线 8
说实话 8
看一眼 8
三次 8
那边的 8
不小 8
珍宝 8
推翻 8
走得 8
淋漓尽致 8
不相信 8
拆 8
浓密 8
烘 8
病了 8
金属 8
▁甚至 8
逞 8
作一 8
一是 8
奇特 8
官员 8
只需要 8
像往常一样 8
五百 8
交替 8
谭 8
为人民服务 8
偏向 8
大腿 8
他才 8
文化的 8
杜甫 8
数学家 8
倘若 8
迟迟 8
红灯 8
极端 8
从来没 8
▁无论是 8
燃烧着 8
患上了 8
留下了深刻的印象 8
茉 8
单薄 8
戮 8
垃圾桶 8
:( 8
它已经 8
趋 8
细长 8
前几天 8
淼 8
调侃 8
光线 8
雏 8
以为是 8
辗转 8
轼 8
有一辆 8
做的是 8
我妈妈 8
存在于 8
显示 8
便可 8
乘坐 8
田里 8
观念 8
她和 8
又是一个 8
心血 8
条约 8
▁这不是 8
又被 8
方面的 8
广大 8
从没有 8
跟上 8
全力以赴 8
老百姓 8
以致 8
蟹 8
肩膀上 8
▁呵呵 8
过山车 8
真是个 8
奇异 8
▁灰 8
受苦 8
腿上 8
▁田 8
描述 8
琢磨 8
裁 8
跟他们 8
轮到 8
的人才 8
自己的力量 8
赶忙 8
一场比赛 8
冲锋 8
扩散 8
提高了 8
伙 8
一直都是 8
报应 8
的游戏 8
冰块 8
▁透过 8
广州 8
的失败 8
做法 8
重伤 8
可否 8
掌控 8
▁我们应该 8
一只手 8
来做 8
的两个 8
忽视 8
跳下 8
掺杂 8
——“ 8
对他们 8
爬行 8
大大 8
马龙 8
各色 8
夸张 8
鸥 8
迟到 8
在被 8
缩在 8
需要我们 8
距 8
楞 8
娥 8
点半 8
项链 8
厨房里 8
的儿子 8
容忍 8
问自己 8
醋 8
招呼 8
自己也 8
好消息 8
禅 8
书上 8
▁参加 8
艇 8
武士 8
睬 8
清晰地 8
质疑 8
客气 8
要与 8
农田 8
诈 8
再到 8
幢 8
到学校 8
灭亡 8
噪 8
也同样 8
营 8
分别是 8
山东 8
天后 8
不明 8
要想 8
西方 8
迟到了 8
任何人 8
丝毫没有 8
听不懂 8
也是有 8
磊 8
就越 8
承受着 8
相交 8
黏 8
环保 8
采摘 8
亩 8
占了 8
领地 8
撞击 8
他很 8
珊瑚 8
起飞 8
时有 8
边上 8
▁仔细 8
一个人在 8
爱着 8
找回 8
▁随后 8
看好 8
壁上 8
▁就算 8
建成 8
嚼 8
序幕 8
感谢您 8
喻 8
第一步 8
赌 8
挑选 8
不料 8
残缺 8
▁他那 8
上都 8
的中间 8
逛街 8
陨 8
只是想 8
个体 8
糯 8
二人 8
的理由 8
宽敞 8
熟练 8
我不要 8
小提琴 8
要进行 8
引人注 8
出自 8
▁言 8
▁拥有 8
文具 8
年仅 8
作为一个 8
担忧 8
登山 8
个人的 8
有一对 8
国民 8
血流 8
做了一个 8
经过了 8
我们从 8
划船 8
▁立 8
相信我 8
倒入 8
▁本来 8
钻进 8
推进 8
锢 8
这些小 8
悲痛 8
理论 8
病人 8
r 8
分之一 8
整洁 8
坚毅 8
轰动 8
浑然 8
轨道 8
已成 8
智者 8
条的 8
促使 8
语句 8
的最好 8
岗位 8
▁南京 8
不可缺少 8
拖鞋 8
的保护 8
的姿势 8
▁如果说 8
昌 8
了就 8
单纯的 8
试着 8
无数次 8
闻名的 8
危害 8
需要的 8
看到他 8
三一 8
绿化 8
▁一张 8
是何 8
住宿 8
要开始 8
壮志 8
像他 8
人大 8
,10 8
的不同 8
蔼 8
成立 8
孩子们的 8
市的 8
遍布 8
的酒 8
脖子上 8
还带着 8
重量 8
喔 8
围棋 8
有意 8
摆脱了 8
是好 8
弘扬 8
就更 8
要从 8
的是什么 8
文明的 8
极点 8
随处可见 8
足球队 8
最高的 8
棂 8
静止 8
宫殿 8
服务 8
传球 8
星期三 8
医学 8
效应 8
自我的 8
取而代之的是 8
公布 8
智慧和 8
这个问题 8
椰 8
▁冰 8
感人 8
西门 8
因而 8
九月 8
一侧 8
是它 8
山上的 8
▁眼睛 8
杭州 8
箫 8
年里 8
杂草 8
戟 8
▁哈 8
洗脸 8
的冰 8
摇了 8
这条路 8
在人们 8
认可 8
衰老 8
含义 8
你真 8
也许会 8
是说 8
不认识 8
乡间 8
更远 8
见不到 8
女王 8
择 8
剃 8
多芬 8
加强 8
理解的 8
路程 8
删 8
名字叫 8
(7 8
钻石 8
第一位 8
XX 8
子孙 8
我也不知道 8
向他们 8
护士 8
壁画 8
均匀 8
躺下 8
低谷 8
▁感谢 8
最不 8
穿行 8
渍 8
困扰 8
览 8
▁她们 8
凝视着 8
瞄 8
叩 8
做得 8
一共有 8
制度 8
乐观的 8
追求的目标 8
中国人的 8
心目中的 8
▁这本书 8
的古 8
的那些 8
打球 8
多岁的 8
呕 8
不作 8
杠 8
为主 8
过上 8
和朋友 8
运气 8
好奇的 8
我以前 8
瞟 8
衍 8
着想 8
雪地 8
斌 8
在床上 8
惩罚 8
在没有 8
石的 8
女孩的 8
过多的 8
室里 8
摇摇 8
新生的 8
▁这就是我们 8
擀 8
您在 8
的时候了 8
▁我没有 8
满的 8
地讲 8
的人才能 8
的一件事 8
▁起初 8
堆积 8
肚皮 8
五千 8
太阳的 8
花都 8
喜欢他 8
要和 8
离家出走 8
三角 8
该怎么 8
明天的 8
一艘 8
引人注目的 8
破旧的 8
尊敬的 8
讨好 8
喘不过气来 8
酸的 8
是他的 8
靠在 8
揍 8
的记者 8
我们最 8
小牛 8
评论 8
说明了 8
据说 8
威胁 8
永远不会忘记 8
邹 8
的空间 8
懿 8
我必须 8
留给 8
这些事 8
瞎 8
倾盆 8
涸 8
在人 8
为一个 8
和一些 8
坐上 8
傅 8
可以做 8
刻意 8
涤 8
越好 8
参加比赛 8
键盘 8
▁胡 8
反映 8
突然间 8
不惜 8
▁" 8
讨人 8
的全 8
的叶 8
爆发了 8
发达 8
一律 8
妞 8
雕塑 8
特有的 8
迟早 8
苟 8
墓 8
了一套 8
在哪里 8
▁致 8
▁什么 8
▁正在 8
馄饨 8
的这 8
拥有着 8
会更 8
人与 8
讥 8
虚构 8
对他说 8
有这么 8
一个不 8
是我国 8
都有自己的 8
每每 8
盟 8
的死 8
说有笑 8
的职业 8
的关系 8
▁随 8
一中 8
侵犯 8
干净的 8
更重要 8
几张 8
用一个 8
蒋 8
标本 8
观的 8
以最 8
都想 8
来往 8
却也 8
会对 8
诱人 8
告诉大家 8
不仅要 8
浴 8
之首 8
▁江 8
着她的 8
江边 8
细胞 8
香蕉 8
的要 8
他们没有 8
自己喜欢的 8
没想到的是 8
本次 8
风景如画 8
浆 8
晌 8
太大了 8
惮 8
裂缝 8
冀 8
候 8
的人的 8
她的手 8
面纱 8
显然 8
或者说 8
满载 8
都比 8
于是就 8
徜徉 8
告诉他 8
土豆 8
的开始 8
怎么做 8
凝聚 8
碰到了 8
流行 8
调整 8
是金 8
▁顾 8
夏日的 8
重视 8
肉体 8
勋 8
抒 8
多月 8
颐 8
体现了 8
杀人 8
蒂 8
到此 8
励 8
噼 8
汤姆 8
▁思 8
牛顿 8
有多少人 8
生命力 8
关在 8
一个星期 8
走来走去 8
笼子 8
获取 8
▁我现在 8
响亮的 8
界的 8
的那天 8
光是 8
转了 8
丸 8
另一只手 8
教书 8
无缘 8
山脉 8
小偷 8
仿 8
二字 8
潘 8
平的 8
对他的 8
吸引着 8
▁并 8
任何一个 7
上衣 7
问你 7
清晰可见 7
发誓 7
吭 7
水中的 7
席上 7
再过 7
的动作 7
准确 7
▁我有一个 7
一站 7
之遥 7
日是 7
风云 7
的光线 7
桌上的 7
乘客 7
方形 7
到时 7
帮她 7
婵 7
▁伊 7
不做 7
我们大家 7
河上 7
吉他 7
成就了 7
汝 7
遵 7
杯水 7
复杂的 7
一听到 7
我听 7
画笔 7
雯 7
几个小时 7
▁该 7
本是 7
了一段时间 7
愈来愈 7
悬挂 7
养的 7
武汉 7
伸进 7
请大家 7
2012 7
之中的 7
对社会 7
房里 7
赔 7
报告 7
解脱 7
禾 7
孤儿 7
结论 7
橙色 7
重拾 7
上也 7
回答道 7
就是这个 7
会比 7
瓷 7
我给你 7
▁早 7
根据 7
璇 7
深刻的印象 7
▁可见 7
永远无法 7
老人家 7
焦躁 7
您是 7
的价值 7
我有一个 7
▁游戏 7
▁; 7
之类的 7
体贴 7
慌乱 7
人物的 7
波特 7
了解了 7
场上的 7
吠 7
创造的 7
消极 7
健儿 7
看到它 7
滑板 7
周六 7
han 7
触角 7
,8 7
触及 7
之道 7
蚊 7
终日 7
▁吴 7
形成的 7
的经济 7
变迁 7
抢救 7
党的 7
会看到 7
毒的 7
很久以前 7
传说中的 7
做出了 7
险峻 7
敦 7
▁哇 7
憎 7
▁看来 7
多大的 7
添加 7
吸入 7
野草 7
变得很 7
挺身而出 7
结合 7
邋遢 7
付诸 7
只有这样 7
▁我国 7
妈的 7
紧急 7
的龙 7
品德 7
多少个 7
我们都会 7
黑板 7
▁由 7
腾的 7
只有一 7
溱 7
借鉴 7
永远地 7
人群中 7
轻松的 7
法宝 7
无常 7
他以 7
触动 7
毕竟是 7
学习和 7
钓鱼岛 7
教学中 7
二十一 7
▁既 7
暑 7
照料 7
l 7
场所 7
岁的时候 7
冲洗 7
半小时 7
里头 7
日益 7
微不足道的 7
都不要 7
惊人 7
焕发 7
手可 7
珍爱 7
电视机 7
口袋里 7
衣服上 7
bo 7
失败者 7
国歌 7
葵 7
勃 7
后再 7
我得 7
对生活 7
词语 7
赶到 7
精美 7
大会 7
泳 7
这颗 7
收割 7
宝座 7
蜕 7
1, 7
职责 7
皇后 7
一个新的 7
听话 7
立足 7
才行 7
这个时候 7
▁另 7
却因 7
体操 7
的影响 7
你把 7
化了 7
他正 7
▁我不想 7
的不是 7
横跨 7
▁我没 7
下一代 7
拉扯 7
本来就 7
或在 7
王晓 7
再三 7
兆 7
满分 7
遗失 7
让大家 7
呆在 7
小腿 7
好几次 7
▁几个 7
看到一个 7
毁了 7
学者 7
男子的 7
发扬 7
与他们 7
而知 7
啰 7
敬畏 7
还不够 7
▁伴随着 7
这些话 7
su 7
温室 7
同志 7
移到 7
胜过 7
剩下的 7
皇冠 7
H 7
科幻 7
到底是 7
围住 7
不值得 7
有多大 7
米特 7
边际 7
光照 7
升的 7
是不可能的 7
更多的人 7
毕业后 7
即将来临 7
的一举一动 7
是一块 7
惑 7
出生在 7
员说 7
期待与 7
▁才 7
而是一 7
掰 7
高压 7
诣 7
变得越来越 7
为别人 7
一直是 7
你的生活 7
差别 7
帅哥 7
齿轮 7
多大 7
这几个 7
即便是 7
耕地 7
商店 7
片段 7
是指 7
这个名字 7
路标 7
准备了 7
勺子 7
发黄 7
高跟鞋 7
参加过 7
撞到 7
O 7
型的 7
应该做的 7
▁无奈 7
▁独 7
是一段 7
照顾好 7
团队 7
两支 7
教练 7
做一些 7
人能 7
孜孜 7
共产党 7
2, 7
洗衣服 7
大爷 7
才能让 7
趟 7
两分钟 7
俐 7
根本没有 7
高和 7
的未来 7
分子 7
昏昏欲睡 7
黄豆 7
通俗 7
得来 7
加大 7
取决于 7
盲目 7
▁所以说 7
枚 7
拿下 7
嚣张 7
不是在 7
霸王 7
打入 7
偏见 7
目前 7
运动的 7
书店 7
都一样 7
疲 7
废话 7
奇异的 7
港 7
为人类 7
加尔 7
琵 7
医院的 7
为一 7
咐 7
西红柿 7
风暴 7
灵的 7
张大 7
▁宋 7
寓言 7
击中 7
登场 7
▁c 7
命令 7
等的 7
盘子 7
让你们 7
▁夏季 7
她把 7
农家 7
被吓 7
引起了 7
遮掩 7
有时会 7
昨日 7
没有人会 7
同在 7
昏昏 7
的活动 7
义务 7
浪漫的 7
风顺 7
解决了 7
稳重 7
踪影 7
▁医生 7
给你的 7
睹 7
绯 7
几种 7
就以 7
不至于 7
不注意 7
钳 7
介绍一下 7
俏皮 7
奖励 7
K 7
他们又 7
彦 7
不属于 7
太少 7
河北 7
千万不要 7
碗里 7
越发 7
置身于 7
可以吗 7
▁河 7
铅球 7
自家 7
遍了 7
崇敬 7
婚纱 7
背面 7
信号 7
捅 7
归根 7
' 7
种类 7
地努力 7
最重要 7
袂 7
蝈蝈 7
一节 7
婚姻 7
▁玉 7
人多 7
的传统 7
房顶 7
回答说 7
一千 7
逃跑 7
整体 7
先生在 7
铮 7
环节 7
旋风 7
是一个人 7
▁狼 7
冤 7
一定有 7
仅有的 7
还说 7
是一本 7
孙子 7
感觉自己 7
我们开始 7
进来了 7
传播 7
▁为此 7
去向 7
他已 7
人工 7
外星人 7
你们要 7
的民族 7
气温 7
▁她是 7
凡事 7
维护 7
开出了 7
奶油 7
遍及 7
摇动 7
挽救 7
读完 7
生产 7
血管 7
四海 7
小吃 7
森林中 7
关门 7
▁七 7
花样 7
的经验 7
干吗 7
机场 7
她对 7
乙 7
噙 7
艰 7
▁我们必须 7
被人们 7
歌舞 7
嶙峋 7
贫穷 7
一举 7
他将 7
侮辱 7
正坐在 7
盐 7
一辈 7
无能 7
虐 7
▁不能 7
嘈杂 7
坐在椅子上 7
更别 7
星期五 7
繁多 7
垂涎 7
贯 7
仙人 7
的代表 7
23 7
脱离 7
是怎么回事 7
90 7
况 7
一趟 7
的准备 7
按钮 7
杂乱 7
做成 7
▁童 7
～ 7
城市中 7
如愿 7
出生于 7
意想不到 7
施展 7
白日 7
画出 7
也需要 7
树林里 7
噢 7
说我们 7
▁我以为 7
直视 7
去吧 7
使自己 7
博士 7
种族 7
萦 7
可想而知 7
细致 7
同事 7
提示 7
荣幸 7
我这次 7
不在乎 7
风景区 7
地被 7
昼夜 7
落后了 7
振作 7
并用 7
落下的 7
浇水 7
京 7
理的 7
种植 7
呆子 7
▁将 7
▁季 7
架起 7
扳 7
泓 7
推着 7
陨石 7
悉 7
出去玩 7
直射 7
▁假 7
平局 7
▁穿着 7
/ 7
哀叹 7
场合 7
骇 7
眼睁睁 7
上个 7
▁他又 7
打得 7
血迹 7
依据 7
▁她说 7
婚 7
它们都 7
滑冰 7
听不见 7
某种 7
说些什么 7
在这条 7
结交 7
志愿者 7
大声说 7
经常会 7
所以就 7
带回家 7
面向 7
火光 7
嘹 7
岗 7
少许 7
土地上 7
感知 7
劳作 7
叫好 7
膑 7
难得的 7
流转 7
不难 7
自尊 7
原创 7
时在 7
我们总是 7
将这 7
▁10 7
籍 7
的挑战 7
房门 7
▁空气 7
见到他 7
出身 7
必不可少的 7
表面上 7
大桥 7
示意 7
非常有 7
探险 7
脚踩 7
友好的 7
以一种 7
给人的 7
对自己说 7
戚 7
鳃 7
破碎的 7
毯子 7
这个机会 7
强国 7
的决心 7
有点儿 7
跟在 7
钰 7
源于 7
冷落 7
褂 7
也一样 7
▁上午 7
轻巧 7
很短 7
的要求 7
点上 7
征程 7
电线 7
相同的 7
爱人 7
人要 7
海面 7
我们把 7
顺手 7
增加 7
船的 7
郁郁 7
超市 7
有信心 7
这是为什么 7
广告 7
救了 7
暴躁 7
旺盛 7
地带 7
的森林 7
车窗 7
可以去 7
获奖 7
长老 7
激动人心的 7
生前 7
绩 7
后天 7
吃亏 7
▁兰 7
不吃 7
的一员 7
脚的 7
戴上了 7
我们已 7
淮 7
自己要 7
还不如 7
▁南 7
从他的 7
如果不是 7
机械 7
▁已经 7
他不是 7
讽 7
出去了 7
▁说到 7
▁野 7
▁十年 7
能使 7
引来 7
砾 7
一两 7
打成 7
海盗 7
具备 7
长相 7
装的 7
白痴 7
就结束了 7
霍 7
一意 7
蒙古 7
第一时间 7
排列 7
他知道 7
就行 7
还是被 7
这是什么 7
不是什么 7
的心声 7
饱受 7
▁调 7
启动 7
也十分 7
之后又 7
皮鞋 7
典型 7
笔记本 7
强烈 7
清洗 7
扼杀 7
在外面 7
看起来很 7
辆车 7
人文 7
露水 7
大好 7
有名的 7
的最后一 7
受伤的 7
板凳 7
瑙 7
象的 7
之计 7
非常喜欢 7
棠 7
年前的 7
就应该 7
风度 7
血肉 7
得非常 7
噜 7
比我们 7
了一座 7
帮助他 7
圆形 7
事迹 7
口袋 7
很多人都 7
近代 7
人在一起 7
生活了 7
高粱 7
内心深处 7
琶 7
苔 7
炙 7
九龙 7
资本 7
箱子 7
的冲动 7
捺 7
火炬 7
探讨 7
袜 7
这么大 7
观望 7
人性的 7
瘸 7
最小的 7
▁赛 7
却要 7
临时 7
河南 7
差的 7
巨石 7
的事业 7
匪浅 7
▁上面 7
短的 7
夫斯基 7
出自己的 7
▁麦 7
更没有 7
欢欣 7
坟 7
母鸡 7
月饼 7
是需要 7
看成 7
教育的 7
狭窄 7
扇门 7
馅 7
那几 7
位置上 7
的青年 7
生涯 7
上厕所 7
血腥 7
回家后 7
看得出 7
崽 7
结束后 7
也是个 7
▁耶 7
薄荷 7
时发现 7
老爷 7
席卷 7
弱者 7
的习惯 7
是真的 7
青菜 7
河畔 7
狡猾 7
推向 7
许多人都 7
▁今 7
中的一个 7
是世界上最 7
数字 7
口令 7
完善 7
猿 7
是不会 7
不下去了 7
要不然 7
七个 7
嘎嘎 7
能与 7
焕然 7
了什么 7
挎 7
非常感谢 7
纸张 7
体温 7
最多的 7
进去了 7
师父 7
高低 7
▁5 7
而成的 7
▁国 7
的时间里 7
没有在 7
能够在 7
曲线 7
希望自己 7
的房子 7
每人 7
碑 7
一如 7
无奈地 7
而至 7
辆 7
石头上 7
两句 7
调节 7
但他的 7
游离 7
▁国家 7
世纪的 7
留住 7
▁你说 7
看不出 7
日常 7
事物的 7
可以为 7
亦是 7
期许 7
书记 7
祖先 7
的正 7
忠于 7
五六 7
离家 7
我以为 7
坚持了 7
无关 7
古迹 7
的人民 7
致的 7
多余的 7
美好的时光 7
羚 7
责骂 7
走下 7
听我说 7
有无 7
有价值 7
出路 7
渔夫 7
不应 7
她喜欢 7
已经成为 7
涌出 7
车辆 7
我不会再 7
沉闷 7
迭 7
七点 7
▁换 7
遥不可及 7
独一无二 7
▁那位 7
糟糕 7
肥皂 7
简陋 7
有钱 7
报仇 7
锯 7
我们只是 7
▁特别是 7
的父母 7
米和 7
▁s 7
出一种 7
舒适的 7
们纷纷 7
迷恋 7
就得 7
鞠躬 7
到他 7
研 7
▁我曾经 7
诗歌 7
一线 7
航行 7
号码 7
粪 7
使他们 7
大手 7
鄙 7
自语 7
背负 7
微小的 7
在课堂上 7
站起身 7
没多久 7
龙头 7
闭上了 7
固定 7
紧锁 7
像你 7
量的 7
酱 7
韵律 7
屋顶上 7
畜 7
不能在 7
纪念馆 7
之声 7
钦 7
唰 7
法国 7
经典 7
自己喜欢 7
拒 7
过多 7
草稿 7
中只有 7
娱乐 7
就行了 7
的那种 7
矿泉水 7
天籁 7
戒指 7
▁下面 7
风扇 7
▁第三个 7
了口气 7
我只是想 7
亲眼 7
ba 7
看作 7
嘭 7
从她 7
▁第二次 7
吃喝 7
▁而现在 7
和无 7
▁淡 7
那么简单 7
每一步 7
情人 7
▁火 7
阵风 7
长而 7
一个新 7
烟雾 7
下落 7
后才 7
的爱情 7
默契 7
身的 7
胜地 7
绝不会 7
▁霍 7
明朗 7
过他 7
圣人 7
答道 7
吃到 7
山是 7
的本 7
万年 7
这样的话 7
桠 7
▁游 7
开水 7
▁可能是 7
发泄 7
说了什么 7
审判 7
名声 7
那个女孩 7
讲究 7
没用 7
▁机会 7
鲤鱼 7
锣 7
六月 7
潮流 7
马的 7
略显 7
了一本 7
舞者 7
华山 7
把这个 6
坝 6
X 6
劝告 6
都为 6
策略 6
愉 6
荚 6
在对 6
的新生 6
充分 6
可悲 6
方可 6
在用 6
我们被 6
▁宝 6
沙尘暴 6
但我想 6
前锋 6
回的 6
失败后 6
报纸 6
打到 6
动员 6
是任何 6
这事 6
回答问题 6
本该 6
靖 6
挂起 6
点左右 6
平日里 6
田园 6
会变 6
广场的 6
切勿 6
首先要 6
崇尚 6
来过 6
两三 6
和有 6
不关心 6
休息一下 6
悲伤的 6
于此 6
修改 6
谎言 6
从现在开始 6
的决定 6
坊 6
教材 6
应对 6
还不错 6
补习班 6
愫 6
不等 6
南瓜 6
因病 6
要知道 6
无名 6
中途 6
是最重要的 6
的小说 6
这首歌 6
▁努力 6
想到的 6
飞行 6
冯 6
即使是 6
平原 6
仍然是 6
作了 6
城里 6
冰雹 6
▁18 6
灌木丛 6
有自己的 6
卷曲 6
在哪儿 6
崭新 6
常常在 6
啧啧 6
之歌 6
朋友和 6
▁音乐 6
我记得 6
上升 6
搜寻 6
而这 6
的林 6
急速 6
一如既往 6
修辞 6
钟情 6
沉迷 6
时间去 6
的最佳 6
宅 6
▁问 6
手提 6
方能 6
完成的 6
洋溢 6
不问 6
聚集 6
上岸 6
二氧化碳 6
是什么样 6
彰 6
杰伦 6
像我们 6
自己已经 6
慌了 6
船长 6
的英雄 6
撷 6
取而代之 6
也因此 6
学校在 6
le 6
烽 6
时才 6
皮带 6
松了一口气 6
几何时 6
塑料 6
知觉 6
学习了 6
改善 6
最低 6
常常会 6
毙 6
奶粉 6
养活 6
气和 6
来这里 6
食品 6
以来的 6
污垢 6
与众不同 6
作战 6
无休止 6
那场 6
你想要 6
轨 6
▁各位 6
生根 6
装着 6
是因为它 6
复仇 6
作弊 6
传到 6
经历的 6
▁与此同时 6
信赖 6
不容 6
捻 6
癫 6
的最后 6
绺绺 6
争吵 6
龚 6
光影 6
事后 6
芝麻 6
电动车 6
点燃了 6
上山 6
真的有 6
杨梅 6
天空的 6
损失 6
下水 6
带我们 6
、4 6
中外 6
检 6
会更加 6
▁现实 6
质量 6
看在 6
用你的 6
多余 6
想让我 6
苍蝇 6
她又 6
看见的 6
潜入 6
恳 6
排放 6
此处 6
始终没有 6
忙碌的 6
什么样 6
牛仔裤 6
▁但现在 6
风情 6
走入 6
沸 6
ge 6
唯一一个 6
就很 6
▁我们有 6
都不一样 6
茅草 6
mo 6
时间来 6
▁不料 6
很重要 6
是一群 6
东风 6
第九 6
转悠 6
是人们 6
暂 6
哭了起来 6
沃 6
波的 6
▁由此 6
美酒 6
就变得 6
充斥 6
也正 6
更喜欢 6
所带来的 6
老大 6
带的 6
凿 6
临近 6
离婚 6
下滑 6
造成了 6
▁不论 6
云南 6
平平 6
得失 6
▁这一切 6
邪恶的 6
后来的 6
新娘 6
吸血鬼 6
室内 6
安定 6
长远 6
不合 6
拙 6
在西 6
塑 6
痛苦地 6
”( 6
开到 6
仅有 6
石上 6
着实 6
浙江 6
才是最 6
保佑 6
抗 6
当下 6
地面上 6
长度 6
▁记者 6
关切 6
▁入 6
两个小时 6
出名 6
生存的 6
两名 6
修剪 6
▁我们会 6
术 6
干燥的 6
否定 6
快看 6
索取 6
你就可以 6
菲菲 6
斋 6
撕裂 6
却因为 6
成就感 6
还要多 6
局势 6
都将 6
敷 6
我第一次 6
梦想着 6
▁y 6
他都 6
焱 6
出现过 6
qu 6
高举 6
冲击 6
与小 6
装修 6
栉 6
留意 6
的这些 6
li 6
,100 6
与我们的 6
一新 6
就对 6
噩梦 6
幡 6
一枚 6
22 6
顶层 6
果断 6
呼吁 6
▁一定 6
阴雨 6
会为 6
每天都会 6
“, 6
公平的 6
浦 6
有益 6
希望能够 6
枫树 6
对抗 6
守在 6
点评 6
已经到了 6
能不 6
去买 6
闲着 6
已经没有 6
年初 6
解决问题 6
抗拒 6
98 6
施肥 6
解开 6
判断 6
▁我不能 6
炭 6
听觉 6
阶段的 6
水了 6
破旧 6
加以 6
不良 6
政府 6
相差 6
能用 6
减少了 6
椿 6
她总是 6
笼子里 6
出行 6
懒惰 6
巅 6
同类 6
年头 6
过早 6
处理 6
耘 6
一间 6
▁升 6
名牌 6
搞得 6
怠 6
会让人 6
她们的 6
平庸 6
过马路 6
隐形 6
细微 6
充满希望 6
救灾 6
山坡上 6
往外 6
的行动 6
家喻户晓 6
的基础 6
这是个 6
咽喉 6
帮他 6
快感 6
不会被 6
▁今日 6
歌颂 6
风味 6
▁凯 6
山村 6
客人 6
茬 6
注视 6
有小 6
古怪 6
卷发 6
被打破 6
变质 6
头大 6
淫 6
把她的 6
负面 6
似乎没有 6
名胜 6
注入 6
家长和 6
赚 6
峡 6
高中的 6
美观 6
和母亲 6
勾勒出 6
医治 6
灾区 6
拉起 6
学分 6
比他 6
那个小 6
部落 6
决定了 6
今晚 6
当一名 6
失恋 6
下手 6
播放 6
不断提高 6
哽 6
库 6
不带 6
抽屉 6
脚石 6
可见的 6
▁艾 6
需要帮助 6
用户 6
敲响 6
州的 6
▁受 6
近的 6
向东 6
问过 6
污泥 6
杂志 6
饮料 6
喉 6
取胜 6
近在 6
或不 6
硬币 6
▁下次 6
拿去 6
”—— 6
新疆 6
▁桂 6
应为 6
搁 6
金山 6
辟 6
绵延 6
闭上了眼睛 6
最初 6
总决赛 6
实现的 6
小麦 6
自己的孩子 6
仁慈 6
给自己的 6
掌握了 6
▁哎 6
点击 6
地平 6
恶作剧 6
驱赶 6
为大家 6
前三名 6
结合起来 6
家常 6
却不是 6
薛 6
强调 6
破裂 6
许诺 6
的同 6
稀少 6
则在 6
与之 6
灵敏 6
对你的 6
堂课 6
赛后 6
如下 6
,。 6
地用 6
27 6
之多 6
显露 6
ua 6
构成了 6
主任 6
恰恰 6
对人 6
和其它 6
请看 6
雷雨 6
▁19 6
驯 6
得过 6
各种各样 6
长有 6
呈现出 6
▁我来 6
之下的 6
的发现 6
凉快 6
大型 6
bi 6
虚拟 6
清楚地 6
脑筋 6
某一 6
一整天 6
梦见 6
国庆节 6
逼近 6
架上 6
永生 6
蒸发 6
下班 6
村落 6
侧面 6
擎 6
正面 6
无能为力 6
宏伟 6
姨妈 6
,3 6
令我们 6
循环 6
喜剧 6
站稳 6
牧羊 6
唾 6
的山峰 6
思想的 6
新的一天 6
十几个 6
帮助我们 6
三年前 6
过度 6
无色 6
他开始 6
觅食 6
将球 6
有何 6
能以 6
正是在 6
固定的 6
济南 6
是那些 6
堵墙 6
也更加 6
可以被 6
请您 6
有一名 6
的白色 6
▁枪 6
便被 6
太热 6
俺 6
元素 6
我是个 6
发生了什么 6
座上 6
阴天 6
蟒 6
郑重 6
整齐地 6
便在 6
找了 6
平静下来 6
的服务 6
驿 6
只能用 6
杂质 6
死亡的 6
霹 6
▁在他的 6
涓 6
存的 6
都是一个 6
有些事情 6
太棒了 6
桌布 6
最爱的 6
大多是 6
高昂 6
也不必 6
送上 6
中一个 6
稍微 6
谨 6
敢不敢 6
步履 6
猖 6
时髦 6
第一眼 6
▁是不是 6
令他 6
死去的 6
等奖 6
果肉 6
▁都说 6
任何事情 6
还会有 6
▁女子 6
介 6
制服 6
融合 6
▁周围 6
蔑视 6
花和 6
曾说 6
在我看来 6
还在继续 6
歧视 6
▁郑 6
的家伙 6
授 6
▁他用 6
变化的 6
两人的 6
署 6
湖中 6
资质 6
只是一种 6
宿命 6
要说 6
输送 6
死于 6
你和我 6
然后再 6
在一间 6
龙的 6
93 6
蚪 6
他与 6
他因 6
▁盛 6
应付 6
低调 6
著作 6
也因为 6
自然界 6
撞上 6
尽显 6
字的 6
作风 6
天都 6
她为 6
是如此的 6
襄 6
点心 6
警告 6
缺乏 6
麦田 6
搏斗 6
深陷 6
不老 6
无须 6
各大 6
不那么 6
新衣服 6
污水 6
加倍 6
和谐的 6
有能力 6
垮了 6
言行 6
更需要 6
▁我就 6
的成长 6
皙 6
分出 6
奥秘 6
想来 6
光滑的 6
协调 6
我们自己的 6
排名 6
字典 6
虚弱 6
站的 6
邻家 6
瓜果 6
这笔 6
门上 6
消融 6
现在我们 6
要到 6
后卫 6
物种 6
的情况 6
销 6
并在 6
降落 6
不死 6
一部 6
虽然有 6
▁他们是 6
尽职 6
亮点 6
喜欢吃 6
落于 6
军的 6
走开 6
越长 6
捋 6
岸上 6
▁小男孩 6
顾客 6
龇 6
分担 6
主流 6
发生的 6
奶酪 6
书房 6
盲人 6
收获了 6
救援 6
鳅 6
向来 6
关系的 6
没收 6
前三 6
结冰 6
谜 6
的意义 6
两个月 6
用我的 6
未必 6
明知 6
的绿色 6
总统 6
仅仅是 6
果真 6
的热爱 6
▁这个时候 6
的一大 6
充满活力 6
厮 6
跟她 6
圈的 6
大学生 6
树根 6
麋 6
阴云 6
鹦鹉 6
磁 6
扼 6
的命运 6
上学时 6
香港 6
重现 6
因为这是 6
满足了 6
窦 6
瞒 6
▁文章 6
事实上 6
拱桥 6
等他 6
严格要求 6
一瓶 6
社会中 6
我买 6
基本上 6
这才是 6
去医院 6
则是一 6
穹 6
真爱 6
▁或者 6
手枪 6
跑来跑去 6
什么都没有 6
日后 6
王一 6
3, 6
件衣服 6
他突然 6
当选 6
介绍了 6
启迪 6
为国 6
桨 6
▁福建 6
的身份 6
当地 6
▁再次 6
他只 6
智慧的 6
囚禁 6
捉摸 6
▁你是 6
游到 6
点钱 6
听说过 6
交代 6
把所有的 6
能有 6
▁长城 6
荒野 6
很可能 6
更应该 6
断断续续 6
推出 6
广阔的 6
在无 6
涮 6
已有 6
天花板 6
相约 6
范围 6
篓 6
抵御 6
迟钝 6
不同意 6
靶 6
卜 6
把钱 6
琦 6
校的 6
合适 6
▁这个故事 6
觉醒 6
暗示 6
便说 6
诞生了 6
妇人 6
▁那样 6
垮 6
地板上 6
连成 6
坚实的 6
轴 6
扰乱 6
辅导 6
故事中 6
▁他总是 6
奋战 6
没有被 6
修饰 6
围巾 6
豆子 6
什么地方 6
个多 6
蛤 6
能源 6
盛大的 6
绛 6
提议 6
浓郁的 6
更新 6
外国人 6
打字 6
▁头 6
蝌 6
在校 6
遮蔽 6
无止境 6
99 6
我从未 6
沙发 6
精致的 6
悸 6
庞大 6
锋利 6
“。 6
弘 6
结伴 6
庭院 6
词的 6
类似 6
轮流 6
▁其次 6
一至 6
功绩 6
的做法 6
被选 6
我写 6
专家 6
之行 6
他时 6
晦 6
庄子 6
都得 6
膨胀 6
我还有 6
转角 6
天啊 6
夭 6
的胜利 6
看她 6
什么也没说 6
▁每一个 6
舒缓 6
是一对 6
雳 6
2008 6
▁少 6
伴侣 6
标题 6
▁也是 6
消除 6
行列 6
认识你 6
看一下 6
的边缘 6
端正 6
混沌 6
倍感 6
口味 6
在北京 6
舍弃 6
的狗 6
▁日本 6
花钱 6
建造 6
签 6
火山 6
迈入 6
深受 6
堪称 6
成千上万 6
子女 6
再好 6
豪华 6
▁有一种 6
见到你 6
树皮 6
▁子 6
迈进 6
1. 6
都有着 6
说话了 6
五四 6
工作的 6
酝酿 6
而变得 6
东北 6
憾 6
暂时的 6
我担心 6
▁我可以 6
▁在没有 6
坐在那里 6
丰硕 6
流向 6
躯体 6
得要 6
6) 6
拴 6
购买 6
在整个 6
了下 6
雍 6
走好 6
领取 6
造福 6
筋疲力尽 6
事了 6
漩 6
钱包 6
麻醉 6
嗒嗒 6
他的心 6
圆圈 6
要靠 6
死在 6
日本的 6
而久之 6
已经很 6
上都有 6
发现的 6
忽略了 6
接近尾声 6
三个月 6
▁哈哈 6
▁山东 6
啜 6
婚礼 6
衣柜 6
狸 6
而成 6
想问 6
第十 6
赘 6
这并不是 6
让小 6
落泪 6
该如何 6
的考验 6
你今天 6
封锁 6
呛 6
夫妻 6
对她的 6
绘画 6
生来 6
准时 6
奥运 6
渡过 6
被迫 6
身体里 6
2019 6
告诉她 6
仍能 6
频频 6
北极 6
▁写 6
对准 6
典范 6
的节奏 6
母女 6
T 6
他现在 6
谴责 6
常说 6
逆流 6
风波 6
芜 6
拿出一 6
草和 6
地是 6
我准备 6
再度 6
▁正当 6
而无 6
奋起 6
我们曾经 6
音乐的 6
看了一下 6
与众不同的 6
称之为 6
也希望 6
始至终 6
前辈 6
大臣 6
公交 6
喀 6
打磨 6
以便 6
▁经 6
心声 6
每天的 6
无法想象 6
组合 6
色彩的 6
迷住了 6
这个词 6
一袋 6
自嘲 6
的家庭 6
用钱 6
发狂 6
这块 6
的温度 6
的帮助下 6
将我们 6
救赎 6
爱吃 6
他们把 6
炎炎夏日 6
第三个 6
他们已经 6
烙印 6
改变的 6
将自己的 6
做作业 6
大鱼 6
色泽 6
到尾 6
是将 6
拿破仑 6
事情的 6
的作用 6
全神贯注 6
介意 6
萤 6
当场 6
我们这里 6
就是他 6
▁任何 6
他有 6
柠檬 6
▁但是如果 6
本来就是 6
严厉的 6
逊色 6
这里面 6
林肯 6
据 6
致敬 6
的特点 6
物理学家 6
给我看 6
他们能 6
使用了 6
救我 6
海军 6
之交 6
镂 6
泛滥 6
管理员 6
▁家里 6
大帝 6
运球 6
黄土 6
跟我们 6
悉心 6
带给你 6
我给 6
有可能 6
脯 6
顺势 6
媒体 6
寡 6
反倒 6
钟头 6
借助 6
台词 6
长处 6
观众的 6
试图 6
的成功 6
江山 6
敞开 6
奔赴 6
同意 6
茶叶 6
版 6
自然地 6
菜园 6
簪 6
▁纯 6
肯定的 6
合理 6
号的 6
那我就 6
一角 6
强迫 6
的文字 6
制止 6
肥胖 6
来帮助 6
表现出 6
写出 6
维也纳 6
太极 6
赢得比赛 6
恭喜 6
▁泰 6
--- 6
衣领 6
探究 6
手套 6
死后 6
更要 6
涅 6
注定要 6
隆重 6
越来越少 6
坐下来 6
吞下 6
会变成 6
就是我们的 6
理解和 6
确定 6
好心 6
办公室里 6
人却 6
敞 6
切的 6
很差 6
准备的 6
他一直 6
行业 6
阴凉 6
深思 6
魔术师 6
▁除了 6
类的 6
▁但愿 6
也已 6
券 6
他并没有 6
历史上 6
嵌入 6
如意 6
国外的 6
为小 6
床铺 6
山路 6
也会在 6
萧条 6
辨 6
诗词 6
闪耀着 6
我认识 6
金的 6
全面 6
的勇气 6
镀 6
蓉 6
替代 6
皂 6
好起来 6
车轮 6
流传 6
蕴含着 6
绢 6
的人都会 6
的沙漠 6
也得 6
首先是 6
韶 6
虐待 6
无事 6
要比 6
120 6
祈求 6
那个时候 6
匝 6
籁 6
重建 6
很棒 6
精神上的 6
这个节目 6
魔术 6
帐篷 6
角色 6
是哪 6
预测 6
盛夏 6
段落 5
▁如果在 5
暄 5
有时间 5
因其 5
更强 5
模糊的 5
好后 5
的单 5
写在 5
的答案 5
的研究 5
教堂 5
和张 5
也有点 5
钞票 5
充满信心 5
中国人民 5
桩 5
不齐 5
析 5
手表 5
更近 5
丢下 5
佩戴 5
寥寥无几 5
当时我 5
▁我们把 5
动物的 5
有事 5
出差 5
呕吐 5
我是谁 5
我们只 5
▁植物 5
施舍 5
融入了 5
▁易 5
要为 5
朝的 5
活力的 5
你是一个 5
亲身 5
金币 5
没有想到 5
单车 5
感兴趣 5
麦兜 5
发音 5
毛绒 5
尽管如此 5
刻画 5
唧唧 5
在向 5
75 5
招来 5
免费 5
不大的 5
带头 5
帕 5
小到 5
转向 5
将永远 5
社区 5
he 5
所有的人 5
及格 5
四百 5
认为是 5
便宜 5
西北 5
潮湿的 5
▁与其 5
解放军 5
我们正在 5
深信 5
来参加 5
▁平时 5
簸 5
都市 5
明代 5
深远 5
的自然 5
事例 5
学科 5
长裤 5
可以将 5
科学的 5
是老 5
杂技 5
的建筑 5
胶水 5
你可能 5
放松了 5
尔的 5
战火 5
佞 5
女朋友 5
七星 5
在桌子上 5
传统文化 5
▁气 5
掺 5
在他们的 5
恋人 5
浓厚的 5
很奇怪 5
褪色 5
非同 5
基本的 5
已经过去 5
我们都是 5
漩涡 5
篇幅 5
找我 5
6000 5
是高 5
就和 5
治病 5
学术 5
▁一群 5
云龙 5
的生活中 5
一张纸 5
妨碍 5
无从 5
缆车 5
结束时 5
我听到 5
当它 5
洁净 5
指出 5
全非 5
的火焰 5
懒散 5
是否能 5
多一点 5
法师 5
我们一直 5
行者 5
刚从 5
恼火 5
嫂 5
() 5
歌星 5
争斗 5
一开始就 5
飞天 5
自古以来 5
公共 5
不准 5
刹 5
解释道 5
清了 5
馒头 5
给孩子 5
讴 5
张照片 5
▁2011 5
.. 5
2013 5
某人 5
的对象 5
统一 5
每次都 5
遁 5
嘎 5
瞩目的 5
情谊 5
很热 5
▁跨 5
乾坤 5
则会 5
挑衅 5
杜绝 5
盘的 5
罗斯福 5
浓厚 5
绵羊 5
浪费了 5
长途 5
会更好 5
一改 5
替他 5
白杨 5
晚餐 5
守法 5
腐烂 5
显得有些 5
在过去 5
la 5
交汇 5
霓 5
回复 5
告示 5
产品 5
因为没有 5
可以让 5
浏览 5
他只是 5
▁辛 5
一贯的 5
排斥 5
▁我和我的 5
朽 5
法则 5
大妈 5
但其 5
活了 5
措 5
无辜 5
拱 5
78 5
伤害了 5
比拼 5
打断 5
▁继 5
曾是 5
》; 5
而导致 5
褶皱 5
面部 5
▁亚 5
土壤 5
遭受了 5
一枝 5
和鼓励 5
作出了 5
递给 5
人头 5
镯 5
取暖 5
寇 5
▁列 5
会给 5
热心 5
听音乐 5
女士 5
渠 5
预言 5
的信心 5
认错 5
党和 5
▁至今 5
木马 5
顽 5
在它 5
现在也 5
最重要的是 5
凶猛 5
▁越 5
菜的 5
风沙 5
在地面 5
排的 5
味儿 5
满足于 5
有如 5
舆论 5
一个孩子 5
即将到来的 5
战争的 5
女教师 5
雨衣 5
屏障 5
目睹 5
遥控器 5
投入到 5
清理 5
▁不用 5
特产 5
火车站 5
荒唐 5
陈嘉 5
桥下 5
名词 5
米奇 5
不要太 5
▁老虎 5
先生的 5
甘蔗 5
喜欢在 5
瘪 5
非常重要 5
状况 5
上万 5
鲸 5
唠 5
救出 5
二是 5
▁这里是 5
周围的人 5
敬礼 5
石板 5
减轻 5
倡导 5
夫的 5
前者 5
佑 5
声势 5
元的 5
星期一 5
设想 5
诊 5
申 5
翻译 5
马蹄 5
村子 5
骷髅 5
年以来 5
话题 5
大批 5
医生的 5
动机 5
的状态 5
合的 5
人际 5
制成 5
运转 5
▁即 5
▁你不 5
将大 5
带她 5
理智 5
地步 5
不前 5
政府的 5
她已经 5
礼节 5
▁苦 5
叹为观止 5
来说是 5
天黑 5
37 5
是什么时候 5
▁不会 5
)“ 5
其中有 5
坪 5
丧失了 5
晔 5
地注视着 5
告诉你们 5
了他们的 5
▁在一次 5
中去 5
的帽子 5
常见 5
节的 5
珠宝 5
锡 5
栽培 5
却不能 5
▁球 5
▁他也 5
将我的 5
如愿以偿 5
并没 5
戎 5
除非 5
分校 5
宽大 5
大骂 5
把所有 5
得体 5
▁爱因斯坦 5
因为它是 5
▁让人 5
在世界 5
恣 5
封面 5
外国语 5
对我而言 5
▁在这一 5
的部分 5
大有 5
内存 5
和那些 5
▁这是我们 5
家中的 5
年在 5
砚 5
36 5
平整 5
并无 5
毒品 5
▁我今天 5
节日的 5
某些 5
焚 5
确实很 5
切成 5
住的 5
详细 5
吉祥 5
年间 5
早晚 5
相聚 5
迈出了 5
全心全意 5
无关紧要 5
鸢 5
制的 5
▁经历 5
但后来 5
绝不能 5
小时后 5
攻破 5
公式 5
当当 5
同时也是 5
▁一个人的 5
兜里 5
的人也 5
中原 5
▁方 5
一连 5
口罩 5
叛 5
▁比如说 5
珍藏 5
但要 5
一幢 5
做成的 5
实行 5
隐居 5
就算是 5
宙 5
总比 5
架子 5
膏 5
收回 5
动画 5
闻的 5
咣 5
效率 5
有多好 5
刘翔 5
去那里 5
胃口 5
就是不 5
对于那些 5
排挤 5
母子 5
明显的 5
二中 5
直径 5
去哪儿 5
门票 5
翰 5
▁简 5
放在了 5
机的 5
牢固 5
相比之下 5
▁他是个 5
其次 5
都是有 5
猎人 5
▁一些 5
是两个 5
该死的 5
杀的 5
抚养 5
窘 5
就必须 5
厄运 5
深蓝色 5
之间的关系 5
打死 5
富翁 5
强行 5
想办法 5
傻瓜 5
三条 5
做为 5
止步 5
庸俗 5
大同 5
可比 5
驶向 5
灵活的 5
是由于 5
集市 5
一长 5
虹 5
俞 5
▁根据 5
亏了 5
欣然 5
我们不会 5
滕 5
在工作 5
找他 5
葛 5
成才 5
要多 5
隅 5
流言 5
他能 5
一阵子 5
▁沈 5
山里 5
想要什么 5
化肥 5
是学校 5
▁我们首先 5
硬的 5
▁哎呀 5
对峙 5
威力 5
都有可能 5
成长为 5
为他人 5
底部 5
”...... 5
are 5
汇聚 5
庐 5
它从 5
恒星 5
是不能 5
她是个 5
起初 5
便可以 5
尔摩 5
露面 5
崩溃 5
沼泽 5
▁故事 5
为他的 5
时期的 5
的一些 5
震动 5
独有的 5
的各种 5
▁近日 5
碰撞 5
源源 5
为孩子 5
开场 5
四人 5
▁关于 5
并不像 5
敲门 5
海鸥 5
耽误 5
惊慌失措 5
格格 5
▁男子 5
鸟的 5
投影 5
内向 5
跳入 5
偏僻 5
▁’ 5
漪 5
剧烈的 5
者们 5
▁我不会 5
淙淙 5
但由于 5
浸透 5
也是为了 5
▁左 5
端庄 5
抛在 5
冰的 5
这一段 5
过大 5
折叠 5
获得的 5
意料 5
我刚刚 5
▁不仅 5
自学 5
隐藏着 5
趁机 5
骑马 5
也是最 5
普通话 5
▁即便 5
鲤 5
高峰 5
霭 5
昨天的 5
▁它们是 5
受的 5
美满 5
未尽 5
式的 5
十二岁 5
▁数学 5
我经常 5
喜欢上 5
名单 5
的可爱 5
三大 5
火了 5
纸巾 5
我也不会 5
康乃 5
通了 5
和高 5
诶 5
五次 5
▁2、 5
很近 5
就是这么 5
提供 5
今后的 5
闭嘴 5
一部分 5
安全感 5
涨潮 5
语是 5
▁她用 5
就是如此 5
巧妙 5
▁听着 5
坚定地 5
但却是 5
损 5
矿 5
以外 5
监视 5
年的时间 5
▁然后我们 5
中场 5
听从 5
七年 5
夙 5
传达 5
屠 5
开辟 5
平坦 5
过滤 5
头颅 5
因如此 5
竞 5
知识和 5
一直没有 5
晃动 5
丝绸 5
知道他 5
交接 5
花边 5
▁门 5
你们能 5
琐碎 5
她所 5
▁成 5
又将 5
我愿 5
): 5
▁学生们 5
▁美国 5
前来 5
不再有 5
重返 5
薄弱 5
焦虑 5
在各 5
与现实 5
裾 5
祝你 5
叶草 5
到脚 5
培 5
上时 5
有很多人 5
无动于衷 5
圆的 5
压缩 5
所学校 5
松林 5
战场上 5
担任 5
然后用 5
同龄人 5
应该在 5
进而 5
新鲜空气 5
之城 5
就够了 5
▁赵 5
的心里 5
毫无疑问 5
1、 5
不会因为 5
火灾 5
尖锐的 5
常态 5
会议 5
林木 5
眼前一亮 5
▁实际上 5
中是 5
处于 5
运作 5
坐了 5
甚者 5
家属 5
ci 5
方便面 5
闪闪发光的 5
阂 5
希望您 5
中山 5
失败告终 5
特别喜欢 5
你是怎么 5
柏油 5
之所 5
应有 5
95 5
为国家 5
矮人 5
万能 5
缩小 5
将它们 5
质问 5
白雪公主 5
之事 5
一直都 5
知晓 5
萌芽 5
必将 5
会出现 5
流利 5
关上 5
开始就 5
奴 5
▁几天后 5
也只 5
之内 5
卸下 5
的含义 5
要坚持 5
我的想法 5
沟里 5
斑斑 5
八方 5
最适合 5
是把 5
奶牛 5
穿的 5
意在 5
▁桥 5
一时的 5
寻常 5
你吗 5
眩 5
两片 5
挲 5
当了 5
陕西 5
▁有个 5
花上 5
32 5
全然 5
断定 5
飞越 5
取的 5
愚昧 5
材 5
39 5
槽 5
也可 5
的信 5
我知道你 5
起落 5
田地 5
的印象 5
使我的 5
▁很久 5
花期 5
上对 5
他所 5
▁第五 5
缺失 5
不要把 5
▁我问 5
导游 5
的高度 5
部的 5
清纯 5
要先 5
知道的 5
玩乐 5
胆怯 5
疮 5
的小镇 5
,7 5
印证 5
发自内心的 5
宁可 5
做些 5
阳光和 5
炖 5
对付 5
还剩 5
使我们的 5
38 5
摆弄 5
文物 5
不同的是 5
继续前进 5
的空 5
引力 5
嶂 5
雷霆 5
其实就是 5
全面发展 5
从她的 5
不知不觉中 5
地看到 5
上游 5
提倡 5
是以 5
开一个 5
▁打开 5
醒来时 5
袒 5
一些东西 5
拭 5
无论在 5
它被 5
公众 5
的苹果 5
一个在 5
她正在 5
八月 5
重回 5
理所当然 5
殀 5
怨恨 5
先去 5
京剧 5
位的 5
差异 5
愠 5
回想起来 5
在班 5
的第一天 5
举办了 5
不要紧 5
起码 5
饺 5
病情 5
就会被 5
▁不到 5
一早 5
我会在 5
集中 5
绊脚石 5
细心的 5
老太 5
向北 5
▁女人 5
廉 5
攸关 5
茏 5
是我最喜欢的 5
一亮 5
脚趾 5
源自 5
如果有 5
成败 5
国会议员 5
几句话 5
谙 5
枉 5
同样是 5
各方面 5
琐事 5
在空 5
访 5
在音乐 5
力所能及 5
葱葱 5
颇为 5
▁接下来的 5
扎根 5
肚子里 5
很长时间 5
在全 5
需求 5
牵手 5
防线 5
▁经过一番 5
设法 5
湖畔 5
红梅 5
对我们来说 5
秩序 5
车祸 5
浓缩 5
电视台 5
扔掉 5
对她说 5
段时间 5
又回到了 5
昧 5
中秋 5
亚军 5
帮手 5
舍得 5
展现出 5
他俩 5
挥霍 5
春晚 5
地进行 5
权力 5
▁幸好 5
是一天 5
跑出来 5
看起来像 5
崇高的 5
为重 5
学生在 5
的腿 5
▁【 5
▁郭 5
机关 5
焚烧 5
对学生 5
民主 5
两个人的 5
三位 5
饥渴 5
▁偶然 5
大河 5
轰炸 5
火种 5
但从 5
鲨鱼 5
嘶哑 5
女子的 5
给他人 5
计算 5
不仅有 5
最短 5
会这样 5
炬 5
虽已 5
幸运的 5
▁我们还 5
光盘 5
知道她 5
捐 5
头晕 5
都希望 5
也并不 5
他太 5
性感 5
醒目 5
热浪 5
跷 5
虽然是 5
爵 5
开发 5
因为这些 5
以下 5
八十 5
拼凑 5
68 5
在哪 5
难民 5
还有人 5
统 5
的心理 5
赶走 5
家长的 5
非常高兴 5
我就可以 5
了一个新 5
观赛 5
三点 5
吐痰 5
网络 5
献上 5
又以 5
矩 5
和外 5
动弹 5
得分 5
到家 5
在未来的 5
▁在他 5
▁从那时起 5
▁有一个 5
螂 5
地生活 5
纷呈 5
引来了 5
创作了 5
医院里 5
的人格 5
梵 5
称呼 5
援助 5
一格 5
袤 5
要看 5
牢骚 5
会长 5
希望与 5
娘娘 5
▁那就是 5
▁常 5
蟆 5
商人 5
学到的 5
实现梦想 5
输掉了 5
业的 5
离开时 5
八个 5
吹牛 5
一模一样 5
休息时间 5
添彩 5
期限 5
hi 5
他总是 5
音乐会 5
温暖和 5
大街 5
射击 5
念叨 5
爱迪生 5
正常的 5
过得很 5
践行 5
▁汽车 5
▁有多少 5
森的 5
沸腾了 5
甚至可以 5
质感 5
后者 5
消毒 5
芒果 5
▁作者 5
称的 5
阎 5
▁声音 5
愤怒地 5
几年里 5
兀 5
过几天 5
每天都有 5
的内涵 5
拿下了 5
恐慌 5
领头 5
流中 5
接踵 5
变得更好 5
而且要 5
饭店 5
紧紧抓住 5
冷淡 5
蜃 5
能得到 5
不必要的 5
他们对 5
2、 5
火锅 5
苦恼 5
没事的 5
边走边 5
长征 5
辱骂 5
为什么还要 5
意识到自己 5
新年的 5
米粉 5
千米 5
为李 5
海绵 5
类型 5
疫 5
路线 5
将被 5
既是 5
催眠 5
种的 5
嗟 5
芮 5
吞咽 5
待遇 5
哥们 5
海市 5
周的 5
▁湖北 5
各地 5
很难过 5
向您 5
无遗 5
热情地 5
看出来 5
无法用 5
示范 5
一试 5
城市里 5
又叫 5
防守 5
过错 5
机械的 5
不完美 5
你将 5
自己做 5
有一段 5
诱 5
疯子 5
放大 5
奔走 5
垢 5
陷入了 5
地道 5
▁内容 5
病床 5
▁主持人 5
迂 5
果汁 5
的手势 5
漫不经 5
儿了 5
水龙头 5
力度 5
邂逅 5
等级 5
椒 5
鲜明的 5
理想和 5
住着 5
浒 5
的军 5
▁从那以后 5
有机 5
围栏 5
好多了 5
面上的 5
▁教 5
与自己 5
影响着 5
连贯 5
骥 5
疯了 5
你觉得 5
也不行 5
的最大 5
矢 5
活动中 5
一年前 5
▁夏日 5
的数字 5
怪兽 5
方丈 5
程度 5
违背 5
门槛 5
的沙 5
我不得不 5
午饭 5
开了个 5
好日子 5
睿智 5
锦标赛 5
醒目的 5
跳水 5
镰刀 5
来自于 5
就将 5
死人 5
缆 5
职务 5
▁汉 5
之忧 5
几天后 5
脱口 5
只用 5
药物 5
了近 5
融为一体 5
他们说 5
还不到 5
请让我 5
老实 5
给您 5
我们说 5
陡峭 5
对吗 5
码 5
的这个 5
在这些 5
见过的 5
深厚的 5
支离 5
杀伤 5
大麻 5
是件 5
深知 5
商业 5
项目的 5
往日 5
鞠 5
在这种 5
你也许 5
甜心 5
▁噢 5
俨然 5
原理 5
连夜 5
房子里 5
不测 5
集团 5
几乎是 5
奢望 5
否 5
光洁 5
家具 5
选拔 5
度过的 5
女性 5
和白 5
伤疤 5
睡眠 5
红军 5
簿 5
毛笔 5
生理 5
感想 5
逃走 5
体现出 5
没法 5
才开始 5
绝妙 5
的前面 5
带回 5
所欲 5
▁遇到 5
墙面 5
很早 5
精疲力尽 5
商品 5
本站 5
直到现在 5
向自己 5
另一个人 5
弯道 5
是新 5
只能靠 5
▁一边 5
机智 5
热水 5
孙女 5
就会变得 5
打倒 5
柜子 5
弱点 5
窑 5
三号 5
看病 5
体育馆 5
对世界 5
稍有 5
▁他把 5
▁然后是 5
自己的身体 5
江西 5
融洽 5
增强 5
的举动 5
舒服的 5
▁我将 5
畸形 5
三名 5
下垂 5
的错误 5
神秘感 5
潸 5
空气中的 5
琛 5
房间的 5
甚至还 5
溜冰 5
极高 5
一筹 5
一边说 5
▁是否 5
以示 5
)、 5
美化 5
促进 5
第一项 5
饲料 5
践 5
盛装 5
谈不上 5
▁冷 5
上大学 5
超凡 5
截肢 5
午夜 5
作为一名 5
县城 5
电线杆 5
收成 5
有天 5
都是由 5
越来越高 5
桌面上 5
是对的 5
天生的 5
上百 5
泪流满面 5
1。 5
的愿望 5
的中心 5
有很 5
化身 5
占据 5
时也 5
符 5
更易 5
家在 5
他们都是 5
混浊 5
▁而如今 5
两面 5
▁未来 5
解答 5
安抚 5
的重 5
往往是 5
尚未 5
如有 5
圆梦 5
但它们 5
实用 5
选中 5
▁这就 5
即是 5
之父 5
免得 5
战术 5
仆人 5
我并没有 5
闯入 5
细菌 5
长安 5
背包 5
女生的 5
地球上的 5
涌动 5
粗糙的 5
与世 5
多一些 5
西亚 5
狭 5
踹 5
芯片 5
▁英国 5
名字的 5
鹭 5
它以 5
创业 5
常规 5
盗 5
盛大 5
鸟笼 5
岁左右 5
▁在她 5
绮 5
▁进 5
自以为 5
你有什么 5
很长的 5
不同的人 5
▁久 5
▁沙 5
阅 5
蒹葭 5
一现 5
▁我为 5
改革 5
也许我们 5
荧光 5
越来越多的 5
▁身体 5
也不愿 5
要注意 5
在其 5
绿豆 5
截然不同 5
迈出 5
▁孟 5
抗击 5
风浪 5
最高分 5
天性 5
这所 5
画像 5
对未来 5
留下来 5
龙门 5
与其他 5
赚钱 5
世界中 5
曜 5
完整的 5
一向 5
500 5
▁就连 5
遗弃 5
屋内 5
▁最近 5
富丽 5
的起点 5
▁她还 5
严峻 5
笨拙 5
晰 5
我倒 5
中也 5
往来 5
记忆力 5
领域 5
遇上 5
这些东西 5
光和 5
着重 5
红火 5
都是为了 5
手足 5
不小的 5
▁以往 5
环境中 5
蜂蜜 5
它有 5
奴隶 5
最让人 5
少有的 5
嘤嘤 5
小区的 5
共度 5
左右的 5
听过 5
▁等等 5
我完全 5
我们就可以 5
螳 5
以前那样 5
我可以在 5
午餐 5
足够的 5
仅供参考 5
很生气 5
正在为 5
野心 5
这个大 5
得很好 5
▁楼 5
迪士尼乐园 5
时已经 5
友善 5
▁轮 5
水深 5
厦门 5
为名 5
我的生活 5
的圣 5
轮胎 5
那把 5
一直到 5
过时 5
激光 5
我很喜欢 5
街上的 5
致辞 5
不会像 5
只能是 5
倦怠 5
▁但我们 5
▁戴 5
上几 5
的局面 5
升到 5
,2 5
苔丝 5
这部电影 5
▁如果我们 5
郊 5
因此而 5
荒凉 5
石门 5
随之而来的 5
的优势 5
他可 5
匾 5
蓝宝石 5
略微 5
买不到 5
也纷纷 5
这方面的 5
不在家 5
观景 5
▁司 5
高速 5
嗤 5
放荡 5
的窗户 5
人家的 5
门卫 5
▁奥 5
墩 5
耐心地 5
速度快 5
▁人的 5
钊 5
兵马俑 5
动荡 5
已经把 5
但您 5
▁这只 5
队友们 5
八九 5
虚假 5
再生 5
袖子 5
肺炎 5
午间 5
几乎没有 5
给我一个 5
粘在 5
游历 5
▁电 5
让它们 5
危机 5
可怜的 5
科普 5
的孩子们 5
毛孔 5
镌 5
承认自己 5
的亲 5
不懈努力 5
统治 5
失望了 5
契 5
比这 5
阳市 5
秦始 5
粗鲁 5
对手是 5
我带 5
打交道 5
粉红色 5
霸气 5
空闲 5
卖了 5
缠着 5
印在 5
驮 5
战中 5
尖锐 5
进水 5
和她的 5
那家 4
木板 4
后代 4
广泛 4
但我不 4
我从来没有 4
一般是 4
▁你要 4
二十世纪 4
一回事 4
以此 4
涡 4
很深的 4
监督 4
头疼 4
白日梦 4
一无所获 4
五月 4
▁参观 4
▁这是我的 4
俑 4
▁他们在 4
世代 4
狭小 4
也让 4
比特 4
故宫 4
儆 4
数以 4
的家人 4
松涛 4
增大 4
无非 4
收容 4
似乎已经 4
呼声 4
廷 4
也都在 4
爆裂 4
绰号 4
全世界的 4
< 4
不同了 4
专利 4
熟的 4
他每天 4
▁我们可以 4
最先 4
年之后 4
说有 4
抵抗力 4
人命 4
我的灵魂 4
▁神 4
竞争的 4
襁褓 4
另一方 4
潜水 4
米远 4
他们两个 4
馅饼 4
未见 4
经理 4
次数 4
和所有 4
过渡 4
劝说 4
茨 4
▁之前 4
在一块 4
老公 4
白菜 4
的联系 4
谢幕 4
体重 4
想象力 4
依照 4
悬浮 4
▁它在 4
地和 4
▁右 4
币 4
崔 4
方正 4
▁今晚 4
桦 4
▁或 4
表现得 4
覆盖着 4
乱扔 4
证 4
很清楚 4
代言 4
郝 4
还原 4
浪潮 4
物资 4
停滞 4
欠缺 4
芋 4
使之 4
骨折 4
在您 4
相信你 4
一个问题 4
其上 4
爱德华 4
倒闭 4
前所未有的 4
衿 4
街边 4
▁在你 4
确实是 4
先锋 4
想成为 4
跆拳道 4
熟练的 4
他是个 4
其余 4
▁算 4
年时 4
凹凸 4
与大 4
中都 4
在您的 4
可能不 4
银子 4
是可 4
嗜 4
之风 4
人或 4
共同的 4
彻底的 4
灶 4
托出 4
桥的 4
的唯一 4
已从 4
发现了一个 4
轧 4
家住 4
救护车 4
抱有 4
▁我只是 4
分布 4
我说的 4
外界 4
手持 4
狂欢 4
激起了 4
铺垫 4
的权利 4
游泳池 4
几十年 4
的真实 4
奄 4
二楼 4
彭帅 4
▁十几 4
说服 4
殆尽 4
信封 4
后在 4
礼堂 4
斥责 4
脱下 4
当人们 4
路径 4
按时 4
流离 4
摁 4
体育运动 4
相隔 4
海豚 4
游轮 4
▁十五 4
只有少数 4
的帮助 4
壮举 4
耗费 4
自尊心 4
咒 4
协 4
▁真正的 4
▁科技 4
枸杞 4
他们从 4
留在了 4
赶往 4
相对论 4
风俗 4
一碗 4
同一种 4
是该 4
考生 4
怪异的 4
出版 4
更有趣 4
让座 4
鞘 4
并不难 4
透气 4
住院 4
锻 4
有害 4
极少 4
还有个 4
是爱 4
睡衣 4
一些小 4
啕 4
它可能 4
▁许多人 4
会场 4
买东西 4
他们自己的 4
尔兹 4
仞 4
嬷 4
考核 4
由来 4
明日 4
今天下午 4
▁收 4
毛发 4
球场上 4
曳 4
出色 4
可可 4
150 4
之大 4
气味 4
袅 4
不是那么 4
再用 4
紧要 4
民国 4
破灭 4
周边 4
▁而今 4
说来 4
的话题 4
在冬天 4
名列前茅 4
着装 4
清楚的 4
教育家 4
学问 4
大肆 4
的海水 4
孩子在 4
启蒙 4
族人 4
戾 4
蠕动 4
汇总 4
达成 4
你为什么不 4
李小 4
粽子 4
还挺 4
他发现 4
桔 4
把手放在 4
变成一个 4
那是在 4
囧 4
▁他还 4
过关 4
▁在那个 4
鸡翅 4
用于 4
这应该 4
方面都 4
与朋友 4
干部 4
▁尤 4
▁非常 4
琳琳 4
理科 4
点小 4
行动起来 4
一等 4
河马 4
的支持 4
找到自己 4
▁爱情 4
相当于 4
死刑 4
无缺 4
▁曲 4
夜之间 4
挡在 4
严冬 4
一方面 4
将你 4
重新开始 4
然后将 4
弗 4
费劲 4
喳喳 4
▁卢 4
这么多年 4
身亡 4
油画 4
实验室 4
乐团 4
令人惊叹 4
匹马 4
她是一个 4
起大 4
宣誓 4
的反 4
其身 4
也用 4
日军 4
以上的 4
另一个人的 4
酮 4
宇航员 4
全部是 4
埋藏 4
装置 4
治愈 4
在未来 4
玫 4
的最高 4
变化多端 4
啡 4
仓促 4
婧 4
这个城市 4
生气地 4
宝马 4
谁先 4
猛兽 4
无几 4
值得的 4
、1 4
标志着 4
片断 4
整日 4
并把 4
将来的 4
切换 4
达人 4
荼 4
之夜 4
他自己的 4
求救 4
顺序 4
椭圆 4
太平 4
通讯 4
天敌 4
▁成为 4
刀刃 4
希腊 4
只吃 4
臃 4
腋下 4
的非 4
拟 4
胜出 4
作者的 4
翌 4
受害者 4
取代了 4
茸 4
可能要 4
末端 4
两千 4
幻觉 4
助力 4
享用 4
扮 4
为代表的 4
地下室 4
vs 4
体型 4
我当然 4
萎缩 4
新中国 4
表演的 4
水土 4
是真 4
冷水 4
播报 4
侥幸 4
儋 4
▁鸟 4
这种感觉 4
尽责 4
建议 4
团结一致 4
▁赛后 4
言不 4
快餐 4
混杂 4
但同时 4
不便 4
很容易被 4
想当 4
▁总而言之 4
▁发现 4
野生 4
第二场 4
会怎样 4
钧 4
克服了 4
海岸 4
晾 4
的角色 4
一言不发 4
便已 4
外人 4
环卫工人 4
厨师 4
应该有 4
不仅可以 4
山区 4
与他人 4
成都 4
▁史 4
正则 4
态的 4
驰骋 4
现在就 4
一夜之间 4
激情的 4
这三个 4
的草原 4
敲响了 4
E 4
夺走 4
大可 4
万户 4
根本就 4
匪 4
佼 4
史诗 4
有一套 4
▁严 4
了它的 4
找人 4
这样一来 4
了四 4
自制 4
养分 4
臭味 4
刚过 4
出卖 4
公布了 4
▁天津 4
瞬息 4
▁过去的 4
功效 4
宝库 4
苑 4
唐人 4
和花 4
看不见的 4
日历 4
接下来的 4
卡通 4
令人兴奋 4
滂 4
我在这里 4
伙食 4
究竟是 4
蹋 4
奠 4
操控 4
竭尽 4
涣 4
后脑 4
李大 4
▁之所以 4
关心的 4
隐瞒 4
铠 4
月份 4
▁熊 4
上路 4
“1 4
染上 4
尴尬的 4
出众 4
在一次 4
形势 4
发型 4
▁秦 4
投入了 4
最小 4
有其 4
也失去了 4
心境 4
或许会 4
奂 4
每晚 4
最佳 4
不少人 4
岑 4
的概念 4
▁等待 4
山大 4
交通事故 4
二月 4
不用担心 4
对手的 4
数量 4
派对 4
帮助你 4
的一小 4
比尔 4
恶心 4
第二种 4
格的 4
我几乎 4
模范 4
我忘了 4
穿衣服 4
▁见 4
端的 4
白糖 4
之星 4
东部 4
何方 4
说话时 4
在第一 4
时被 4
▁皇帝 4
克隆 4
▁比赛结束后 4
▁自由 4
挫败 4
榨 4
敌军 4
两层 4
嗅觉 4
大屠杀 4
费力 4
天花 4
桎梏 4
必须有 4
使人们 4
圣母 4
的船 4
烙 4
▁著名 4
奇观 4
▁嗯 4
lie 4
汨 4
实在是太 4
的桥梁 4
时针 4
顽固 4
▁欧 4
与爱 4
59 4
高位 4
化妆 4
宣读 4
▁留 4
棘 4
格子 4
一无 4
睡觉时 4
和对 4
几近 4
大城市 4
排球 4
领带 4
耗尽 4
杰出 4
突然出现 4
口服 4
▁他开始 4
▁傅 4
握手 4
自杀 4
占地 4
▁给 4
送的 4
在平 4
写信 4
察 4
刺耳 4
已无 4
的事儿 4
可以从 4
而这一 4
奢 4
塞进 4
穿好 4
怎么说 4
就能看到 4
折断 4
比拟的 4
帮助他们 4
批判 4
说那 4
▁齐 4
熬夜 4
槿 4
看望 4
中的每一个 4
▁我感到 4
▁它没有 4
幼苗 4
银河系 4
压倒 4
反击 4
肘 4
be 4
要来 4
无止 4
丞 4
一群人 4
海鲜 4
只是因为 4
的五 4
▁如果有人 4
大豆 4
圃 4
之作 4
揭露 4
一页 4
有名 4
野兽 4
咿咿 4
裸露 4
侏罗纪 4
你什么 4
娅 4
开战 4
对外 4
这种情况 4
的每个 4
减肥 4
▁前几天 4
疙瘩 4
苏菲 4
大胆的 4
能成为 4
刺伤 4
未知数 4
匀称 4
只说 4
做任何事情 4
▁虽然没有 4
▁我正在 4
限制 4
中游 4
的百 4
严谨 4
土的 4
人与人之间 4
▁如同 4
切开 4
庄园 4
的教育 4
▁他们都 4
▁墨 4
胆量 4
▁依 4
店里 4
认同 4
谐 4
我再次 4
负担 4
多名 4
,‘ 4
答复 4
通透 4
矮小 4
都不愿意 4
挟 4
後 4
打来 4
洞穴 4
米饭 4
的能量 4
小林 4
蓑 4
铡 4
破坏了 4
少数 4
QQ 4
几点 4
亲戚 4
到另一个 4
放回 4
洗碗 4
▁到达 4
更替 4
护栏 4
▁8 4
守住 4
▁历史 4
井然 4
狂野 4
抽烟 4
工资 4
丽莎 4
链条 4
点到 4
多年前 4
城区 4
王文 4
则被 4
相亲 4
及时的 4
存放 4
敲了 4
的现实 4
巧合 4
更换 4
最终的 4
再多 4
九寨沟 4
妲 4
▁书中 4
的形象 4
便利 4
棍子 4
附近的 4
难堪 4
耕作 4
大致 4
光临 4
还需 4
风气 4
在本 4
古装 4
觑 4
万缕 4
不计 4
ue 4
万种 4
功能 4
滨江 4
恰当 4
攀爬 4
在我国 4
J 4
一个有 4
璞 4
▁在国家 4
拖到 4
什么样的 4
辅 4
内容是 4
▁纵观 4
成千 4
现代化 4
和发展 4
汹汹 4
组成了 4
29 4
鄂 4
蕴藏着 4
淡化 4
▁公元 4
文静 4
宫廷 4
心烦 4
的肉 4
人民政府 4
早起 4
▁一种 4
香水 4
赛车 4
也跟 4
村里的 4
中美 4
▁离开 4
▁临 4
蕾丝 4
▁金钱 4
也算是 4
张家 4
侵蚀 4
后继 4
蚀 4
▁圆 4
▁所以我 4
▁要说 4
亲朋好友 4
网球 4
缺钱 4
地区的 4
良知 4
轲 4
更不用说 4
▁你喜欢 4
▁大家好 4
碰碰 4
名选手 4
鱼类 4
不败 4
困苦 4
餐桌 4
采集 4
着眼于 4
的弟弟 4
▁站 4
拦住 4
装饰品 4
凯撒 4
底层 4
担负 4
渺茫 4
在阿 4
筛选 4
非常快 4
5000 4
常常是 4
功劳 4
衬衣 4
自救 4
数千 4
这么好 4
嗡 4
我们需要 4
▁带 4
窍 4
轻微 4
侧的 4
几周 4
玩起了 4
周到 4
助手 4
屏幕上 4
也是一样 4
憩 4
气概 4
措施 4
▁好吧 4
辣椒 4
年的历史 4
着火 4
苒 4
若干 4
牛的 4
图形 4
自己的生活 4
敲打 4
现状 4
所以他 4
买来 4
分散 4
湮 4
万事 4
▁足球 4
模式 4
放置 4
600 4
自己和 4
公牛 4
献给 4
接纳 4
向左 4
经常在 4
复制 4
徒步 4
出一些 4
捐了 4
奇特的 4
帆船 4
举行的 4
两端 4
两行 4
关心和 4
舱 4
出水面 4
荠 4
人数 4
也不太 4
红宝石 4
电脑前 4
对象 4
▁到处 4
▁巨 4
哲学家 4
▁这也 4
太短 4
国外 4
闭门 4
舞会 4
+ 4
拉米 4
羚羊 4
会因为 4
袱 4
什么原因 4
坷 4
▁既然如此 4
▁是一个 4
嚣 4
钗 4
印象中 4
▁鼓励 4
走进去 4
本能 4
大开 4
火炉 4
航向 4
而且是 4
在看 4
建立了 4
肯德基 4
会一直 4
毛衣 4
帐 4
最近的 4
▁当天 4
就足够了 4
栅 4
真的吗 4
持续 4
会再 4
分娩 4
别处 4
泪流 4
▁塞 4
大白 4
帮助了 4
想用 4
酒吧 4
安全的 4
铺着 4
制成的 4
的可怕 4
▁善 4
有效的 4
深意 4
每天早上 4
成为我们 4
芦 4
玻 4
匿 4
和别人 4
所措 4
▁准备 4
过一次 4
瞥见 4
发起了 4
和尊重 4
记起 4
到哪里 4
五大 4
河道 4
涌现 4
招牌 4
隽 4
安理 4
避暑 4
发达的 4
▁关 4
人体 4
时间是 4
因为它们 4
一反 4
靠自己 4
音量 4
有条 4
八卦 4
毡 4
清洁 4
的大部分 4
篙 4
▁相 4
粱 4
▁于是他 4
需要你 4
梦之 4
十字路口 4
▁他们用 4
赢家 4
没有丝毫 4
我什么 4
存在着 4
戏剧 4
风头 4
的具体 4
第一场 4
启程 4
意义的 4
吁 4
,4 4
处境 4
我们不得不 4
燎 4
健身 4
对联 4
烬 4
人没有 4
板的 4
告诉我的 4
酱油 4
谆谆 4
从不同的 4
菡 4
而使 4
浮动 4
苔藓 4
中能 4
药水 4
明朝 4
厦 4
一战 4
瞻 4
▁他喜欢 4
飕飕 4
注意的是 4
宽恕 4
小说家 4
后会 4
都认为 4
不妨 4
气泡 4
成立了 4
的西 4
发育 4
此事 4
记者问 4
一代 4
源头 4
二次 4
阅兵 4
不识 4
不得不承认 4
僻 4
的冠军 4
人造 4
船上的 4
觉悟 4
来一次 4
大街小巷 4
的气味 4
的排 4
▁以上 4
才华横溢 4
企 4
第二位 4
瑛 4
▁分 4
67 4
说法 4
▁原 4
都应该 4
构成的 4
率领 4
涌入 4
好些 4
污渍 4
的高级 4
违反 4
▁十二 4
看到她 4
主要是 4
教科书 4
精通 4
警戒 4
他们要 4
可以吃 4
消化不良 4
纲 4
昵 4
互联网 4
挤满了 4
天鹅绒 4
绿地 4
晚会 4
指标 4
严重的 4
开展了 4
升高 4
临终 4
更容易 4
这会 4
的设备 4
突出的 4
心神 4
暗中 4
寺院 4
每秒 4
认识到了 4
双重 4
此后 4
肥料 4
峙 4
进入到 4
全城 4
发布 4
边缘 4
财源 4
反感 4
也觉得 4
什么都没 4
蟑螂 4
的一张 4
本身就是 4
关头 4
企图 4
▁阳 4
符号 4
疤痕 4
的进程 4
而行 4
长方 4
▁各种 4
烧伤 4
退学 4
客观 4
狄 4
伯特 4
天然的 4
闲聊 4
认识的 4
炸药 4
不讲 4
不入 4
煎 4
敬业 4
微妙 4
洗手 4
名副其实 4
一时间 4
的机器 4
无家可归 4
来庆祝 4
56 4
借钱 4
西部 4
之类 4
▁酒 4
收到了 4
八年 4
试探 4
64 4
翙 4
一切顺利 4
忠实的 4
营养不良 4
在全国 4
缩影 4
捕鱼 4
木偶 4
因为他是 4
▁我必须 4
凡是 4
后方 4
过半 4
他的父母 4
鸳鸯 4
甚至比 4
活到 4
不是因为 4
▁使 4
寓意 4
你是个 4
老太太 4
灯的 4
给了她 4
包含了 4
合作的 4
▁机器 4
领导下 4
山东省 4
搁浅 4
潜能 4
失眠 4
构造 4
▁潘 4
得出 4
篮子 4
正义的 4
脆弱的 4
渔民 4
▁点评 4
上千 4
取得了成功 4
毫米 4
写一个 4
傻了 4
蛐 4
▁从来 4
船在 4
的地位 4
砥 4
霸道 4
步走 4
骗子 4
ash 4
我们还有 4
并不知道 4
围观 4
在手 4
它正在 4
° 4
的冷 4
矛 4
农药 4
出国 4
> 4
48 4
▁我不喜欢 4
比拟 4
▁失 4
几千 4
潦 4
大局 4
很兴奋 4
迁徙 4
留言 4
埋伏 4
阿婆 4
莫名 4
望远镜 4
中队 4
的电影 4
电风扇 4
语和 4
很长一段时间 4
全部都是 4
争相 4
绾 4
对他来说 4
的妻子 4
仓库 4
姆 4
可说 4
林荫 4
▁众 4
把水 4
浪费时间 4
平地 4
挺好 4
器的 4
办公楼 4
胸部 4
永远不要 4
▁星 4
生长的 4
拉近 4
ta 4
层次 4
昨日的 4
因为这样 4
肓 4
擦干 4
上用 4
很久了 4
手电 4
在两 4
任意 4
上色 4
▁我们是 4
▁n 4
包扎 4
石碑 4
害虫 4
剥 4
聚会 4
表白 4
犯错 4
纱布 4
的发生 4
非常大 4
小飞 4
句子 4
创造一个 4
都给 4
是这个 4
C 4
容纳 4
听起来 4
十年的 4
一下午 4
的情绪 4
重复的 4
帝国主义 4
▁去年夏天 4
的小麦 4
生下 4
▁各个 4
因为他的 4
一般在 4
短裙 4
西西 4
莫属 4
价值的 4
年轻的时候 4
定义 4
阕 4
敌的 4
了一辆 4
成龙 4
的年 4
我们与 4
中秋节 4
绡 4
就来了 4
税 4
晏 4
钳子 4
非常非常 4
▁假期 4
才能实现 4
▁年轻 4
亲切地 4
的一项 4
▁穿 4
老婆 4
被爱 4
性情 4
高潮 4
垂直 4
情况下 4
辅助 4
气喘 4
启发 4
总体 4
应用 4
高原 4
发现在 4
这种事 4
俯卧 4
调色 4
试验 4
已经过去了 4
病患者 4
安娜 4
搞笑 4
粗暴 4
膜 4
和自己的 4
巴西 4
境地 4
湍 4
打理 4
和在 4
▁偶 4
▁乐 4
馈 4
随时准备 4
我们是否 4
喙 4
▁某 4
烘烤 4
破的 4
苗族 4
报复 4
芯 4
板栗 4
第三次 4
▁湖南 4
古镇 4
市民 4
中被 4
拒绝了 4
这么做 4
特别大 4
孤立的 4
开枪 4
又长又 4
▁故 4
阡 4
这使 4
如人意 4
▁安徽 4
的关键 4
有了新的 4
令人惊讶 4
避开 4
数十 4
上帝的 4
就可以了 4
尉 4
中天 4
映射 4
这样就 4
随处 4
父子 4
在过去的 4
它们是 4
透彻 4
每天晚上 4
知名的 4
发现他们的 4
在场 4
还用 4
榭 4
厌倦了 4
救人 4
▁一名 4
鞍 4
吸引人 4
▁刺 4
表面的 4
竞争对手 4
市东 4
早上好 4
会是什么 4
它为 4
▁凡 4
▁毛泽东 4
俯瞰 4
终于可以 4
旅行的 4
终于找到了 4
贫瘠 4
合格 4
▁来自 4
揭 4
抽奖 4
的李 4
乡亲 4
镇定 4
推力 4
幸福和 4
界线 4
提出了 4
重力 4
否认 4
吃点 4
在那些 4
血红 4
犀牛 4
大规模 4
多年了 4
厘 4
用什么 4
的水泥 4
摆放 4
比他们 4
渴求 4
毕生 4
所在的 4
然后在 4
完好 4
落空 4
责任感 4
节拍 4
逝世 4
教授 4
指的 4
▁在她的 4
▁波 4
其中一位 4
看重 4
维系 4
我愿意 4
细微的 4
博览 4
改革开放 4
性和 4
▁含 4
饼干 4
散布 4
他觉得 4
在课堂 4
图片 4
的攻击 4
AT 4
小熊 4
毛骨悚 4
合适的 4
2010 4
加深 4
危急 4
一盘 4
▁在此 4
侵 4
誉 4
差不多了 4
第一轮 4
清除 4
谈谈 4
在面对 4
要向 4
完全是 4
我们只能 4
▁我渴望 4
对这 4
它不会 4
航天员 4
绝不是 4
魔法师 4
召开了 4
我把它 4
精髓 4
遵循 4
高中生 4
痴迷 4
进出 4
包包 4
诺贝尔奖 4
显示出 4
的血液 4
送到了 4
成千上万的 4
万个 4
都喜欢 4
道理的 4
很快被 4
幸福生活 4
包装 4
▁图书馆 4
体能 4
一模 4
非要 4
芭蕾舞 4
他的名字 4
种种原因 4
这些都 4
国庆 4
唧唧喳喳 4
挑起 4
这是在 4
之家 4
双双 4
檀 4
探头 4
共进 4
这座城市 4
平行 4
格兰 4
▁另一个 4
占有 4
脱颖而出 4
还是有 4
飒飒 4
火药 4
自然是 4
华北 4
▁所 4
颔 4
表明 4
料的 4
你在哪里 4
现今 4
转入 4
格林 4
理性的 4
其所 4
49 4
看上去很 4
房子的 4
所长 4
笨蛋 4
呓 4
微小 4
宣称 4
潜力 4
四五 4
聚集在 4
增益 4
柚 4
祈福 4
骨架 4
▁儿子 4
造型 4
的大象 4
拣 4
离开这里 4
就出现了 4
笃 4
开端 4
更长 4
缨珞 4
能做到 4
不用说 4
蹑 4
乐意 4
如此之 4
牵引 4
道德的 4
莘 4
继续向 4
会用 4
多半 4
感到骄傲 4
花瓶 4
打仗 4
蚱 4
发给 4
的神秘 4
▁信 4
武力 4
鼻孔 4
镜片 4
遭到 4
大到 4
审 4
日可 4
▁而是 4
金银 4
生还 4
度和 4
以对 4
的光明 4
涂抹 4
能听到 4
的超 4
雾霾 4
座的 4
淅 4
呃 4
备受 4
在美国 4
胡同 4
ca 4
红肿 4
极力 4
多云 4
举行了一次 4
他说话 4
她将 4
建筑物 4
近期 4
镐 4
仰卧 4
取出 4
考试的 4
之王 4
捧起 4
纹理 4
很幸运 4
我所能 4
有点像 4
箍 4
文中 4
2014 4
流浪汉 4
根本就没有 4
禄 4
▁到底 4
自然风光 4
中看到 4
狮子的 4
▁徐 4
剪纸 4
甫 4
团体 4
会和 4
玮 4
家时 4
荣获 4
导航 4
一个国家 4
下决心 4
倪 4
群众 4
士气 4
存钱 4
吃什么 4
出乎 4
▁不同 4
剩余 4
雨林 4
左侧 4
昆仑 4
市长 4
锈 4
近乎 4
实心 4
沱 4
湖北省 4
苏州 4
仃 4
来保护 4
纽带 4
在床 4
和黑 4
路面 4
惯性 4
召开 4
崇 4
一局 4
乞讨 4
站出来 4
歌手 4
▁想要 4
汽油 4
的麦 4
已不再是 4
的行 4
一个电话 4
消沉 4
▁每年 4
的理想 4
帝国 4
就在于 4
搭乘 4
求助 4
并不重要 4
墨镜 4
2018 4
四点 4
癌症 4
微波 4
关节 4
琐 4
女孩儿 4
动漫 4
翎 4
进展 4
厢 4
盘上 4
坚实 4
化学 4
更像是 4
老子 4
寿 4
评判 4
狗的 4
引得 4
三角洲 4
狭窄的 4
群体 4
裴 4
回家时 4
与自然 4
就喜欢 4
的根本 4
致命 4
这里是 4
低矮 4
控制着 4
降下 4
但有时 4
第二大 4
挣钱 4
东南 4
面条 4
支架 4
钢丝 4
▁讲 4
牌的 4
的效果 4
吃了一 4
弹出 4
帆布 4
专属 4
直观的 4
睦 4
稳健 4
▁安妮 4
布尔 4
休息时 4
可以成为 4
将近 4
他看到 4
的远 4
有如此 4
到之处 4
有大 4
优异 4
事儿 4
答案是 4
牛肉 4
▁血 4
跟风 4
辗 4
言辞 4
视力 4
▁现代 4
可有 4
杈 4
封闭 4
逗留 4
她时 4
但是没有 4
随地 4
的内 4
我们这个 4
时间里 4
▁一场 4
往常一样 4
远古 4
不允许 4
等一下 4
区域 4
一起吃饭 4
双方都 4
爱她 4
▁比起 4
雇佣 4
红酒 4
43 4
挤出 4
的几个 4
▁坐 4
参考 4
时日 4
请问 4
平均 4
的形状 4
调查 4
尖叫声 4
遇难 4
殖民 4
山丘 4
像我一样 4
手握 4
首都 4
即刻 4
挂了 4
希望大家 4
▁且 4
无聊的 4
比喻 4
他们知道 4
的街道 4
菌 4
烈日下 4
▁托 4
都需要 4
共舞 4
歆 4
悍 4
的形成 4
嫉 4
验 4
这样一种 4
身手 4
广东 4
逃跑了 4
舞台上的 4
这是一场 4
的男 4
不谈 4
领袖 4
的一半 4
大地震 4
转转 4
▁据 4
地对待 4
男子汉 4
▁呃 4
的差异 4
的包 4
品行 4
企鹅 4
接连 4
店的 4
了一支 4
酣 4
具体 4
▁情 4
听不到 4
送给我 4
赌博 4
堂皇 4
祝福你 4
还是会 4
很忙 4
的体验 4
於 4
▁有着 4
▁2014 4
小伙 4
的说法 4
颠簸 4
太重 4
无礼 4
也会被 4
好奇心 4
卑鄙 4
庶 4
对它的 4
卢 4
抵达 4
▁我不是 4
风险 4
沙丘 4
掉到 4
比划 4
先天 4
潮湿 4
右侧 4
▁狮子 4
有声 4
共计 4
复活 4
变态 4
睸 4
拖拉 4
微信 4
看上去像 4
试管 4
顺便 4
朗诵 4
革 4
找寻 4
轩逸 4
一门 4
▁主 4
大呼 4
险些 4
浸泡 4
企业家 4
顺利地 4
恼怒 4
奇怪的是 4
了之 4
执行 4
昨 4
明确的 4
神秘的面纱 4
理所 4
▁每个人都 4
却以 4
为实现 4
保姆 4
不能用 4
新的挑战 4
000 4
的村庄 4
好运 4
文学作品 4
无误 4
舵 4
的姐姐 4
早晨的 4
刀子 4
跳过 4
技艺 4
亲身体验 4
的选择 4
汲 4
安家 4
涟 4
罪人 4
的一定 4
正忙着 4
而入 4
检验 4
月球上 4
无与伦比 4
警示 4
垛 4
公共汽车 4
▁他们有 4
的第二 4
火爆 4
滥 4
无能为 4
刁 4
组长 4
想见 4
干燥 4
书签 4
可能就是 4
月在 4
说谎 4
为大 3
非常高 3
要让 3
感到紧张 3
入口 3
最后一位 3
又如何 3
施加 3
那座 3
国强 3
失业 3
也最 3
溢出 3
本着 3
余地 3
可以达到 3
电视上 3
▁当她 3
商场 3
悯 3
臂的 3
可知 3
减速 3
▁保护 3
如果是 3
谁愿意 3
没人会 3
大国 3
那么就 3
卡片 3
▁如果是 3
很聪明 3
的形式 3
是多 3
煤气 3
利奥 3
又没有 3
跟着你 3
问问 3
架飞机 3
镳 3
先知 3
持平 3
不利 3
您能 3
做任何 3
指数 3
的伤害 3
增添了 3
招人 3
自己对 3
七天 3
娄 3
魇 3
另一半 3
十分重要 3
几年来 3
螺丝 3
但是你 3
可做 3
斑点 3
麻辣 3
来进行 3
匣 3
烟熏 3
▁桑 3
一部电影 3
贫困 3
富含 3
解剖 3
灭火 3
密码 3
储存 3
侵入 3
访问 3
藻 3
老朋友 3
将所有 3
抗日 3
百万富翁 3
西山 3
圣诞 3
报刊 3
不能够 3
做不到 3
起火 3
也对 3
转机 3
羊肉 3
▁小李 3
经常有 3
第三天 3
要紧 3
利伟 3
▁北京 3
用在 3
我告诉你 3
的表 3
每个学生 3
想得到 3
他们也会 3
我父亲 3
百事 3
几秒钟 3
书架上 3
撅 3
▁只有这样 3
问题时 3
安东 3
几十个 3
第一章 3
嬉皮 3
示威 3
的一件 3
▁当它 3
最强 3
接班人 3
射线 3
不愉快 3
卫星 3
动情 3
值钱 3
有不少 3
对一个 3
建于 3
是他们的 3
大炮 3
疲乏 3
报道 3
纳斯 3
发明了 3
出乎意料 3
安乐 3
付了 3
有良好的 3
▁几乎 3
每一种 3
的节日 3
做客 3
官兵 3
礼帽 3
全市 3
就跟 3
适当的 3
目录 3
正与 3
主意 3
极具 3
国民党 3
的秘密 3
购买了 3
有力地 3
大大小 3
倾倒 3
绍 3
数目 3
路边的 3
三个小时 3
召集 3
榻 3
方案 3
胆汁 3
慈善机构 3
漂浮在 3
了该 3
催泪 3
大街上 3
需要一个 3
外形 3
计时 3
完全可以 3
竞技场 3
110 3
听到这个消息 3
窈窕 3
一剑 3
作的 3
狂热 3
地震中 3
天宫 3
乓 3
影响了 3
▁董 3
变慢 3
▁因为他们 3
以为然 3
内涵 3
菏 3
水手 3
胃炎 3
早在 3
测试 3
干劲 3
工作者 3
特的 3
我听说 3
唏 3
捐献 3
一月 3
填补 3
训练时 3
下半场 3
之战 3
勇气和 3
和红 3
丰盛 3
考察 3
想要的东西 3
我们可以看到 3
保住 3
至高 3
耳语 3
尾声 3
大使 3
▁众所周知 3
发生了什么事 3
喘不过气 3
引线 3
▁至少 3
▁毕业 3
打进了 3
悼念 3
厨 3
还将 3
断裂 3
车里 3
创立 3
合作社 3
友人 3
可以与 3
▁尽管在 3
▁行 3
漳 3
就有可能 3
有不同 3
▁黑暗 3
▁男 3
超人 3
夺取 3
猬 3
输掉 3
委会 3
不管怎样 3
海拔 3
是专门 3
的尸体 3
看清楚 3
青春期 3
无济于事 3
是一家 3
现在还 3
智能 3
任何人都 3
食物中毒 3
铺路 3
打折 3
内政 3
▁普 3
日下午 3
扬州 3
计时器 3
成年人 3
潜艇 3
版的 3
在教育 3
对我来说是 3
是提高 3
不多的 3
修建 3
怖 3
▁剩下的 3
’。 3
▁没有人 3
▁教学 3
去哪里 3
碎玻璃 3
的实验 3
味觉 3
寓 3
灵活地 3
转移 3
的头脑 3
世界上的 3
搞笑的 3
精神和 3
拟人 3
U 3
▁陆 3
我们将会 3
保暖 3
堵住 3
向西 3
和自己 3
连环 3
两年前 3
了一个新的 3
室友 3
务 3
外壳 3
旗鼓 3
让学生 3
较多的 3
变得非常 3
全靠 3
极限 3
归属 3
比赛前 3
自己的想法 3
很好奇 3
掌管 3
卫士 3
槌 3
高于 3
魔女 3
开创 3
如果再 3
的飞机 3
但他还是 3
识别 3
吃药 3
龙卷风 3
的两大 3
▁你会 3
不及格 3
的另一 3
锏 3
无视 3
坠入 3
城镇 3
进化 3
但我的 3
▁我以 3
之年 3
▁‘ 3
▁在这样的 3
竭力 3
妻子的 3
单一 3
大姐 3
是同 3
压低 3
关注的 3
季军 3
楂 3
苇 3
是时候 3
也没用 3
不以为然 3
场中 3
和王 3
写过 3
别再 3
地热 3
伦理 3
免疫力 3
就是说 3
骚动 3
上级 3
易事 3
伸缩 3
岩石的 3
改为 3
建功 3
丢失了 3
抢先 3
枯竭 3
▁可以说 3
不时地 3
无阻 3
留有 3
地认为 3
不符合 3
眼睛的 3
下个 3
这一举动 3
那会 3
▁2006 3
售票 3
使我感到 3
嘣 3
哈尔滨 3
却是一个 3
女人的 3
为世界 3
而形成的 3
的理解 3
墙的 3
干练 3
郊外 3
别扭 3
▁张家 3
就是对 3
沂 3
菩 3
自卫 3
▁高考 3
筷 3
就是她 3
也正在 3
的人员 3
栩栩如生的 3
个数 3
佟 3
但这些 3
和安 3
美感 3
没有一个 3
轻而易举 3
枪的 3
吁吁 3
0 3
未能 3
每只 3
创造了一个 3
难逃 3
上有个 3
南海 3
衢 3
已经结束 3
待在 3
▁诗 3
旌 3
的劳动 3
组和 3
环顾四周 3
黄岩 3
大理石 3
更快乐 3
我觉得自己 3
搬家 3
上涂 3
支离破碎 3
翕 3
门后 3
胡言 3
胸腔 3
南宁 3
典礼 3
圣诞节 3
被誉为 3
术语 3
白兰 3
任何东西 3
▁圣 3
提问 3
▁真正 3
▁我还要 3
疲劳 3
水资源 3
埂 3
所见 3
极强的 3
弋 3
音乐厅 3
之乡 3
题材的 3
孽 3
族的 3
转折点 3
几个星期 3
姓名 3
节节 3
物质上的 3
视频 3
藏族 3
不振 3
方方面面 3
弄脏 3
叟 3
变脸 3
▁至 3
长龙 3
曾多次 3
还行 3
泰国 3
觉察 3
盖子 3
实习 3
到时候 3
我可能 3
号召 3
丹丹 3
指针 3
共和国 3
▁但她 3
剿 3
邵 3
▁倘若 3
姚明 3
形式 3
写道 3
也成为了 3
抱负 3
分手了 3
东西都 3
形成一个 3
换回 3
厥 3
沙漠中 3
你就能 3
发现自己的 3
扔到 3
蒙娜 3
很多时候 3
中有多少 3
要保持 3
小儿 3
可以减少 3
顶部 3
估量的 3
码头 3
大家可以 3
每个人都在 3
火车上 3
收敛 3
▁他曾 3
180 3
流行的 3
的情形 3
鳌 3
▁杜 3
分到 3
弄清 3
姊 3
观音 3
为难 3
流离失所 3
收回了 3
星座 3
中说 3
显示屏 3
我的妻子 3
泺 3
提早 3
艰苦奋斗 3
规模 3
还被 3
拍的 3
糜 3
娜娜 3
向阳 3
岱 3
带入 3
甜食 3
护卫 3
如果能 3
开始后 3
之音 3
▁回顾 3
徽章 3
占上风 3
李世 3
吹口哨 3
▁但是现在 3
▁这里有 3
实际行动 3
双人 3
▁这也是 3
履 3
的需要 3
真的想 3
极度 3
的大小 3
不可或缺 3
中断 3
历时 3
三思 3
一无所有 3
情书 3
珊珊 3
更难 3
违法 3
敦煌 3
通道 3
麽 3
社会发展 3
欺凌 3
各个方面 3
极致 3
▁最为 3
充分的 3
萼 3
场外 3
维度 3
一个小男孩 3
哀悼 3
六七 3
竖起大拇指 3
捷径 3
不足之处 3
人认为 3
与其它 3
到底是什么 3
咳嗽 3
▁一旦 3
把你的 3
吃午饭 3
吸尘器 3
爱丽丝 3
原位 3
▁因为她 3
汶川 3
叫什么名字 3
的街道上 3
调的 3
要离开 3
莓 3
句名言 3
吃一 3
狭隘 3
▁早在 3
的兴趣 3
在场上 3
臾 3
▁动 3
在不久的将来 3
抡 3
匍匐 3
▁如果是这样 3
纠正 3
追问 3
羿 3
或有 3
戳 3
贩毒 3
消磨 3
半月 3
全长 3
就不是 3
小丑 3
第二轮 3
日期 3
卡在 3
吴斌 3
剥削 3
天了 3
利于 3
保险 3
▁狗 3
×× 3
有用的 3
▁这段 3
人们的生活 3
没好 3
看哪 3
并为 3
摇滚 3
手来 3
胯 3
体现在 3
太差 3
有足够 3
航行的 3
遗产 3
嗔 3
▁怎样 3
▁B 3
政策 3
咫尺 3
已经足够 3
乐队 3
▁他们认为 3
逃生 3
常会 3
准备工作 3
您是否 3
扔在 3
物体的 3
影像 3
换成 3
堕 3
毕业生 3
纳闷 3
垃圾箱 3
史蒂芬 3
▁陶 3
蹉跎 3
▁它们在 3
上放 3
花卉 3
视同仁 3
拉锯 3
我不需要 3
井底 3
逮 3
,20 3
与教育 3
阴谋 3
感染了 3
而要 3
排除 3
的次数 3
公正 3
将有 3
利亚 3
▁9 3
妒 3
毛细 3
▁所有人都 3
丢失 3
皎皎 3
决定在 3
万股 3
台的 3
海藻 3
中不 3
铁链 3
赛前 3
活动的 3
▁瘦 3
拍下 3
同情心 3
放松一下 3
感和 3
难以置信 3
体质 3
木屋 3
26 3
时许 3
坚挺 3
匆 3
评选 3
玉树 3
撕开 3
▁应该 3
,14 3
女儿的 3
广州的 3
必经 3
擦拭 3
既不 3
中就 3
这并不 3
没有理由 3
▁钟 3
既有 3
一致的 3
这意味着 3
以其 3
祁 3
青少年的 3
的周 3
时间在 3
▁伟大的 3
跳上 3
▁昨 3
小伙子 3
低级 3
之日 3
如期 3
硝烟 3
和各种 3
主干 3
他们之间 3
的强大 3
掣 3
瘟疫 3
他面前 3
跪在 3
对他们的 3
争论 3
▁上个 3
奖项 3
番茄 3
每个人都能 3
毫无意义 3
入狱 3
▁她没有 3
侄 3
不强 3
▁上半场 3
小菜一碟 3
的一系列 3
康复 3
:1 3
时间都 3
主席的 3
▁队长 3
无耻 3
纪念碑 3
船只 3
乘车 3
巡 3
不含 3
凹陷 3
扩张 3
将这些 3
白山 3
受人 3
收尾 3
人的话 3
抗议 3
粗略 3
供人 3
思想和 3
执意 3
教育部 3
蔫 3
绝大多数 3
毁于 3
前天 3
规范 3
提琴 3
一生中最 3
浸润 3
自然而 3
培训班 3
▁一段时间 3
模特 3
查阅 3
种了 3
的训练 3
之谈 3
宫的 3
档案 3
▁唱 3
▁过去 3
一成 3
他喜欢 3
称作 3
有所不同 3
治疗 3
图纸 3
我的父母 3
嗜血 3
脚跟 3
▁午后 3
的反应 3
我们如何 3
釜 3
面团 3
桅杆 3
每个人都会 3
借用 3
不符 3
假设 3
学院的 3
的高峰 3
权威 3
投了 3
猩 3
长沙 3
▁我已 3
高空 3
倍的 3
合一 3
朝鲜 3
起到 3
缅 3
还对 3
▁也有 3
小军 3
带了 3
先辈 3
辩证 3
心理健康 3
囚 3
留情 3
▁丽 3
于是他 3
叽叽 3
水县 3
蜒 3
宠儿 3
很感兴趣 3
伽 3
时都会 3
努力工作 3
也能够 3
恩赐 3
舐 3
我们只有 3
植物的 3
信用 3
煲 3
镣 3
的意思是 3
周五 3
▁记 3
麦子 3
在最后 3
难忍 3
县的 3
意志力 3
人称 3
行动的 3
说这个 3
的不满 3
多数 3
精英 3
地工作 3
栋楼 3
已经失去了 3
瞥了一眼 3
彭 3
▁丁 3
新型的 3
主要的 3
江苏 3
▁刀 3
地表 3
壑 3
一楼 3
坍塌 3
繁琐 3
调到 3
宠爱 3
碗中 3
反而会 3
文昌 3
全家人 3
▁选择 3
圆形的 3
宝藏 3
问世 3
强化 3
此番 3
滔 3
混混 3
历史悠久 3
▁孩子们 3
肮脏的 3
潸潸 3
加紧 3
给出了 3
者说 3
部长 3
偷走 3
淀 3
之于 3
太远 3
退后 3
五月的 3
随机 3
神州 3
的欲望 3
▁元 3
▁你应该 3
的一套 3
邸 3
蛀 3
▁人们在 3
末日 3
做得很好 3
格列 3
急躁 3
咿 3
▁去年的 3
多为 3
单独 3
烈士 3
痘 3
账 3
的技术 3
有人问 3
陆地 3
和中国 3
的成就 3
不了解 3
的作者 3
▁我们用 3
转而 3
很满意 3
作业的 3
能够做到 3
外出 3
▁所以我们 3
一清 3
居高 3
中国古代 3
炳 3
告诫 3
▁23 3
分布在 3
有更多 3
时间和 3
太高 3
安装 3
幽灵 3
洞察 3
的主角 3
不得而知 3
积水 3
分班 3
也包括 3
2020 3
了然 3
最能 3
防御 3
正朝着 3
学校和 3
不等于 3
但是它们 3
佛山 3
使自己的 3
顾虑 3
产出 3
两组 3
财产 3
和家人 3
磁铁 3
就应 3
时却 3
限 3
是能够 3
▁那只 3
下期 3
圣地 3
▁在中国 3
这都是 3
落后的 3
闲暇 3
管的 3
去见 3
大学的 3
脉搏 3
争辩 3
的小屋 3
和情感 3
闵 3
叙述 3
历史文化 3
▁有许多 3
人中 3
▁要知道 3
统计 3
原子弹 3
到底在 3
最令人 3
有这种 3
感应 3
中选择 3
燈 3
正对着 3
▁6 3
以一个 3
呆在家里 3
漂移 3
妇女的 3
正宗 3
拉面 3
幻灭 3
歼 3
名运动员 3
行驶在 3
服从 3
洛阳 3
他似乎 3
▁那天晚上 3
穷人 3
在日常 3
麦格 3
和刘 3
盛宴 3
无法理解 3
同行的 3
加工 3
的一部 3
也很少 3
鸡肉 3
▁第一章 3
也应 3
陀 3
是因为我们 3
▁放下 3
击败 3
听闻 3
休止 3
特色的 3
也意味着 3
舫 3
某个人 3
白热 3
▁广东省 3
烟灰 3
规律的 3
不顺 3
振作起来 3
是你的 3
大一 3
和学习 3
非常好的 3
形容词 3
就不会再 3
牙膏 3
居住的 3
瓢 3
冰箱里 3
上调 3
逼迫 3
变小 3
很低 3
剁 3
手工 3
检讨 3
有什么关系 3
虽然在 3
柠 3
贵重 3
白头 3
指令 3
夺冠 3
认真对待 3
沛 3
▁我们已经 3
生锈 3
皇室 3
成品 3
毫不留情 3
并没有被 3
追击 3
嫡 3
一级 3
是一所 3
檬 3
蔻 3
决定着 3
▁农 3
扩展 3
▁武 3
共鸣 3
是与 3
自行车的 3
都以 3
嫁给 3
源的 3
破解 3
虚假的 3
向南 3
开始学习 3
岸边的 3
喑 3
▁男人 3
十足的 3
人道 3
问题是 3
不见踪影 3
的后果 3
做到的 3
炸弹 3
先进的 3
在医院 3
斯的 3
▁而这 3
Q 3
机枪 3
▁我只 3
深思熟虑 3
很正常 3
丽江 3
的现场 3
作品中 3
靠拢 3
倒塌 3
▁但是他们 3
正在努力 3
简洁 3
溯 3
小块 3
窖 3
置于 3
首饰 3
巡逻 3
多少钱 3
游戏中 3
另类 3
恶意 3
2。 3
沉迷于 3
开垦 3
也不可能 3
刚刚开始 3
劝他 3
一个女孩 3
并不多 3
玩意 3
来证明 3
是必不可少的 3
动植物 3
难度 3
解说 3
台湾 3
尤为 3
橡 3
的声音和 3
老王 3
无害 3
大头 3
深切 3
就把它 3
移植 3
只是个 3
空无一人 3
几年前 3
淇 3
日志 3
你有没有 3
最简单的 3
中还 3
暴风 3
州市 3
不可缺少的 3
享受到 3
寿命 3
滑稽 3
致意 3
原先 3
无论如何 3
倒进 3
上身 3
一并 3
窠 3
▁首 3
▁g 3
概括 3
曾经是 3
鳗 3
▁我们今天 3
▁0 3
电视节目 3
换个 3
董事长 3
▁经常 3
豌豆 3
▁今天上午 3
斐 3
竖立 3
恰恰相反 3
主教 3
现实世界 3
体内的 3
导弹 3
各处 3
喽 3
月上 3
闽 3
北海 3
订 3
你认为 3
将就 3
条纹 3
天里 3
记录下来 3
▁上周 3
参观了 3
素材 3
不幸的是 3
正轨 3
▁要想 3
他的作品 3
这几年 3
都属于 3
▁解说 3
停靠 3
只要不 3
一点吗 3
看到过 3
意愿 3
一整 3
犯罪 3
强有力的 3
文件 3
可以改变 3
人与人 3
流入 3
喻户晓 3
乘船 3
腐蚀 3
▁以此 3
筏 3
卵 3
莎士比亚 3
停电 3
而且也 3
迅速的 3
中暑 3
也因 3
鸵 3
获得成功 3
来为 3
的战争 3
撸 3
才艺 3
婷婷 3
一窝 3
中文 3
靴子 3
比较好的 3
导致了 3
翼龙 3
得其 3
我想到了 3
不间断 3
怎样才能 3
因为人们 3
某种意义 3
濒临 3
酸痛 3
密封 3
举办的 3
的铁 3
▁哪里 3
俊杰 3
巨型 3
小行星 3
刁难 3
车手 3
沙粒 3
队服 3
审视 3
含有 3
的健康 3
伟说 3
多元 3
独秀 3
被捕 3
并让 3
▁重 3
抬高 3
堰 3
对这个 3
罐子 3
退出了 3
平板 3
邻里 3
负的 3
想一下 3
的舞台 3
这名 3
水管 3
荒原 3
再起 3
▁简单的 3
深呼吸 3
风格的 3
文化遗产 3
能做 3
异常的 3
抢夺 3
箬 3
星期日 3
消解 3
洗手间 3
众多的 3
竞赛 3
掉下来了 3
璐 3
印刷 3
描述了 3
清淡 3
赛上 3
一毛 3
两人都 3
玛丽 3
蠡 3
间隙 3
狼藉 3
裱 3
挡风 3
很高的 3
在历史 3
工程 3
都是如此 3
很远的地方 3
惦 3
卦 3
整个社会 3
吉尼斯 3
古希腊 3
冷藏 3
卖的 3
稼 3
苯 3
有困难 3
▁这让 3
布利 3
一直以来 3
领土 3
屡 3
仨 3
舀 3
独有 3
完成任务 3
看到他的 3
行为的 3
趔趄 3
和世界 3
大马 3
某件事 3
拦截 3
通常 3
磁场 3
志愿 3
自负 3
系统 3
去年的 3
也有可能 3
常见的 3
起着 3
标记 3
召 3
意向 3
飞行的 3
▁诚然 3
罕见 3
谐音 3
加大了 3
当中的 3
强盗 3
槛 3
泥沙 3
观看比赛 3
照明 3
复制的 3
遗传 3
非常有趣 3
人参加 3
划伤 3
岁的孩子 3
急切 3
疲力 3
不仅能 3
搅拌 3
神庙 3
新年 3
发疯 3
独具 3
相望 3
轻松地 3
君主 3
肴 3
做生意 3
两大 3
毒药 3
积极的 3
洛克 3
听取 3
一列 3
意味着什么 3
培训 3
活生生的 3
大众 3
不在于 3
前一天 3
班加 3
损害 3
不当 3
认为的 3
是给 3
可以理解 3
驱使 3
公认的 3
------ 3
屿 3
身于 3
代表的 3
▁支持 3
楷模 3
这段时间 3
调味 3
做了什么 3
写给 3
缺席 3
急着 3
看起来非常 3
代人 3
使他的 3
温文尔 3
生日快乐 3
武术 3
但对于 3
噌 3
是在一个 3
羊皮 3
但这次 3
要经过 3
维修 3
菠萝 3
才能在 3
电磁波 3
失控 3
从他们 3
走出去 3
德意志 3
野蛮 3
恙 3
▁他认为 3
的各项 3
▁家长 3
因为它的 3
很强 3
▁那是我 3
▁你能 3
价值观 3
的困难 3
住房 3
关照 3
大餐 3
倒计时 3
手和 3
甚至更 3
亦有 3
同意的 3
王后 3
时会 3
第一大 3
店铺 3
和李 3
也有很多 3
离散 3
传统的 3
一球 3
农业 3
是一样的 3
推广 3
飞往 3
了一篇 3
决不能 3
致命的 3
▁不久前 3
热带 3
不慎 3
太早 3
位上 3
中得到 3
词汇 3
周年 3
用他的 3
▁为何 3
的科学 3
头巾 3
这两者 3
奥运会 3
和二 3
来表达 3
就给 3
看台 3
过夜 3
伸直 3
一个没有 3
规划 3
十年后 3
上司 3
也就意味着 3
指导下 3
跑动 3
和平的 3
座右铭 3
电脑上 3
弃权 3
倒地 3
发胖 3
名额 3
形势下 3
远大 3
团结起来 3
讷 3
小康 3
佛教 3
的人工 3
吸食 3
水区 3
滑雪 3
▁距离 3
院子里的 3
泉州 3
猥 3
▁塔 3
蔺 3
注射器 3
不信任 3
一直很 3
刚刚结束 3
太太 3
万元 3
▁景 3
楷 3
铁路 3
也正是 3
的成果 3
是世界上最大的 3
将不会 3
并有 3
继承了 3
奥会 3
头盔 3
冲入 3
智力 3
在晚上 3
▁知道 3
立足于 3
垫子 3
以此来 3
国家队 3
火中 3
典型的 3
▁这个女孩 3
▁也就是说 3
开始前 3
望远 3
自己的行为 3
的时候就 3
擅长的 3
另外的 3
都是从 3
的肌肉 3
为中心 3
的环境中 3
煌 3
高分 3
个月大 3
最杰出的 3
牧师 3
加油站 3
心意 3
桀骜 3
也有着 3
作准备 3
大都是 3
转弯 3
每个月 3
郡 3
饮酒 3
书架 3
陀螺 3
▁他已经 3
现在都 3
香烟 3
id 3
的练习 3
荐 3
山和 3
攀升 3
唤起 3
并列 3
赤裸裸 3
兴奋剂 3
智商 3
紧身 3
但是那 3
博弈 3
雌雄 3
纨绔 3
悼 3
回事 3
不是为了 3
习惯的 3
和五 3
斜坡 3
如果他 3
叠加 3
既往 3
互动 3
▁皮 3
的好奇 3
▁柯 3
新时代 3
级别的 3
角形 3
是什么意思 3
极大 3
的性 3
▁再加上 3
福建省 3
▁快速 3
公民 3
轮的 3
工的 3
旅客 3
争抢 3
史上 3
徒劳 3
的风格 3
但仍然 3
观看了 3
▁我正 3
丧命 3
不要在 3
发作 3
熟练地 3
是一部 3
在北 3
流血 3
充分利用 3
的水平 3
说得对 3
催化 3
最想 3
繁忙 3
之一的 3
总是有 3
特效 3
放宽 3
每隔 3
长达 3
卯 3
编辑 3
做出的 3
像这样 3
电力 3
潜意识 3
庵 3
意乱 3
法官 3
的一家 3
澹澹 3
▁当人们 3
延长 3
▁如果他 3
无法接受 3
一所 3
堵车 3
长期的 3
分配 3
不言而喻 3
弓箭 3
面积 3
母亲节 3
分离的 3
做工 3
宽敞的 3
这门 3
竭尽全力 3
自己可以 3
至少要 3
贡 3
奥比 3
两点 3
城县 3
为什么没有 3
的质量 3
溥 3
得更好 3
警觉 3
上半场 3
球队 3
▁此次 3
韧 3
屎 3
榴 3
提供了 3
日本人 3
为其 3
石和 3
▁随即 3
服饰 3
人手 3
为首 3
老先生 3
氢 3
食肉 3
还活着 3
毒蛇 3
从这里 3
兄弟姐妹 3
与世界 3
人被 3
泥浆 3
情有 3
传言 3
被困 3
车前 3
尤为重要 3
维艰 3
契机 3
检查了 3
氧 3
统一的 3
的线 3
才算 3
抵制 3
便捷 3
虚拟的 3
仕 3
如约 3
是一门 3
▁网络 3
侵占 3
中年男子 3
炎热的天气 3
我感谢 3
夸大 3
六点 3
坐落在 3
银牌 3
为我们的 3
要高 3
他还在 3
師 3
水壶 3
罗曼 3
新一代 3
取舍 3
的车辆 3
搬到 3
理性 3
免费的 3
斗牛 3
摒 3
▁死亡 3
要点 3
薯片 3
我亲爱的 3
筠 3
相关 3
驷 3
出海 3
被拒绝 3
发出声音 3
当真 3
重大 3
指明 3
所需要的 3
责任的 3
迟疑 3
菜肴 3
有人来 3
却无法 3
千年的 3
亿人 3
由一个 3
安迪 3
这样的问题 3
受欢迎 3
而没有 3
住处 3
一气 3
匀 3
女娲 3
煽动 3
就显得 3
让观众 3
扩 3
▁相反 3
征兆 3
掩盖了 3
是不可 3
蚁 3
误导 3
大家庭 3
得益 3
海报 3
迷你 3
客车 3
体系 3
皆是 3
摄像头 3
蜈蚣 3
在的 3
宗旨 3
▁茶 3
新世纪 3
趵 3
后被 3
邮 3
的真正 3
诚心 3
避风港 3
的评价 3
排骨 3
开过 3
大不了的 3
教的 3
命名的 3
噼噼 3
黄石 3
高喊 3
地而 3
重担 3
余的 3
现在这个 3
疤 3
短裤 3
忿 3
省的 3
球队的 3
平稳 3
雄心 3
移开 3
崂 3
▁根 3
对三 3
▁他向 3
夫说 3
还是个 3
▁在每个 3
一问 3
小平 3
加的 3
▁是什么 3
▁工作 3
打消 3
慨 3
不负责任 3
uli 3
用电 3
余生 3
这么多的 3
寰 3
一再 3
一息 3
柬 3
气候 3
▁长江 3
都对 3
个性的 3
出版社 3
后期 3
京城 3
▁在我们的 3
变异 3
顶尖 3
语言的 3
的水分 3
俘虏 3
为背景 3
爱心的 3
▁x 3
没必要 3
会觉得 3
癖 3
零花钱 3
无非是 3
搞定 3
节是 3
能够以 3
轻视 3
该死 3
是世界 3
的正确 3
re 3
但也有 3
阀 3
问号 3
真诚地 3
陷害 3
钱的 3
靓丽 3
演出的 3
想象中的 3
者不 3
中药 3
▁短短 3
戈尔 3
罐头 3
这对于 3
和他一起 3
尖端 3
已经有了 3
一棵树 3
胜于 3
积蓄 3
文的 3
名称 3
倾向 3
所受的 3
重来 3
有益的 3
是正确的 3
咖 3
▁湘 3
首位 3
各界 3
▁您是 3
悠久 3
躯干 3
冼 3
― 3
艾伦 3
▁告诉 3
电源 3
重病 3
瞰 3
舰 3
▁感觉 3
▁下一个 3
交际 3
东门 3
地球的 3
成功后 3
的内部 3
ox 3
段时间里 3
是自 3
有哪些 3
的一般 3
▁扬 3
▁外国 3
3、 3
▁嘉 3
箕 3
慢跑 3
先生对 3
▁这对 3
他是一位 3
另一方面 3
适中 3
的目的 3
买彩票 3
会得到 3
头部 3
何种 3
国内 3
充沛 3
时尚的 3
某某 3
女作家 3
的兄弟 3
她的儿子 3
本身就 3
主力 3
商议 3
自己的国家 3
面临着 3
樽 3
定居 3
手势 3
局面 3
感性 3
控 3
贩子 3
偏远 3
我希望你 3
根据自己的 3
脑细胞 3
中含 3
▁大概 3
用手机 3
生化 3
桧 3
过长 3
办公室的 3
每日 3
的分 3
的水果 3
耐力 3
出过 3
蟾蜍 3
豫 3
几乎都是 3
紧密 3
十年前 3
,11 3
超乎 3
▁他经常 3
大概有 3
来源于 3
让他在 3
保留着 3
镇静 3
工夫 3
射出 3
▁这幅 3
▁这儿 3
而死 3
地址 3
一等奖 3
▁鸡 3
的文章 3
心和 3
槁 3
和现实 3
宽的 3
激发了 3
没有用 3
饲养 3
▁周末 3
了所有 3
忘返 3
现实生活中 3
才能使 3
两者 3
生性 3
发笑 3
瘦肉 3
父母亲 3
的比赛中 3
打车 3
病的 3
三星 3
如今的 3
特洛伊 3
蒋介 3
咂 3
学会的 3
效力 3
▁即将 3
域的 3
儒家 3
▁洛 3
变大 3
前就 3
讪 3
他不会 3
当今 3
半个世纪 3
▁他们总是 3
潜水艇 3
在新的 3
罂粟 3
纳米 3
口红 3
聪明的人 3
到一起 3
马达 3
证实 3
还是以 3
▁贾 3
缺口 3
骚 3
温度的 3
的增加 3
娴熟 3
却将 3
本色 3
儿子的 3
妥 3
就相当于 3
蜻 3
坚定不移 3
上就 3
干涉 3
明文 3
这样的一个 3
太大的 3
新闻的 3
笠 3
变得如此 3
▁这只是 3
不屑一顾 3
▁露 3
日晒 3
▁罗 3
一个非常 3
什么也没 3
对孩子的 3
一家三口 3
深厚 3
子是 3
来改变 3
指示 3
自己能 3
窿 3
承受的 3
普及 3
宗教信仰 3
可就 3
开会 3
▁我们不能 3
名誉 3
住所 3
西岸 3
品牌 3
堑 3
是属于 3
鉴定 3
at 3
发散 3
麦克风 3
指的是 3
刎 3
短信 3
旅馆 3
山庄 3
大熊猫 3
因素 3
有好处 3
注意事项 3
所吸引 3
玖 3
喟 3
到最 3
明年的 3
的标志 3
踏板 3
拗 3
河堤 3
一个项目 3
不得已 3
障碍物 3
水能 3
:‘ 3
钦佩 3
一词 3
问到 3
▁z 3
性质 3
梯子 3
▁姜 3
怎么看 3
冲上 3
更加强大 3
营造 3
亦可 3
毕业典礼 3
相传 3
以防 3
误解 3
半透明的 3
世博 3
羽绒服 3
显示了 3
自称 3
四月 3
投资 3
在一家 3
张杰 3
两个字 3
的公路 3
无与伦比的 3
▁一起 3
报名参加 3
㧓 3
筛 3
大巴 3
在以 3
见得 3
我真的很 3
动摇 3
党员 3
珞 3
眩晕 3
活生 3
北京的 3
▁窗户 3
责任和 3
后便 3
记者们 3
他们不会 3
谈到 3
能达到 3
的念头 3
有礼 3
盛世 3
脱离了 3
大型的 3
瞌 3
公元 3
午休 3
能像 3
球后 3
人事 3
是完全 3
的表演 3
缓解 3
姚 3
纠纷 3
考试中 3
青海 3
不一定是 3
菜市场 3
门牙 3
▁地面 3
才智 3
少有 3
还会在 3
把他的 3
解散 3
晚安 3
全部的 3
8) 3
藏匿 3
我有一 3
威慑 3
缘由 3
慈悲 3
不需 3
▁我怎么 3
▁为了让 3
新区 3
▁第四 3
工作人员 3
可言 3
容器 3
平了 3
叫醒 3
普天 3
便将 3
始终保持 3
还给 3
可达 3
紧凑 3
诞生的 3
载人 3
年夏天 3
绝对不能 3
中医 3
找到工作 3
如实 3
生活和 3
有一定的 3
▁除此之外 3
之子 3
搬到了 3
翼翼 3
擅长 3
一出 3
也就是说 3
稳定 3
声誉 3
总共 3
▁p 3
双子 3
在这场 3
海峡 3
畏缩 3
幸存 3
踌躇 3
是从哪里 3
对吧 3
骓 3
淡水 3
为人民 3
我讨厌 3
合并 3
为例 3
回到家中 3
鸟巢 3
通行证 3
不论是 3
特曼 3
有帮助 3
逃脱 3
祖宗 3
碟 3
逵 3
五天 3
进来的 3
旗袍 3
揭开了 3
你得 3
刷牙 3
幼儿 3
加班 3
尽管它 3
罂 3
常年 3
弈 3
铐 3
宝塔 3
不存在 3
灾民 3
简陋的 3
严格的 3
喜欢去 3
感到十分 3
钱了 3
在经过 3
蜿 3
叫来 3
是做 3
的东 3
先前 3
是巨大的 3
形成了一个 3
就需要 3
鱼肉 3
付钱 3
所得 3
大都会 3
下半 3
气派 3
败给 3
报名的 3
▁我当然 3
石块 3
冲撞 3
的独特 3
殖民地 3
落选 3
缺少的 3
▁事后 3
战神 3
左转 3
却从未 3
做的就是 3
对大 3
最长 3
腹部 3
大货车 3
▁这条 3
选择不 3
和自 3
张开嘴 3
降落伞 3
我们看到 3
七十 3
金发 3
pan 3
救世主 3
ton 3
身体上 3
超出了 3
沟壑 3
事先 3
报喜 3
轮子 3
▁大部分 3
创建 3
也有人 3
文科 3
遗址 3
齐全 3
▁杭州 3
一个叫 3
用完 3
▁我知道你 3
滑动 3
蘼 3
歌迷 3
子孙后代 3
头痛 3
打断了 3
口干 3
▁青年 3
可能的 3
▁一对 3
以往的 3
的第 3
的新鲜 3
尔斯 3
薪 3
还经常 3
表现的 3
▁这些都是 3
蜢 3
点什么 3
愉悦的 3
高达 3
可能有 3
联络 3
全神 3
抱歉 3
取笑 3
:" 3
西服 3
水桶 3
网站 3
并进 3
西藏 3
思维方式 3
认定 3
当前 3
计的 3
他没 3
年轻时 3
解决的 3
听器 3
安康 3
扫描 3
▁重庆 3
吞吐 3
纽扣 3
礼貌的 3
而应 3
膝盖上 3
她还是 3
埃 3
指定的 3
贯穿 3
这番 3
椰子 3
帼 3
的油 3
刺绣 3
侦探 3
到手 3
了一瓶 3
蓓 3
▁指 3
语调 3
为那些 3
九江 3
笙 3
崭 3
▁我想在 3
稳住 3
我猜 3
都与 3
外星 3
的渴望 3
详细的 3
签字 3
葬礼 3
我们国家 3
的大学 3
煤炭 3
热衷于 3
播音 3
关卡 3
相仿 3
路虎 3
争执 3
▁所谓 3
马车 3
虬 3
超出 3
泠 3
筵 3
密切的关系 3
小板 3
要求我 3
投机 3
做不了 3
变色 3
纳凉 3
衰落 3
酌 3
艺术品 3
平方公里 3
三岁 3
锃 3
较小 3
上写 3
沉溺 3
晚年 3
郸 3
自己的工作 3
的一段 3
密集 3
这股 3
更低 3
香菇 3
去处 3
鲟 3
飞机的 3
自行 3
破损 3
一定的 3
翻阅 3
几何 3
颗粒 3
紧随其后 3
认为这是 3
跋 3
喆 3
空前的 3
过很多 3
他们只 3
基地 3
滑翔 3
中也有 3
损坏 3
掏出 3
苛刻 3
抗战 3
他不得不 3
一九 3
少不了 3
根深蒂固 3
抗震 3
腐败 3
植入 3
送入 3
空军 3
车子的 3
借口 3
大夫 3
存活 3
于事 3
金刚 3
▁自然 3
説 3
环游 3
阴郁 3
耳目 3
上半 3
一切都会 3
文献 3
继续说道 3
告诉你的 3
应该把 3
被水 3
百科全书 2
单人 2
之称 2
交了 2
备战 2
下游 2
我的车 2
无缝 2
虔诚 2
伸张 2
户人家 2
萃 2
集中在 2
自律 2
▁否则 2
值的 2
货车 2
一直存在 2
买书 2
中性 2
大约有 2
▁鹰 2
者是 2
聚居 2
她比 2
▁肉 2
几乎每个 2
▁16 2
准备在 2
莉莉 2
生计 2
▁我个人 2
,12 2
多长时间 2
闲逛 2
日和 2
的主题 2
唰唰 2
疗 2
▁每一 2
密友 2
哈佛 2
与新 2
辨别 2
年又 2
对新 2
刚一 2
▁在那些 2
的广告 2
到新 2
场地的 2
▁他正 2
自恋 2
大屏幕 2
▁万一 2
更好地 2
调度 2
▁创新 2
摊贩 2
打来的 2
生态系统 2
三代 2
开球 2
接替 2
加勒比 2
大增 2
是真正的 2
公寓 2
过高 2
给你一个 2
灼热 2
的高中 2
颁 2
恸 2
44 2
攻击性 2
摹 2
约定的 2
所做的 2
▁如果不是 2
索要 2
基因的 2
汛 2
的数量 2
如火如荼 2
到下 2
与他的 2
,16 2
被撞 2
信件 2
身份证 2
气管 2
冲突 2
好处的 2
幺 2
送她 2
导师 2
味甘 2
祎 2
年度 2
遮阳伞 2
烹饪 2
鹫 2
斟 2
▁奥运 2
委婉 2
壁纸 2
出来时 2
中枢 2
sa 2
重新回到 2
工作时 2
360 2
▁在整个 2
希望她 2
当之无愧 2
百里 2
三地 2
此一 2
所做的一切 2
诚挚 2
要继续 2
信任和 2
地位和 2
钝 2
和国家 2
慑 2
来寻找 2
我的工作 2
的斗争 2
也有一些 2
证书 2
审美 2
万柳 2
外援 2
▁在美国 2
江阴 2
▁j 2
傀儡 2
乡的 2
出发点 2
计数 2
衰退 2
几天前 2
▁也就是 2
的南 2
损坏了 2
咻咻 2
▁为什么不 2
的故乡 2
游戏的 2
大盘 2
几年的 2
都不可能 2
一年后 2
匙 2
白银 2
石家庄 2
血缘 2
说话吗 2
切断 2
喷出 2
头发和 2
病历 2
饰品 2
很快便 2
制定的 2
了一项 2
保密 2
派出了 2
桢 2
的结果是 2
平方 2
涔涔 2
进行了一次 2
▁了解 2
▁只有在 2
这对夫妇 2
▁浮 2
的表面 2
法术 2
▁小区 2
▁我们也 2
用地 2
主观 2
嘁 2
教育是 2
多元化 2
从未见过 2
丛林 2
必修课 2
小长假 2
意料之中 2
涂上 2
▁她是个 2
公顷 2
有一个很好的 2
外部 2
最著名的 2
卓尔 2
擅 2
五分之一 2
88 2
的年轻人 2
廓 2
▁蔡 2
分数线 2
水库 2
非洲 2
平面 2
▁享受 2
如何在 2
核心 2
哈佛大学 2
冂 2
正在向 2
的不错 2
撂 2
▁他似乎 2
咒语 2
供给 2
胜的 2
预料 2
▁彭 2
中对 2
一女 2
掂 2
俩都 2
抽取 2
最起码 2
特权 2
圈套 2
或她 2
先将 2
躁动 2
中国共产党 2
▁乔 2
瓦解 2
撒哈拉 2
也得到了 2
76 2
专门为 2
变形金刚 2
庐山 2
宣扬 2
是一些 2
剑桥 2
党和政府 2
有助于 2
不俗 2
山寨 2
所为 2
后背 2
警官 2
每年的 2
储 2
它们都是 2
楔 2
对我国 2
克斯 2
扱 2
富人 2
填充 2
挑剔 2
算出 2
作好 2
四分 2
仍然没有 2
逐一 2
耳光 2
幸的是 2
米外 2
餐桌上 2
▁但他们 2
我们想 2
之以鼻 2
广西 2
王老 2
挤压 2
公司的 2
内蒙古 2
女性的 2
一小部分 2
为一种 2
贫富 2
夫妇 2
德国 2
平台 2
交由 2
它对 2
最好不要 2
` 2
浮肿 2
壬戌 2
清华 2
▁怎么办 2
绝杀 2
付出多少 2
他们还 2
▁近年来 2
不切 2
▁我们去 2
而成为 2
入手 2
这是他 2
设计师 2
姝 2
级别 2
专业的 2
混蛋 2
再继续 2
发挥的 2
背道而驰 2
也给 2
▁时隔 2
屡屡 2
天人 2
▁限制 2
由其 2
不同寻常的 2
垄断 2
暂停 2
也一直 2
恰逢 2
主的 2
再也无法 2
解冻 2
榛 2
金沙 2
呡 2
累计 2
站起身来 2
谏 2
▁但这些 2
鼾 2
▁有些人 2
年男子 2
悠久的历史 2
和行为 2
原有 2
心悸 2
把那些 2
底线 2
落实到 2
买票 2
恤 2
补习 2
有缺陷 2
的前提 2
伙计 2
碉 2
护理 2
他们以 2
间断 2
发表的 2
象征性的 2
裘 2
扶手 2
重演 2
祛 2
效益 2
当即 2
▁当年 2
el 2
制作的 2
有毒 2
▁不仅如此 2
▁幸运的是 2
我们今天 2
广东省 2
走下来 2
理发店 2
可能会被 2
莎莎 2
单位 2
石灰 2
有资格 2
服务员 2
参与了 2
洗了 2
博客 2
很困难 2
早年 2
颇丰 2
看着它 2
开着的 2
逛逛 2
几乎所有 2
这么久 2
5. 2
次助攻 2
飞溅 2
充当 2
三部分 2
留了 2
上角 2
国情 2
第一种 2
咄咄 2
完全相同 2
▁幸 2
的那个人 2
尽可能 2
嗗 2
国家政策 2
▁受到 2
车外 2
▁一般 2
七月 2
救世 2
无辜的 2
伤势 2
他并不 2
教养 2
而让 2
痞 2
祈 2
他正在 2
说的那样 2
精密 2
相提并论 2
放在一起 2
决定性的 2
橄榄 2
与您 2
橡树 2
前五 2
深度 2
警报 2
灌输 2
破灭了 2
该岛 2
满月 2
▁登山 2
业已 2
有失 2
拉出来 2
猪肉 2
学者的 2
揭示 2
比普通 2
势在必 2
粒子 2
犊 2
但如果 2
不亚于 2
敏锐 2
擒 2
一则 2
命名为 2
晚点 2
瘤 2
打牌 2
墓碑 2
不久的将来 2
直通 2
深爱 2
us 2
得手 2
▁剧 2
在保护 2
印象是 2
毁坏 2
的重任 2
手机上 2
合照 2
消退 2
你能够 2
一类 2
打包 2
绘制 2
不法 2
和提高 2
__ 2
你的名字 2
桌旁 2
程序 2
悱恻 2
拿走了 2
高速公路 2
将会有 2
▁结果是 2
陽 2
▁教育 2
在人类 2
当时他 2
莠 2
但依然 2
拉的 2
有责任 2
”: 2
边走 2
打乱 2
室的 2
放任 2
但不是 2
做得更好 2
鸨 2
年奥运会 2
▁今年的 2
喷嚏 2
考官 2
建立与 2
回馈 2
▁如果一个 2
个多小时 2
块的 2
欲绝 2
_ 2
误解了 2
至今仍 2
文化传统 2
▁毫无疑问 2
酒精 2
媲美 2
来看待 2
旳 2
摩托 2
列入 2
训练的 2
戍 2
一个朋友 2
EX 2
▁| 2
和两个 2
加重 2
口音 2
纲要 2
才将 2
经久 2
和四 2
厅里 2
变革 2
是让 2
▁猪 2
继承人 2
的词 2
一封 2
圣诞树 2
老年人 2
▁他还说 2
淡黄色 2
▁天哪 2
与方法 2
ran 2
▁这片 2
)” 2
善意 2
投掷 2
采取了 2
数字是 2
不到一个月 2
合力 2
是一辆 2
10. 2
▁单 2
马拉松 2
汉代 2
成正 2
香草 2
向内 2
一些关于 2
一端 2
急于 2
祭祀 2
我们可以在 2
es 2
▁这块 2
歉 2
他们需要 2
例外 2
请他们 2
ow 2
巴黎 2
想而知 2
喂养 2
匣子 2
iz 2
邓小平 2
煽 2
战役 2
的情感 2
开始之前 2
有兴趣 2
之名 2
咀 2
步态 2
太可怕 2
就意味着 2
▁这在 2
相恋 2
扶持 2
不久前 2
钟表 2
砖头 2
如果他们 2
误入歧途 2
1.5 2
㖿 2
率先 2
歹 2
但有 2
和自由 2
平房 2
公分 2
具尸体 2
就可 2
▁随着时间的流逝 2
洗牌 2
斯坦 2
环顾 2
部位 2
很少有人 2
而言之 2
手艺 2
地成为 2
当日 2
每周 2
大黄 2
法学院 2
▁什么时候 2
用这些 2
很强的 2
遮阳 2
松绑 2
其实在 2
是什么原因 2
废物 2
初衷 2
有害气体 2
57 2
谨慎的 2
最长的 2
▁? 2
遭到了 2
爱情的 2
只允许 2
购物 2
部分的 2
得到一个 2
两块 2
无疑是 2
整套 2
千克 2
枷 2
这辆 2
把他们的 2
▁下半场 2
吉林省 2
解决这个问题 2
▁瓦 2
深感 2
在今天 2
日语 2
堤防 2
与发展 2
格里 2
▁1. 2
▁甲 2
戏份 2
偕 2
仪器 2
所需 2
▁上海 2
今天上午 2
各方 2
个月后 2
看到有人 2
要害 2
部电影 2
尘埃落定 2
和南 2
罕 2
碦 2
强项 2
披头 2
他的新 2
的基本 2
垣 2
自信心 2
可以在这里 2
面积约 2
混凝土 2
真是太好了 2
开胃 2
格式 2
消防员 2
美誉 2
污染的 2
都感到 2
人情 2
录取通知书 2
倍增 2
了不起的 2
在很多 2
门窗 2
撬 2
对决 2
骞 2
带他 2
白细胞 2
辞去 2
隔绝 2
缺水 2
并排 2
让这个 2
折腾 2
是如何 2
▁全市 2
思路 2
必须的 2
是具有 2
深海 2
排档 2
柜台 2
颂歌 2
34 2
他们用 2
省略 2
运动鞋 2
▁几分钟后 2
合同的 2
,50 2
的环境下 2
▁而那些 2
姑娘们 2
有一段时间 2
在世界上 2
渠道 2
囔 2
卉 2
心得 2
噬 2
消亡 2
工人们 2
没人能 2
界限 2
也向 2
▁这是个 2
并不容易 2
笨重 2
明确 2
以小 2
衾 2
可以给 2
因为如此 2
官僚 2
在其他 2
强健 2
优胜 2
会影响 2
那时起 2
自足 2
甄 2
是一件好事 2
趾 2
规定了 2
一次又一次地 2
地面的 2
他跟 2
架子上 2
剩余的 2
▁谁能 2
高龄 2
邯郸 2
看见他 2
福州 2
则为 2
傍 2
宿舍楼 2
相配 2
我所有的 2
带您 2
传送 2
持久 2
在墙上 2
德的 2
一新的 2
发动机 2
我们得 2
来决定 2
克拉 2
的担忧 2
获得新的 2
很难说 2
▁阅读 2
合理的 2
魔幻 2
和这个 2
的农民 2
和父亲 2
鲜为人知 2
晚上的 2
录取 2
eg 2
垂钓 2
袈裟 2
呼叫 2
影片 2
加热器 2
大军 2
离开家 2
黄连 2
你太 2
▁当时的 2
别担心 2
玄武 2
时对 2
阿玛 2
▁在这些 2
享有 2
承载能力 2
富有的 2
的时候才 2
它所 2
00 2
迷信 2
▁一切都 2
的高压 2
▁第二章 2
次序 2
户口 2
和水 2
氧化 2
可信 2
黑色和 2
▁尤其是 2
通关 2
▁预 2
直言 2
是一个好 2
是中华民族 2
▁对比 2
南极 2
方向的 2
上海市 2
教学方法 2
针头 2
▁皮肤 2
媒 2
蝗 2
对马 2
星系 2
他本人 2
条路 2
2” 2
浣 2
变黑 2
217 2
工作中 2
一分钱 2
另一位 2
擅自 2
、3 2
弊 2
已近 2
洞庭 2
交锋 2
当局 2
身体上的 2
、5 2
水源 2
澄清 2
年夜 2
抑或 2
把握住 2
二年 2
缄 2
汇报 2
汉堡包 2
哪家 2
唁 2
中的每个 2
濂 2
抠 2
挥发 2
感到失望 2
之嫌 2
打掉 2
铸就 2
▁套 2
金钱和 2
赛的 2
豺 2
美国人 2
惨淡 2
有任何 2
向导 2
热切 2
旅游景点 2
140 2
奇才 2
是绝对 2
颜面 2
晓得 2
半个月 2
截然不同的 2
杳 2
重获 2
不常 2
高到 2
▁沿 2
▁几年 2
回溯 2
文凭 2
伤寒 2
庇 2
道路上的 2
墓地 2
磋 2
向世界 2
定做 2
开机 2
船尾 2
又与 2
获得冠军 2
休息室 2
坚决反对 2
又起 2
手机的 2
▁合 2
剽 2
航线 2
山洞 2
登记 2
铁的 2
的电话 2
下班后 2
65 2
77 2
柔韧 2
曾一度 2
开局 2
统治者 2
的中华 2
断言 2
垃圾分类 2
斯基 2
微薄的 2
的电 2
支队 2
▁来吧 2
药材 2
多项 2
闻起来 2
护照 2
▁广州市 2
有为 2
医生说 2
昂贵的 2
送出 2
追究 2
稷 2
判决 2
如果她 2
局长 2
考古学家 2
背离 2
咚咚咚 2
▁时至 2
类似的 2
即将到来 2
沉积 2
什么才是 2
逐步 2
▁第六 2
总督 2
▁导演 2
手术室 2
十多 2
通达 2
悬挂在 2
远远不够 2
买了一辆 2
▁物理 2
侦 2
孑 2
家族的 2
小三 2
本泽马 2
不可否认 2
然后继续 2
还是对 2
创办 2
浔 2
的竞争 2
广义 2
密不可分 2
赛中 2
珏 2
▁包 2
寅 2
ig 2
青年人 2
证据 2
几个问题 2
垂死的 2
造的 2
就在这里 2
的羊 2
理念 2
别无选择 2
冒犯 2
官的 2
的神经 2
虔诚的 2
热量 2
确切 2
枭 2
行动不便 2
▁近来 2
侦查 2
正在与 2
▁和你 2
搡 2
矿山 2
不适应 2
迥 2
总是很 2
铘 2
▁我不得不 2
还为 2
▁特 2
美丽和 2
▁显然 2
阳县 2
其间 2
现在已经 2
蝇 2
诋 2
会员 2
不和谐 2
羊毛 2
正为 2
五湖 2
迎战 2
清扫 2
施工 2
▁舞 2
共产党的 2
癜 2
恳求 2
小米 2
她家 2
五花八门 2
壮大 2
较强的 2
柑橘 2
具体情况 2
风琴 2
的小伙子 2
▁我们现在 2
▁谢 2
界定 2
的承诺 2
已经成了 2
自欺欺 2
怪异 2
有一处 2
弹簧 2
溪县 2
▁西安 2
沭 2
公然 2
一张照片 2
这已经 2
▁春节 2
结果是 2
野生动物 2
上街 2
业务 2
翊 2
偷窃 2
的事了 2
陂 2
的一侧 2
加重了 2
秦皇岛 2
冗 2
他们正在 2
理发 2
* 2
启动了 2
的高低 2
66 2
来找我 2
不可避免的 2
端倪 2
的巨大 2
政治家 2
深圳 2
干预 2
状况下 2
军队的 2
偷猎 2
▁”, 2
流利的 2
▁12 2
武装 2
吩咐 2
很受 2
痍 2
力求 2
po 2
▁卫生 2
五名 2
▁我讨厌 2
的深度 2
院的 2
扌 2
吸毒 2
当一个 2
泥石流 2
抓紧时间 2
多功能 2
呼应 2
建设的 2
不断上升 2
▁她希望 2
罪魁祸首 2
暗杀 2
刿 2
聒 2
赞誉 2
她以 2
硬化 2
你是在 2
根系 2
为代价 2
误入 2
推动 2
只是说 2
捽 2
钢筋 2
、10 2
消遣 2
款式 2
让他的 2
华南 2
的基础上 2
蔷 2
初始 2
物件 2
的音 2
明智 2
障碍的 2
特色社会主义 2
不代表 2
带来巨大的 2
论点 2
花费 2
南通 2
十几年 2
敬老院 2
女友 2
在海上 2
它已 2
▁基 2
艾尔 2
您就 2
趋于 2
体育比赛 2
快递 2
王的 2
和六 2
的了解 2
常用 2
▁它是在 2
喂食 2
父亲节 2
而且可以 2
搜集 2
熬过 2
常绿 2
水时 2
的是一种 2
54 2
卸 2
卡车 2
臧 2
邈 2
简短 2
的作用下 2
巴菲特 2
160 2
穷人的 2
▁弗 2
谀 2
2009 2
收养 2
多天 2
古典音乐 2
慕名 2
三层 2
你必须 2
尓 2
椪 2
▁杰克 2
二十年 2
亲子 2
简单地 2
山水画 2
关机 2
始于 2
邻近 2
▁这篇文章 2
海豹 2
泷 2
▁群 2
相册 2
端午节 2
风范 2
奠定 2
万公顷 2
高得 2
最佳的 2
▁然后我 2
的宣传 2
相干 2
加点 2
却只有 2
是社会 2
一堂 2
大体 2
、“ 2
死亡率 2
曲目 2
芷 2
但我们的 2
出战 2
秃头 2
▁现在是 2
战线 2
面料 2
有这样的 2
位子 2
始终坚持 2
一致 2
每天早晨 2
将整个 2
工地 2
各不相同 2
蜂巢 2
股的 2
为中国 2
我才能 2
运行 2
头发是 2
并从 2
的不仅仅是 2
▁刘翔 2
来宾 2
迫于 2
而是被 2
团体的 2
▁河南 2
十字架 2
孤立 2
吸引力 2
▁如果一个人 2
最大的问题 2
口腔 2
这四个 2
苡 2
亵渎 2
我简直 2
根本不 2
论证 2
刚刚从 2
▁其他的 2
宣告 2
住宅 2
分界线 2
顶点 2
数次 2
对于一个 2
大学毕业 2
适量的 2
是一支 2
击打 2
和我们的 2
意象 2
审讯 2
经济发展 2
之久 2
相符 2
抽查 2
滑行 2
有一部分 2
针对 2
而感到自豪 2
严重影响 2
享年 2
选择一个 2
霡霂 2
状元 2
几场 2
有可能是 2
很早就 2
司令 2
▁冬季 2
传人 2
外流 2
偏爱 2
是一项 2
颉 2
苏联 2
要以 2
止痛 2
揭开 2
也必须 2
认出 2
震颤 2
喝醉了 2
赛季 2
▁t 2
猖獗 2
相信她 2
能力和 2
的冲击 2
输液 2
出游 2
这项 2
▁返回 2
一刀 2
▁她被 2
历史性 2
鸟类 2
抓到 2
▁还要 2
投票 2
十分之一 2
鼓励和 2
植被 2
告终 2
废品 2
饿死 2
文化中 2
酿造 2
更有利于 2
上任 2
号和 2
▁黎 2
▁宁 2
▁恐怕 2
詹 2
这个目标 2
颏 2
庆贺 2
也逐渐 2
明晰 2
▁稻草 2
纪念品 2
构成了一个 2
联军 2
等项目 2
菩萨 2
强劲 2
我靠 2
▁晋 2
前夕 2
撼 2
的这一 2
和处理 2
推到 2
一经 2
老一辈 2
▁追 2
▁扎 2
年的时候 2
共创 2
精湛 2
水墨 2
我们非常 2
思想家 2
其在 2
的高科技 2
缨 2
成形 2
中国有 2
欧洲 2
深水 2
上等 2
发问 2
弩 2
直觉 2
道具 2
供水 2
成真 2
书信 2
信奉 2
她从 2
▁充满 2
全天 2
郊野 2
无一例外 2
尽一切 2
吉林 2
标致 2
稀薄 2
乌斯 2
在一张 2
共存 2
野猪 2
积分 2
但是从 2
的个人 2
洹 2
抔 2
周恩来 2
出去的 2
泵 2
法院 2
光大 2
单亲 2
脱落 2
橡胶 2
看中 2
沦为 2
第一件事 2
车后 2
消失的 2
▁直 2
和女儿 2
所作 2
是不好的 2
它是一个 2
金字塔 2
更具 2
到医院 2
▁演讲 2
弑 2
er 2
洛伊 2
▁病 2
更广 2
的生长 2
而这些 2
阿里巴巴 2
有趣的是 2
受重伤 2
装有 2
比任何 2
峨眉 2
锤子 2
国产 2
王冠 2
物和 2
多才 2
没有发现 2
那样做 2
可观 2
▁她想 2
地形 2
规章制度 2
的时间内 2
他们必须 2
通知了 2
所作的 2
多年来 2
所以他们 2
溟 2
继母 2
繁殖 2
中写道 2
更加强 2
辜 2
匿名 2
欧式 2
名家 2
虱 2
才能达到 2
和家庭 2
中华人民共和国 2
甚至在 2
有必要 2
谊 2
仄 2
集团的 2
联系到 2
飞机上 2
圣经 2
特别高兴 2
水份 2
犹豫不决 2
必须要有 2
火腿 2
队列 2
开发了 2
拐弯 2
老板的 2
回转 2
仅是 2
我们的身体 2
俱乐部的 2
孪生 2
和未来 2
嫘 2
娑 2
按下 2
办公 2
氛围中 2
并说 2
栖息地 2
无一人 2
迪亚 2
经商 2
呸 2
等不及 2
成文 2
世界纪录 2
日复 2
可以用来 2
▁贵州 2
盔甲 2
厚度 2
异地 2
苹果的 2
弯曲的 2
并不那么 2
▁嗨 2
▁圣诞节 2
就不可能 2
频道 2
在此时 2
揭晓 2
伎俩 2
能及时 2
94 2
等什么 2
▁从这个 2
▁室内 2
白金 2
不佳 2
勇士 2
未成年 2
最终以 2
将一 2
▁周五 2
沉入 2
▁极 2
时所 2
的第二个 2
络 2
外向 2
五分钟 2
他们的生活 2
发生变化 2
上年 2
沅 2
天一 2
▁5. 2
▁熟悉 2
自言 2
▁安迪 2
第五届 2
▁2013 2
邮票 2
亚洲 2
松动 2
最新 2
▁确实 2
站在那儿 2
取消了 2
花板 2
员工 2
蹂躏 2
输入 2
的整个 2
表现出来的 2
鹂 2
纸币 2
不平等 2
海龟 2
松弛 2
新鲜事 2
叛乱 2
适量 2
▁这话 2
▁黄金 2
▁除 2
少一些 2
成功地 2
84 2
几率 2
唰唰唰 2
感染力 2
打火机 2
异国 2
陶艺 2
骨髓 2
时把 2
枇杷 2
神社 2
混合 2
盆栽 2
发现问题 2
象棋 2
需要有 2
干扰 2
贵宾 2
物流 2
席之地 2
能够让 2
哈姆雷特 2
傍晚时分 2
画作 2
会从 2
会发生什么 2
最后一场 2
赚到 2
雉 2
时辰 2
96 2
扩充 2
李先生 2
来维持 2
逃脱了 2
已经将 2
出版的 2
她被 2
领域的 2
里说 2
他的父亲 2
▁要是 2
吸血 2
▁我们需要 2
颈部 2
没有找到 2
▁我们只是 2
公共场所 2
梅西 2
边界 2
熹 2
撒谎 2
近距离 2
新陈代谢 2
负责任 2
本的 2
度日 2
您要 2
▁求 2
尿 2
网友 2
市中心 2
新人 2
憬 2
朝下 2
我是你 2
的罪行 2
颀 2
上和 2
三轮车 2
该不该 2
da 2
在西方 2
又该如何 2
简约 2
辨认 2
草药 2
随着年龄 2
联合 2
打火 2
的时机 2
没看到 2
鬃 2
插入 2
一辆车 2
更强的 2
死者 2
I 2
廉洁 2
微博 2
感到非常 2
百家 2
后发现 2
也大 2
也是中国 2
期内 2
三分之二 2
的角度 2
再现 2
▁我们将 2
努力来 2
雷阵雨 2
的良好 2
文本 2
不把 2
,15 2
也许可以 2
不以 2
强势 2
喜事 2
她没 2
蜚 2
实践中 2
国王的 2
的一篇 2
安全带 2
▁习 2
富人的 2
迷路了 2
和许多 2
工艺品 2
▁当今 2
禁区 2
执法 2
理发师 2
臼 2
遭遇了 2
引进 2
▁年轻人 2
天王 2
52 2
中生 2
老区 2
公证 2
▁这些人 2
创新的 2
而从 2
自理 2
所要 2
根深 2
他回答 2
打不 2
离奇 2
的房间 2
昂贵 2
军官 2
▁昨晚 2
大块 2
我还没有 2
面积为 2
传闻 2
首次 2
格尔 2
联系在一起 2
秆 2
刺激了 2
非凡的 2
迢 2
公道 2
昆曲 2
▁奇 2
岩松 2
指点 2
机器的 2
混在一起 2
这是因为 2
他甚至 2
搜 2
显而易见的 2
店家 2
昨天晚上 2
发现一个 2
闭幕 2
比比 2
都难以 2
年到 2
隐含 2
郊外的 2
打发 2
▁两者 2
桕 2
都可以用 2
彪 2
新郎 2
之间的距离 2
吹捧 2
大错 2
回音 2
良的 2
利比 2
▁个 2
定律 2
扩大了 2
者在 2
菜单 2
少儿 2
大都 2
中西 2
无奈之下 2
众人的 2
ans 2
三九 2
而改变 2
▁在大 2
双面 2
为一体 2
自愿 2
成为世界 2
尾气 2
他从 2
▁浓 2
吨 2
他给 2
傣 2
扈 2
砂轮 2
纶 2
德尔 2
韭 2
的事迹 2
来表示 2
生动的 2
余年 2
到我们的 2
息息相关 2
自驾 2
的新型 2
的罗 2
的人性 2
而这个 2
圏 2
▁他不 2
改进 2
能找到 2
薰 2
一届 2
售后服务 2
呈现在 2
工作量 2
斜视 2
▁面对如此 2
抗衡 2
钱来 2
习俗 2
携带 2
是每个 2
▁香港 2
市场上 2
学前 2
滤 2
▁30 2
我打算 2
将他们 2
带来了巨大的 2
袜子 2
▁城 2
征战 2
卡西 2
吸纳 2
讶 2
南方的 2
他们来 2
喋 2
展示自己的 2
就越大 2
珣 2
利害 2
新华 2
幻影 2
艿 2
一个巨大的 2
在孩子 2
木星 2
万公里 2
中东 2
开办 2
总部 2
发射的 2
▁买 2
压力大 2
来实现 2
和现代 2
投下 2
危险的 2
接到了 2
有形 2
杰克 2
小说的 2
会失去 2
草根 2
包粽子 2
的完美 2
▁三个 2
小店 2
和民族 2
的原始 2
拿走 2
前几年 2
清楚了 2
白酒 2
上刻 2
** 2
柑 2
停泊 2
找出 2
亲生 2
会变得 2
▁事情 2
▁街道 2
小便 2
大面积 2
已将 2
吃一惊 2
,19 2
知情 2
无法实现 2
半岛 2
洛蒂 2
枚金牌 2
巧妙地 2
迦 2
纳入 2
青睐 2
宇航 2
稳定的 2
我们看到了 2
再通过 2
钻孔 2
这是非常 2
马拉 2
到其他 2
现有 2
噼哩 2
发明的 2
推车 2
飞速发展 2
▁提起 2
边疆 2
房的 2
这些孩子 2
没有什么可 2
橱窗 2
这两种 2
以轻 2
空前 2
中已经 2
的儿童 2
麟 2
日渐 2
藏书 2
大公 2
的这种 2
硝酸盐 2
活着的 2
双赢 2
杀害 2
高温 2
良好的环境 2
颇具 2
底座 2
的现象 2
下线 2
配料 2
他的妻子 2
青藏高原 2
的直接 2
录音 2
确信 2
三倍 2
的大气 2
家和 2
的东西吗 2
常有 2
执行任务 2
队以 2
由你 2
宮 2
待了 2
尤其是在 2
经典的 2
和心理 2
罗兰 2
一无所知 2
反弹 2
粽 2
濯 2
拓展 2
了几次 2
蒙受 2
俱乐部 2
初次 2
承载着 2
▁原因 2
▁廖 2
拥有自己的 2
▁它还 2
组织了 2
有三个 2
约翰 2
▁钱 2
流出的 2
器官 2
参见 2
赤道 2
悔改 2
褶 2
能够使 2
束手无策 2
简单而 2
缤 2
霏 2
已晚 2
的经典 2
恰到 2
反映的是 2
纯属 2
▁他现在 2
北京奥运会 2
谚语 2
的共同 2
迅速将 2
▁什么是 2
丰富了 2
▁农民 2
产生的 2
之上的 2
作家的 2
有一半 2
胞 2
重合 2
阻挠 2
剥夺 2
疑似 2
做家务 2
再添 2
汉语 2
溶液 2
▁全文 2
▁即使是 2
校车 2
无偿 2
储备 2
的最终 2
凇 2
沽 2
海滩 2
华美 2
表达了 2
龙潭 2
在两个 2
煤油 2
轿 2
邢 2
是因 2
假日 2
住过 2
ling 2
不要去 2
第一印象 2
▁道 2
上下班 2
通风 2
鸾 2
脚踝 2
皮肤的 2
乙方 2
无锡 2
挑逗 2
红豆 2
地点在 2
进口 2
绝对是 2
相片 2
禁赛 2
的书籍 2
我明天 2
几家 2
精品 2
十多年 2
玛雅 2
怀疑的 2
力量和 2
而其中 2
慈善 2
战争中 2
暖气 2
绿化带 2
对国家 2
救济 2
宣言 2
迩 2
表彰 2
璟 2
幸福与 2
真假 2
▁许多人认为 2
现在正在 2
皆知 2
优异的 2
之二 2
在此期间 2
冷暖 2
的网络 2
与人类 2
那将 2
两辆 2
季节的 2
过冬 2
升温 2
打开电脑 2
他应该 2
厘米的 2
杀虫剂 2
专为 2
从何而来 2
熟知 2
回声 2
婕 2
灸 2
而富有 2
应答 2
▁水果 2
蜇 2
的钻石 2
孵 2
王牌 2
并不顺利 2
连胜 2
模具 2
担心的 2
扑克 2
告一段落 2
洛斯 2
嚒 2
扣留 2
养生 2
产自 2
节假日 2
红薯 2
彗星 2
爱国主义 2
连同 2
马克思 2
稀有 2
是所有 2
的代价 2
老板说 2
一个地方 2
的一方 2
土星 2
婊 2
想到的是 2
颚 2
邑 2
研究的 2
饵 2
国防部长 2
在第 2
考虑到 2
魅力的 2
遣 2
这将 2
虫的 2
▁他们把 2
熟人 2
是现代 2
▁韩 2
浓烟 2
并不断 2
积极地 2
朋友说 2
确保 2
,25 2
了中国 2
空域 2
稞 2
▁不同的 2
装载 2
能实现 2
诺亚 2
YS 2
顿饭 2
重写 2
南昌 2
出来后 2
言之 2
神舟 2
▁银杏 2
赶出 2
来信 2
非常大的 2
搀扶 2
突破了 2
述了 2
鳄鱼 2
原有的 2
赛特 2
为啥 2
班车 2
职能 2
牵制 2
抛出 2
已故 2
▁红色 2
他曾经 2
重要的事情 2
当过 2
▁每天早上 2
▁救援人员 2
跟进 2
而为 2
肩负 2
▁切 2
▁我所 2
提及 2
2003 2
突起 2
和你的 2
荧 2
无谓 2
汇集 2
中出现的 2
紧跟 2
久远 2
实属 2
脱掉 2
的期望 2
▁知识 2
▁智 2
有所提高 2
渗入 2
他们可以 2
航员 2
砝 2
金城 2
的冒险 2
读者的 2
▁苏联 2
大为 2
色调 2
愊 2
的乐趣 2
活力和 2
削弱 2
几分钟后 2
畅谈 2
等待的 2
新家 2
正处于 2
相应 2
进场 2
改造 2
这个新 2
属性 2
出动 2
▁相比之下 2
只手 2
的功能 2
这很 2
门徒 2
见你 2
别无 2
假想 2
的房屋 2
顺从 2
起义 2
印象深刻的 2
威士忌 2
叛逃 2
,6 2
北京市 2
旷野 2
啤酒的 2
来个 2
参考书 2
▁当我在 2
那本书 2
涉足 2
被盗 2
公布的 2
外加 2
拖累 2
起就 2
明显下降 2
户外 2
民工 2
▁干 2
找到一个 2
:10 2
不足的 2
2. 2
主攻 2
宗教 2
肉类 2
▁其他人 2
万的 2
希望和 2
不仅会 2
的角 2
大爆炸 2
如果你们 2
抛物 2
玻璃杯 2
凯歌 2
贝拉 2
性地 2
覃 2
NBA 2
缠身 2
大奖 2
卫生间 2
接着说 2
讲座 2
并没有什么 2
归还 2
嗑 2
鸦片 2
太阳能 2
的两位 2
▁借 2
和儿子 2
学说 2
吸引了很多 2
悲伤和 2
手帕 2
的大学生 2
装上 2
始终是 2
瑀 2
煤矿 2
与中国 2
农作物 2
天线 2
要给 2
情境 2
相对于 2
产的 2
跳蚤 2
像素 2
地域 2
轿车 2
镖 2
的时间和 2
渔船 2
噗 2
惊呼 2
▁加强 2
▁尽管他 2
操纵 2
控制了 2
山区的 2
河北省 2
▁那是因为 2
编制 2
97 2
他来 2
长时间的 2
的情节 2
▁台湾 2
很害怕 2
过瘾 2
舸 2
提名 2
寨沟 2
摩天大楼 2
遗余 2
牵连 2
▁沉默 2
是一个非常 2
▁法国 2
的来源 2
名列 2
▁结构 2
谪 2
远没有 2
函 2
秤 2
掀起了 2
主动与 2
人与人之间的 2
▁应 2
定在 2
也成为 2
杯咖啡 2
推崇 2
为期 2
旨 2
妈妈们 2
窸窣 2
侣 2
出错 2
把它的 2
全世界最 2
▁爱丽丝 2
一国 2
除草 2
▁我很高兴 2
传说中 2
师的 2
跌宕 2
俄国 2
弹性 2
子女的 2
王位 2
▁可是在 2
迫切 2
偶像剧 2
S 2
似乎都 2
冷战 2
实施 2
第一部 2
艾斯 2
担心的是 2
功臣 2
张文 2
全心全意地 2
地处 2
的增长 2
中国在 2
瘾 2
这两天 2
中的一些 2
投篮 2
安居 2
年级学生 2
回路 2
利用了 2
光合作用 2
搀 2
处子 2
承担着 2
回流 2
约束 2
表格 2
正在经历 2
以他 2
服务于 2
组委会 2
▁亦 2
我将在 2
押 2
的一对 2
来完成 2
▁如果你的 2
▁本人 2
恃 2
的危险 2
在亚洲 2
彼得 2
▁中心 2
颜色和 2
有时是 2
解读 2
马尔 2
和上 2
分别为 2
提醒自己 2
资产 2
委员会 2
水稻 2
经济效益 2
▁化学 2
水温 2
如果要 2
的小组 2
拥有许多 2
我不太 2
报考 2
▁他没有 2
健全 2
监狱 2
推移 2
推算 2
怀有 2
周刊 2
显着 2
中国游客 2
高涨 2
芥 2
不乏 2
北大 2
应声 2
碾压 2
▁说实话 2
▁这个世界 2
保重 2
视而不见 2
▁朗 2
字母 2
并不能 2
▁她把 2
大部分是 2
冲走 2
华盛顿 2
等现象 2
和贝 2
招待 2
筹 2
是好的 2
是使 2
不迭 2
先用 2
持续了 2
晚间 2
书里 2
为何要 2
温床 2
似乎很 2
水从 2
秘书 2
▁威 2
隔膜 2
这还是 2
之举 2
一批 2
降到 2
事务 2
锭 2
冢 2
干部的 2
与日本 2
霉 2
道里 2
症的 2
这种方式 2
盘中 2
马力 2
这么长时间 2
pen 2
搭档 2
二战 2
▁也正 2
▁请记住 2
禀 2
是全 2
围攻 2
为食 2
落实 2
▁科学家 2
能量的 2
分钟的 2
都从 2
吃午餐 2
调配 2
减弱 2
童话故事 2
过敏性 2
都必须 2
混血 2
▁你怎么 2
上市 2
中方 2
运动员的 2
送你 2
哈里 2
不足以 2
会发生 2
我这里 2
▁林肯 2
阻断 2
给这个 2
引导下 2
法尔 2
整条 2
寻找到 2
快艇 2
工人的 2
透视 2
签订了 2
光头 2
远远超过 2
吐槽 2
回答是 2
苗条 2
不希望 2
▁江苏 2
赠送 2
初期 2
到来的 2
好话 2
外来 2
足够了 2
气象 2
▁国王 2
赚了 2
工程师 2
的六 2
馥 2
各具 2
庇护 2
桥面 2
峥 2
遮盖 2
的微博 2
全国的 2
屏住 2
轻描淡 2
这可能 2
人权 2
重整 2
▁随着时间的 2
淋浴 2
▁火车 2
烟气 2
面对面 2
家长们 2
上做 2
的作品 2
影视作品 2
国和 2
来控制 2
赤裸 2
隋 2
得天独 2
可能已经 2
照相机 2
关系和 2
感到高兴 2
要买 2
现代的 2
犁 2
思想是 2
年长的 2
剧情 2
的士 2
的管理 2
▁诺 2
邃 2
唐代 2
地主 2
但是我不 2
安排的 2
被骗 2
用处 2
仍没有 2
暗示着 2
几年了 2
感到自豪 2
这家 2
老汉 2
水族馆 2
埃及 2
抓了 2
的最爱 2
沈阳 2
有关系 2
中巴 2
准备和 2
也从未 2
狭小的 2
创造新的 2
水瓶 2
发展到 2
土地的 2
没有比 2
出了问题 2
菁 2
上也有 2
遗憾地 2
令人满意 2
稳固 2
绝地 2
鞅 2
▁分别 2
坐飞机 2
及其 2
子宫 2
肾脏 2
大相 2
的命令 2
机动 2
▁简单 2
三分之一 2
雄厚 2
il 2
眼保健操 2
嗝 2
作者对 2
買 2
阶层 2
颠覆 2
匡 2
为数不多的 2
提醒人们 2
ke 2
连续的 2
要问 2
比其他 2
速度和 2
意义和 2
▁牛 2
矿工 2
周折 2
承担起 2
:40 2
和破坏 2
谎 2
时间了 2
面试 2
工作室 2
适合的 2
的快速 2
▁他很 2
要花 2
都可 2
不穿 2
羞辱 2
殒 2
42 2
感恩节 2
星期二 2
化解 2
势力的 2
素描 2
两座 2
一键 2
离合器 2
诀 2
见解 2
益处 2
顶级的 2
福建 2
蛟龙 2
承担责任 2
最受欢迎的 2
技术的 2
过敏 2
之谜 2
从一开始 2
▁喝 2
拼音 2
接受的 2
重用 2
就很难 2
生病的 2
蹁跹 2
汶 2
要做什么 2
个星期 2
鹳 2
群体的 2
社会主义 2
三个星期 2
所言 2
油脂 2
流氓 2
雌 2
退休 2
中和 2
肉体的 2
十字 2
执政 2
而且在 2
聚集在一起 2
射箭 2
异于 2
▁卡 2
又为 2
药的 2
美好时光 2
水性 2
独裁 2
的规则 2
的路线 2
▁小心 2
化石 2
科学界 2
印章 2
这个想法 2
蚌 2
退出 2
的原 2
市场经济 2
要我们 2
买来的 2
经验的 2
站台 2
现有的 2
验证 2
我的错 2
退赛 2
小看 2
既能 2
变得更糟 2
归功于 2
要做的 2
格斯 2
扎实 2
一事无成 2
诞 2
昙 2
生物学家 2
▁浙江 2
排行 2
大多数是 2
▁100 2
深深吸引 2
哆哆 2
较为 2
尼尔 2
生活在一个 2
禁忌 2
逆转 2
支点 2
校区 2
更多的时间 2
纤维 2
▁如有 2
▁福 2
圣地亚哥 2
复合 2
充其量 2
调控 2
准则 2
▁医院 2
巨大的变化 2
▁50 2
对流 2
小岛 2
月和 2
的手段 2
一直保持 2
旬 2
近在咫尺 2
根源 2
频率 2
积极性 2
▁对此 2
下水道 2
值得信赖 2
交出 2
教皇 2
恢复到 2
老伴 2
为这个 2
暗恋 2
难者 2
芸 2
议员 2
不适 2
国家级 2
鼻腔 2
不决 2
两地 2
长时 2
鳍 2
见面时 2
大队长 2
奘 2
的人中 2
普通家庭 2
成语 2
很少有 2
书院 2
需要的是 2
议 2
师资 2
势力 2
他打 2
临危 2
则以 2
▁你想 2
并向 2
帖 2
打猎 2
饭碗 2
如其 2
卒 2
冒着生命危险 2
线索 2
▁几天 2
打听 2
看守 2
摄氏度 2
在六 2
年之久 2
大酒店 2
在网上 2
营救 2
中心的 2
书画 2
亚麻 2
被发现 2
雏菊 2
一大批 2
我们以 2
了一年的 2
漏油 2
巴尔 2
干预措施 2
ad 2
^ 2
这在 2
洌 2
贫民 2
的距离 2
那个女人 2
▁宇宙 2
酬 2
意识的 2
西伯利亚 2
简要 2
还不能 2
的批评 2
克星 2
饮用 2
铸 2
名气 2
的证据 2
上传 2
候鸟 2
升初 2
哈尔 2
喜出望外 2
圆柱 2
旅行者 2
尼克 2
郑州 2
现成的 2
展现了 2
这真是 2
丛生 2
下一步 2
今天开始 2
泠泠 2
回答了 2
米高的 2
经济利益 2
获奖者 2
▁他会 2
▁净 2
把车 2
什么吗 2
总分 2
性别 2
澧斓 2
蝙蝠 2
设置 2
叫作 2
号是 2
记者在 2
来自不同 2
▁他们还 2
先前的 2
认识他 2
是通过 2
九年 2
中出现 2
人都知道 2
的工具 2
懑 2
犄 2
基督教 2
每逢 2
我而言 2
振动 2
▁二人 2
场地上 2
▁不少 2
设在 2
停车 2
毕业于 2
曾被 2
决战 2
舌尖 2
明显高于 2
喜好 2
受伤害 2
上校 2
▁学生 2
成百 2
德市 2
自流 2
无条件 2
表现在 2
狞 2
烹调 2
胤 2
随之而来 2
严惩 2
杯子里 2
看到她的 2
抒情 2
鄱 2
赦 2
重任 2
而散 2
参与进来 2
坐拥 2
职的 2
美元 2
到场 2
我们之间的 2
来说是一个 2
上加 2
聚焦 2
▁由于没有 2
容量 2
喊叫 2
▁3、 2
销毁 2
薯 2
叫什么 2
山体 2
中找到 2
新星 2
为生 2
轻薄 2
奏曲 2
▁采 2
的半 2
成为朋友 2
锹 2
沭婼 2
吸附 2
现任 2
但可以 2
钶 2
作假 2
日报 2
是多少 2
壹 2
暴涨 2
第二次世界大战 2
岁的女孩 2
嘞 2
能引起 2
外观 2
各家 2
手续 2
继续工作 2
的学校 2
困难重重 2
颈椎 2
胶 2
法语 2
各类 2
走秀 2
尝试过 2
爬树 2
发生了变化 2
年获得 2
BO 2
纵容 2
的净 2
的保证 2
蛳 2
信守 2
姆林 2
▁二是 2
中找到了 2
员在 2
错过的 2
珍品 2
什么问题 2
▁东北 2
成为中国 2
诅咒 2
你的身体 2
河床 2
高利 2
犯人 2
优待 2
能获得 2
热门 2
疏远 2
位居 2
合身 2
作案 2
扭转 2
龙江 2
象是 2
逶迤 2
穿了 2
自豪地说 2
戛 2
老乡 2
黑猩猩 2
掸 2
联盟 2
研究成果 2
结果如何 2
被送到 2
血型 2
签订 2
爱他 2
孕 2
!! 2
但是我的 2
被动的 2
▁南方 2
中转 2
北京大学 2
銮 2
的出口 2
波尔 2
得名 2
要求在 2
他们为 2
▁新年 2
费用 2
娉 2
资源的 2
品种 2
踉跄 2
臭气 2
关注着 2
犯下的 2
指望 2
火如 2
素有 2
的道德 2
篇小说 2
被一个 2
恢 2
商场里 2
脾气暴躁 2
更严重 2
覆盖了 2
沿街 2
因为这个 2
:3 2
消费 2
已经变得 2
科研 2
每一项 2
鲫 2
心脏病 2
不能被 2
孱 2
寤 2
导演 2
桉 2
涔偲 2
通过了 2
住户 2
幸福感 2
签了 2
玛格丽特 2
螺旋桨 2
不要忘记 2
分割 2
遒 2
黯 2
能动 2
中获得 2
的猫 2
案例 2
乌兰 2
在促进 2
臀部 2
衍生 2
意图 2
探寻 2
内战 2
人口的 2
巩 2
教育和 2
步枪 2
但因 2
宣布了 2
幸存者 2
请假 2
培根 2
达芬奇 2
收听 2
韭菜 2
正式的 2
小赵 2
粮 2
的表达 2
那样的话 2
触觉 2
随着时间的推移 2
就有一个 2
的主要内容 2
人们认为 2
▁他对 2
敲门声 2
管理的 2
澳大利亚 2
适时 2
崀 2
象牙 2
顺应 2
蜂拥 2
加倍努力 2
来判断 2
什么也 2
▁如果有 2
绎 2
▁空中 2
骑上 2
八十年代 2
充满活力的 2
偿还 2
凝聚力 2
侬 2
寻求帮助 2
取下 2
资费 2
阿克 2
▁现场 2
生活条件 2
采纳 2
▁但是我们 2
突显 2
摄影师 2
不适合 2
要求对 2
中期 2
受困 2
中枪 2
诬 2
冷凝 2
领导人 2
弛 2
叙述了 2
但我认为 2
一味 2
摄影 2
掉头 2
再次出现 2
客户 2
的钥匙 2
注意到了 2
表现不佳 2
突发 2
笈 2
的大型 2
就像我 2
美国的 2
盖茨 2
那个地方 2
个月的 2
海外 2
▁举 2
十天 2
完全被 2
播出 2
也很难 2
是美国 2
丰厚的 2
被砸 2
互换 2
等其他 2
规定 2
着力 2
去实现 2
求证 2
魔力 2
航天 2
您将 2
过道 2
烹 2
这种说法 2
吸烟 2
直到今天 2
真的很好 2
穿戴 2
则是在 2
,18 2
选择的 2
对偶 2
村民们 2
应在 2
黑客 2
那么容易 2
下沉 2
稽 2
给我打电话 2
存折 2
住她 2
起动 2
的手机 2
从水中 2
▁它们的 2
被称作 2
竞争力 2
▁拿 2
的事故 2
输掉了比赛 2
交通工具 2
也未 2
直升机 2
面临的 2
马戏团 2
日常生活 2
霾 2
和丰富的 2
不宜 2
的一场 2
一起分享 2
建了 2
赤脚 2
▁你知道吗 2
链子 2
克制 2
▁志 2
为何如此 2
阿尔 2
琊 2
打人 2
那些在 2
隐藏在 2
了整 2
他们将 2
叶绿 2
另外一个 2
▁保 2
妓 2
何以 2
▁社会 2
液晶 2
这个东西 2
而他的 2
▁知 2
仍然可以 2
个项目 2
掠夺 2
闸门 2
音器 2
粼 2
立场 2
颧 2
高呼 2
偿 2
电动 2
名著 2
寄予 2
▁王明 2
旻 2
好客 2
尽心 2
和他们的 2
罪过 2
偏离 2
元帅 2
活儿 2
㬇 2
或用 2
极光 2
文化和 2
繁重 2
求婚 2
量子 2
国内外 2
名和 2
但是这 2
听众 2
克隆人 2
译 2
普鲁 2
一些事情 2
是中国的 2
针刺 2
坟墓 2
能从 2
宽度 2
▁我应该 2
▁吸 2
集聚 2
生日礼物 2
食材 2
交友 2
当时就 2
适宜 2
恋情 2
任何的 2
壬 2
反映了 2
空着 2
床单 2
恕 2
汰 2
将更加 2
嘈 2
改动 2
花旗 2
的加 2
美中 2
▁巨大的 2
沪 2
教师的 2
因此我们 2
换成了 2
的最好的 2
的第一步 2
暅 2
装满 2
紧随 2
第八 2
吹风 2
纪录 2
第四次 2
用血 2
遥控 2
浩特 2
母亲在 2
电路 2
应从 2
多说 2
菡萏 2
大陆的 2
改编 2
行进 2
肢体 2
33 2
更进一步 2
曼的 2
旅行中 2
更健康 2
我的新 2
而对 2
婺 2
用时 2
阅览 2
投降 2
艺人 2
罅 2
他的话 2
看到许多 2
愿与 2
▁所谓的 2
祭司 2
出面 2
审阅 2
无味 2
调动 2
▁关键 2
加强了 2
退去 2
文革 2
ain 2
参赛者 2
嵘 2
和黄 2
骐 2
通电话 2
书时 2
▁昨日 2
民众 2
发脾气 2
清楚地记得 2
训练有 2
失常 2
随心所欲 2
敌意 2
知道这些 2
五角 2
殉 2
可靠的 2
数据 2
▁通常 2
底蕴 2
黑烟 2
共和国的 2
这是最 2
肯定不会 2
倒退 2
威海 2
D 2
菇 2
▁在小 2
獠 2
没人知道 2
解释的 2
恶化 2
华的 2
拯 2
太平洋 2
(10 2
大胜 2
和时间 2
实话 2
话剧 2
和长 2
骊 2
探求 2
银行 2
后说 2
盗版 2
碰上 2
接壤 2
鲁莽 2
茄子 2
财物 2
车尾 2
就是一种 2
会有什么 2
预示 2
疲惫不堪 2
武林 2
蕴藏 2
残杀 2
科学家们 2
镇的 2
然后他 2
捐赠 2
十岁 2
科举 2
电脑游戏 2
实现自己的 2
▁咱们 2
广播电台 2
物质的 2
侵略 2
校园内 2
奖赏 2
茌 2
出不 2
▁新疆 2
保管 2
▁the 2
这支 2
拉出 2
搔 2
请记住 2
疾驰 2
福利 2
百叶 2
全地 2
故障 2
钱财 2
所有东西 2
不安全 2
结成 2
分子的 2
白云山 2
下一届 2
▁因为在 2
理事长 2
▁相比 2
阀门 2
填写 2
回避 2
预报 2
算不算 2
风湿 2
四处寻找 2
▁梁 2
转换 2
韧性 2
餐巾 2
敬意 2
使其 2
巩固 2
评为 2
延伸到 2
雨雪 2
79 2
谷底 2
▁智能 2
的财富 2
查理 2
累积 2
洞中 2
是推动 2
第四节 2
岛的 2
商店里 2
驾驶 2
▁由此可见 2
ann 2
以至 2
各种不同的 2
发现有 2
▁第四章 2
没有足够的 2
萋萋 2
的人与 2
我之前 2
既没有 2
投注 2
年他 2
半年 2
过境 2
接送 2
盐湖 2
盒子里 2
分歧 2
缘于 2
崩溃了 2
后台 2
奇迹般 2
场比赛中 2
他是谁 2
的地步 2
版本 2
哪种 2
次了 2
偃 2
自传 2
是基于 2
飞碟 2
一如既往地 2
保洁 2
我刚才 2
砧 2
的许多 2
▁选 2
盾牌 2
魔杖 2
名校 2
忧患 2
▁若是 2
你可以在 2
社的 2
每条 2
太子 2
园的 2
普遍 2
微软 2
重振 2
公理 2
要将 2
的重新 2
这与 2
逾越 2
F 2
公益 2
提防 2
生平 2
的演出 2
运费 2
祠 2
吻合 2
她知道 2
▁嘿 2
买过 2
的现代 2
鞋带 2
和海 2
刨 2
挖出 2
注射 2
種 2
安徽省 2
私人 2
▁今天晚上 2
成型 2
降雨 2
▁热 2
供电 2
重要的作用 2
被污染 2
管理者 2
㗳 2
不确定 2
世界上最好的 2
车道 2
:《 2
更多人 2
盹 2
展览 2
平息 2
北方的 2
都会在 2
井井有条 2
的面纱 2
障 2
为本 2
已为 2
辩解 2
筑巢 2
十余 2
节目的 2
的高温 2
名将 2
猜猜 2
麻将 2
逼真 2
▁哪些 2
脍 2
海景 2
足球运动员 2
特别是在 2
伦敦的 2
3. 2
多层 2
诘 2
都是用 2
诃 2
圆环 2
明目 2
在寻找 2
伸手去 2
才能获得 2
表演了 2
丰盛的 2
是因为它们 2
标志性的 2
省下 2
时钟 2
我能够 2
▁山西 2
出口的 2
赶赴 2
▁2000 2
熠 2
我们所 2
都由 2
而下的 2
出售 2
▁令人 2
娆 2
者为 2
的第三 2
幽默感 2
直达 2
但被 2
仅限于 2
▁最好 2
▁我们正 2
上大 2
课堂教学 2
的中场 2
圈子 2
的计划 2
四千 2
简介 2
绑在 2
▁程 2
美洲 2
角度看 2
很棒的 2
复原 2
学历 2
臀 2
回来时 2
艺术的 2
威尔 2
难掩 2
结婚了 2
苦味 2
2006 2
一系列 2
一个女人 2
霏霏 2
突飞猛进 2
一些的 2
房屋的 2
梳妆台 2
功利 2
伙子 2
隍 2
风景名胜 2
▁广西 2
▁强 2
赖以 2
年和 2
禽 2
鹗 2
城门 2
只有两个 2
到这个 2
有所作为 2
面粉 2
蚂 2
舞蹈演员 2
当事 2
导致的 2
金矿 2
和华 2
危险性 2
东西的 2
传入 2
引入 2
造就了 2
一带 2
在金 2
纬 2
自来水 2
钴 2
星和 2
是否可以 2
依托 2
联系方式 2
两个孩子 2
上将 2
和亚 2
他们应该 2
顶级 2
演说 2
理石 2
在三 2
啧 2
致富 2
锚 2
突变 2
吃早餐 2
纸和 2
刀片 2
迅猛 2
意识地 2
就可能 2
发酵 2
项目中 2
尧 2
主张 2
褔 2
玩家 2
▁战争 2
部和 2
打出了 2
▁教练 2
挨个 2
▁我们所 2
通车 2
一样重要 2
的状况 2
▁每天晚上 2
语音 2
或多或 2
进一步 2
我们吃 2
屌 2
蜗 2
磨削 2
冷却 2
瑕 2
鲲 2
畅通 2
走高 2
世界和平 2
选美 2
新意 2
办事 2
斑马 2
不影响 2
小觑 2
鹄 2
阙 2
传单 2
地盘 2
上轮 2
光束 2
受过 2
而您 2
光灯 2
在上海 2
遛 2
局的 2
▁现 2
西洋 2
▁汪 2
浓重的 2
国防 2
▁他们以 2
和动物 2
▁一辆 2
已经变成 2
噪音 2
出租车 2
踽踽 2
小型 2
节点 2
巴赫 2
以保持 2
中学习 2
▁绿色 2
这种现象 2
看起来是 2
而将 2
全国各地 2
念珠 2
而以 2
送行 2
珠江 2
小部分 2
是中 2
幸亏 2
桌面 2
契约 2
仅此而已 2
玟 2
双语 2
支部 2
▁其它 2
▁... 2
电缆 2
缩短 2
代的 2
▁曹 2
杂物 2
较多 2
一直延伸到 2
可疑 2
▁再者 2
这架 2
还不忘 2
听力 2
赎罪 2
▁这说明 2
里和 2
冲浪 2
刷了 2
▁T 2
和声 2
层中 2
的评论 2
石膏 2
素质的 2
酒鬼 2
参议员 1
下对 1
目的是为了 1
出舱 1
建在 1
丿 1
参照 1
一生都在 1
络绎 1
鉴定的 1
他妈的 1
金砖 1
:1、 1
al 1
破坏的 1
学生的学习 1
收到的 1
的权力 1
很高兴见到你 1
控制力 1
成年人的 1
度高 1
以北 1
9, 1
▁吉林 1
我们就能 1
官司 1
回收 1
探索和 1
年以前 1
暴露在 1
Z 1
减缓 1
理论上 1
▁26 1
毫米的 1
案例中 1
▁论 1
深得 1
不真实 1
老兄 1
惋 1
两年后 1
收货 1
无功 1
名片 1
介于 1
和弦 1
▁申 1
辐射 1
中区 1
日本首相 1
▁数十 1
肯定有 1
偈 1
濛濛 1
将继续 1
夺回 1
易燃 1
评述 1
154 1
], 1
所做 1
他们被 1
他们到 1
天主教 1
三面 1
的核心 1
所在地 1
末的 1
转化为 1
未被 1
的实施 1
试了 1
尔和 1
刽 1
贵阳 1
为零 1
道而 1
▁她是一个 1
的亚 1
单独的 1
韦 1
因子 1
孺 1
布拉 1
就完全 1
浅色 1
它们可以 1
威尼斯 1
我的照片 1
▁运用 1
灌木 1
市民的 1
倾力 1
▁有人认为 1
搞怪 1
螺旋 1
已经死亡 1
浆果 1
劬 1
全美 1
范畴 1
成这样 1
泰坦 1
兴起 1
潍坊 1
中小学生 1
剐 1
枚举 1
on 1
火车票 1
涉水 1
已经证明 1
笔钱 1
境遇 1
长官 1
年以后 1
▁我仍然 1
能力的 1
新房子 1
全队 1
惊悚 1
你需要 1
| 1
卡卡 1
可笑的 1
蛊 1
占据了 1
將 1
纭 1
再次回到 1
森林资源 1
数万 1
小车 1
限于 1
安全网 1
发生地 1
烤箱 1
▁侯 1
帏 1
哐 1
震慑 1
头大汗 1
现在在 1
信誉 1
每一分钟 1
车程 1
从学校 1
不过气 1
直呼 1
的政治 1
山体滑坡 1
▁历史上 1
寿司 1
iphone 1
处女 1
在这种情况下 1
好手 1
充填 1
也与 1
两个小时的 1
工作机会 1
她的名字 1
压力的 1
香料 1
某个地方 1
病症 1
创造者 1
▁谢谢你 1
置信 1
声称 1
哥伦布 1
園 1
成为一种 1
者和 1
言而 1
没有得到 1
品酒 1
继续在 1
将会在 1
和平解决 1
共产党员 1
快捷 1
按摩 1
海南省 1
罗宾 1
展馆 1
拉上 1
紧缩 1
马西 1
▁按 1
归咎于 1
微不足 1
化妆品 1
是向 1
▁默认 1
一代的 1
河口 1
在接下来的 1
继续使用 1
计划的 1
篡改 1
采访了 1
漫不经心地 1
缯 1
3。 1
千岛 1
修补 1
扔进 1
医院治疗 1
31 1
中级 1
汉族 1
食谱 1
了一定 1
被抢 1
旁白 1
力学 1
被判 1
直接从 1
阕阕 1
我们选择 1
对一些 1
睥睨 1
猜疑 1
罪行 1
▁这是因为 1
抽筋 1
拍下了 1
▁欢迎 1
发到 1
前景 1
和外国 1
一对一 1
否决 1
秉 1
爬坡 1
大厅里 1
罗纳 1
并不太 1
之前就 1
未有 1
登陆 1
有史以来最 1
到北京 1
雪峰 1
引起了很多 1
恤衫 1
追捧 1
糍 1
肉食 1
唸 1
摧毁了 1
发电 1
遏 1
伺 1
IV 1
年代的 1
小鼠 1
是完美的 1
机车 1
均是 1
语言和 1
任何一种 1
万圣节 1
征服者 1
和超 1
坛的 1
全车 1
we 1
员工的 1
决定是否 1
桀 1
森林火灾 1
上风 1
屠宰 1
▁团队 1
实惠 1
正在对 1
央视 1
烟囱 1
獾 1
集的 1
途径 1
▁疾病 1
ul 1
太郎 1
吉斯 1
哓 1
可以通过 1
回落 1
▁你可以 1
违抗 1
百度 1
平方米 1
的太空 1
安全隐患 1
▁本次 1
蛔 1
寄宿 1
秽 1
450 1
表决 1
37. 1
侄子 1
吃上 1
权的 1
贩 1
和自然 1
推动下 1
成交 1
越强 1
Juli 1
▁郝 1
战前 1
转让 1
把它放在 1
爆发的 1
这将是 1
和大学 1
急性 1
并存 1
为奇 1
晋三 1
走私 1
成为他的 1
全村 1
▁罗杰 1
船体 1
出院 1
潜在的 1
:// 1
哧哧 1
负面影响 1
▁迈 1
像的 1
将分别 1
程度地 1
个多月 1
那个家伙 1
▁也可以 1
假象 1
所思 1
的演讲 1
如何与 1
闰 1
更会 1
德育 1
啁啁 1
和残 1
恒温 1
山脊 1
另有 1
摘得 1
lan 1
传统节日 1
如何解决 1
妪 1
的好处 1
往往会 1
谜团 1
10000 1
的企业 1
宁县 1
性与 1
发展成为 1
艾米 1
▁布莱 1
死皮 1
后又 1
异性 1
科技创新 1
犭 1
他不能 1
业绩 1
枞 1
或多或少 1
▁我的朋友 1
珉 1
每张 1
新生儿 1
使它们 1
的年轻 1
很严重 1
之高 1
睑 1
卖萌 1
下文 1
并不完全 1
▁接受 1
MD 1
年内 1
才有可能 1
宽裕 1
▁先生 1
▁32 1
学生学习 1
小数 1
调和 1
和被 1
常被 1
的角度来看 1
取名 1
积极响应 1
的实现 1
极有 1
行为和 1
攫 1
▁在他们的 1
▁撒 1
占领了 1
艘船 1
到位 1
完全没有 1
出逃 1
▁其次是 1
民居 1
每种 1
角膜 1
无法忍受 1
这项工作 1
奢侈品 1
1984 1
韬 1
废水 1
▁但是为了 1
的事实是 1
一级的 1
发短信 1
实质 1
1970 1
的粗 1
意识到了 1
伸出援手 1
回信 1
▁达 1
她的丈夫 1
场内 1
的一周 1
萩 1
富于 1
狂热的 1
马甲 1
佳丽 1
煎饼 1
原子 1
诙 1
编排 1
ok 1
改观 1
㘗 1
总结出 1
八千 1
赎 1
两成 1
迄 1
是错误的 1
这一事实 1
延长了 1
疗养 1
有需要 1
港市 1
借款 1
gle 1
之死 1
有权 1
宝宝的 1
袊 1
劈腿 1
会引起 1
以色列 1
ic 1
▁加上 1
十八大 1
使中国 1
米处 1
凼 1
在进入 1
不明显 1
了一家 1
时用 1
怀柔 1
缔造 1
eb 1
我国经济 1
憧 1
但只有 1
一次性 1
信服 1
▁森 1
两口 1
科学技术 1
▁1、 1
传递到 1
酷刑 1
▁语言 1
农舍 1
▁依靠 1
锨 1
万余 1
狙击 1
证明书 1
恪守 1
文稿 1
猕猴 1
肇 1
幸的 1
展出的 1
布丁 1
一些问题 1
二十五 1
盛况 1
超负荷 1
水平低 1
硚 1
电瓶 1
是国际 1
或被 1
最差 1
来说明 1
事实和 1
▁东方 1
选择在 1
建国 1
附有 1
咻 1
肌肉的 1
▁帕 1
也有不少 1
他的母亲 1
和生物 1
口吃 1
99% 1
明清 1
分之 1
貂 1
这一决定 1
和下 1
毋 1
▁脱 1
玺 1
鲜美 1
大气层 1
辍学 1
在非 1
急需 1
充分体现了 1
建的 1
将不再 1
疗养院 1
号决议 1
的看法 1
情况如何 1
牛仔 1
将中国 1
蝎 1
相距 1
耳环 1
两种不同 1
反之 1
▁他正在 1
的网友 1
多张 1
安全的地方 1
的商业 1
岛上的 1
ed 1
123 1
军事力量 1
和愤怒 1
球场 1
大兴 1
人们生活 1
义的 1
另一端 1
成熟和 1
男女平等 1
被送往 1
曝 1
脉络 1
金刚石 1
成长过程中 1
▁几天前 1
one 1
女皇 1
远见 1
已全部 1
祗 1
▁如果要 1
所没有 1
较大的 1
欢迎你 1
CS 1
者来说 1
船队 1
:1. 1
▁发生 1
与挑战 1
给他的 1
消费者 1
之后再 1
下载 1
开始对 1
为核心 1
和令人 1
刺激性 1
工业化 1
撞上了 1
解决不了 1
▁从这些 1
不得以 1
喷发 1
▁采取 1
为重点 1
▁中国是 1
称他为 1
南斯拉夫 1
肋骨 1
一辆汽车 1
屈膝 1
资讯 1
船舶 1
▁得到了 1
内外 1
礼貌地 1
更改 1
孤儿院 1
乐福 1
▁零 1
支配 1
笔录 1
,200 1
遵从 1
真实性 1
业余 1
感觉就像 1
染色体的 1
终止 1
▁你以为 1
来势 1
在非洲 1
已完成 1
珊瑚礁 1
理应 1
打响 1
木质 1
▁泛 1
找出了 1
越小 1
抵消 1
揖 1
改革与 1
卖掉 1
学位 1
的张 1
分以上 1
人选 1
汉堡 1
家电 1
保守 1
绝佳 1
http 1
浕 1
米色 1
▁我们很高兴 1
▁但当 1
昸 1
在世界范围内 1
代人的 1
领到 1
吖 1
帔 1
作为一种 1
▁我们将在 1
去的地方 1
很多人的 1
是历史 1
▁不得 1
len 1
点名 1
邮递员 1
上为 1
日内瓦 1
科幻小说 1
炎症 1
▁qu 1
臊 1
潜水员 1
方程式 1
蹩 1
多点 1
230 1
的各 1
产生一个 1
糕点 1
机械化 1
彰显 1
垓 1
在纽约 1
晶体 1
保护和 1
细则 1
现象的 1
形似 1
的啤酒 1
在微博上 1
剑客 1
些年 1
较好 1
痤疮 1
从早上 1
是非常重要的 1
在大陆 1
纪录片 1
敏锐的 1
揽 1
学士 1
七号 1
西安市 1
▁他们没有 1
达的 1
my 1
各方面的 1
先例 1
毋庸置疑 1
⁄ 1
这个结果 1
的女士 1
二十分钟 1
但他们的 1
▁更重要的是 1
单向 1
效仿 1
均有 1
和双 1
唱片 1
宁波 1
份额 1
TF 1
收缩 1
商品房 1
哝 1
号称 1
便宜的 1
和经验 1
短篇小说 1
大喊大叫 1
纳粹 1
美容 1
戏曲 1
令人难以置信 1
素养 1
不同程度的 1
作出贡献 1
悬念 1
拍戏 1
▁但随着 1
渲 1
诸如此 1
。' 1
得益于 1
斯卡 1
的右 1
清空 1
▁抗 1
的意愿 1
能满足 1
▁唯一 1
理解为什么 1
对中国 1
▁客观 1
洄 1
越来越多的人 1
▁本书 1
▁排 1
对立 1
▁城市 1
如果在 1
终端 1
2015 1
的简单 1
见过的最 1
惰 1
这个问题的 1
lip 1
验证了 1
▁一直以来 1
卖给 1
棸 1
曾与 1
任职 1
一些新的 1
道口 1
志愿者的 1
肩负着 1
IS 1
㶽 1
温文 1
意为 1
改成 1
▁对不起 1
诏 1
大队 1
痹 1
女人在 1
地雷 1
逻 1
都曾 1
参谋 1
果冻 1
2》 1
▁不管怎样 1
惠州 1
冻结 1
婢 1
食品安全 1
中所有 1
▁老板 1
西域 1
▁这是一种 1
冥想 1
▁服务员 1
加强对 1
在附近 1
透析 1
限量 1
时一样 1
把刀 1
徐州 1
响应 1
杀了你 1
有意义的 1
▁形成 1
章程 1
和孩子 1
露天 1
房主 1
武汉市 1
在考虑 1
和方法 1
三项 1
去世后 1
基因 1
甭 1
巣 1
噎 1
试图在 1
瑞士 1
蟠 1
下一轮 1
开窗 1
可从 1
对所 1
剂的 1
发达国家 1
更少 1
商的 1
▁即使在 1
2000 1
乾隆 1
拧紧 1
维纳斯 1
喜欢这个 1
在四 1
真实地 1
唿 1
残障 1
病菌 1
已经准备好 1
年轻女子 1
清华大学 1
孑孑 1
做到这一点 1
店主 1
与实践 1
食人 1
泌 1
na 1
湖区 1
废气 1
特斯 1
澳大 1
和您的 1
他必须 1
穿衣 1
将手 1
的底部 1
必需 1
约束的 1
▁但是在 1
▁全世界 1
退回 1
去钓鱼 1
夫特 1
托尔 1
嫔 1
▁孔 1
抢断 1
受到的 1
特勒 1
给一个 1
护送 1
的火车 1
在电视上 1
完美地 1
负责的态度 1
乘飞机 1
剧的 1
收音 1
仅次于 1
人已 1
▁本品 1
见于 1
标价 1
叽哩 1
肉毒杆菌 1
铂 1
清真 1
吨的 1
以使 1
预想 1
有益于 1
我对此 1
嗷嗷 1
是陈 1
颌 1
向社会 1
为代表 1
就读 1
后裔 1
感到恐惧 1
已经成为了 1
连线 1
以前从未 1
3600 1
炮弹 1
入党 1
禁烟 1
嗵嗵 1
逐渐成为 1
在杭州 1
合影 1
前门 1
阶层的 1
有较 1
与合作 1
归属于 1
广泛的 1
已成为一种 1
▁政治 1
迷路 1
丗 1
粽子的 1
所大学 1
联合起来 1
媳 1
预约 1
上尉 1
嗲 1
蝼 1
在一段 1
艺术学院 1
▁下期 1
维特 1
分解 1
格拉斯 1
代表性的 1
花色 1
展出 1
牵扯 1
届奥运会 1
自编 1
人们开始 1
男性 1
▁跟随 1
保持冷静 1
和妻子 1
修正 1
这个女人 1
芙 1
恶臭 1
可以进行 1
和前 1
居住在 1
我可能会 1
不太清楚 1
网民 1
释放出 1
网络中 1
镇上 1
▁他为 1
指挥部 1
的球员 1
琎 1
在广州 1
▁— 1
猝 1
把戏 1
趋向于 1
引以为 1
诸如 1
加速器 1
人们会 1
被完全 1
世界上最大的 1
人体的 1
和开 1
▁哈尔 1
就职 1
应邀 1
尸检 1
ime 1
油炸 1
签名 1
最优 1
紧密相连 1
濒危 1
卡上 1
的理念 1
绝缘 1
被困在 1
的人会 1
向好 1
▁正是在 1
磁带 1
工业 1
古建筑 1
比例 1
志愿服务 1
自我牺牲 1
关注的焦点 1
圣诞老人 1
被害 1
有一定 1
丹妮 1
并告诉 1
治理 1
赣 1
方舟 1
混合着 1
中会 1
条件的 1
囵 1
看管 1
▁原因是 1
严格执行 1
质性 1
▁这使得 1
将会被 1
过重 1
电影中 1
▁在这种情况下 1
台中 1
罚款 1
沔 1
实事 1
他们自己 1
王志 1
▁天文学家 1
继续说 1
▁这个人 1
独立的 1
表示祝贺 1
整容 1
才能够 1
为由 1
录音机 1
志明 1
算法 1
噶 1
针灸 1
女高音 1
镇压 1
有经验 1
酋长 1
▁冯 1
国家森林 1
许多地方 1
而定 1
舱门 1
口香糖 1
农场 1
熔岩 1
領 1
仍然需要 1
空气污染 1
或更多 1
猛禽 1
公斤 1
天气预报 1
彝 1
划分 1
▁黑龙江 1
性能 1
劳斯莱斯 1
知之 1
围困 1
所有事情 1
信息素 1
▁在接下来的 1
内有 1
4.0 1
会改变 1
本届 1
的年龄 1
声明 1
局限于 1
接待 1
恿 1
人因 1
强权 1
保持在 1
尽可能地 1
机构和 1
2300 1
开除 1
估计是 1
实实在在 1
甲状 1
如何将 1
▁有什么 1
代理 1
溃 1
换新 1
新品 1
搁置 1
安倍 1
▁微波 1
短片 1
▁环 1
▁主席 1
申科 1
熔 1
▁太空 1
配色 1
渐变 1
税收 1
恫 1
暴发 1
东芝 1
te 1
家庭作业 1
出事 1
卡斯 1
雇主 1
一事 1
招致 1
凯特 1
疑犯 1
购 1
八一 1
学费 1
歹徒 1
数倍 1
热带雨林 1
婚庆 1
运河 1
出席 1
我们就会 1
▁泽 1
冠冕 1
被毁 1
比较容易 1
亿万 1
境内 1
建平 1
莫尔 1
狗一样 1
之间相互 1
有更好的 1
▁这与 1
球手 1
可口可乐 1
▁还有一个 1
▁P 1
确定了 1
份工作 1
新增 1
▁实现 1
民生 1
怄 1
冰川 1
纠 1
调换 1
之初 1
的进步 1
其他任何 1
薯条 1
▁这是我国 1
中共 1
骅 1
樂 1
畅销 1
多出 1
失真 1
吸引到 1
凪 1
猎犬 1
中的一种 1
肝炎 1
疪 1
▁这为 1
▁几乎所有 1
城管 1
▁定 1
很有用 1
更愿意 1
▁中国人民 1
严重受损 1
核酸 1
选为 1
字幕 1
战略 1
仰慕 1
积极参与 1
车载 1
健康发展 1
臻 1
发来 1
准备就绪 1
脱水 1
ce 1
都处于 1
佩罗 1
棘手 1
愔樰 1
有一支 1
条文 1
1% 1
上岗 1
不敌 1
樵 1
结束的 1
古董 1
栌 1
最常见 1
农民工 1
列宁 1
反叛 1
强劲的 1
伊始 1
辞退 1
生活质量 1
MVP 1
被淘汰 1
▁杰 1
将一个 1
确实有 1
的领导人 1
老旧 1
人身 1
和石 1
切身 1
承认自己的 1
▁强烈的 1
舷 1
对其 1
轴线 1
从北 1
生产能力 1
缦嗤 1
裳裳 1
不断更新 1
拥有更大的 1
倍受 1
粒度 1
串联 1
邮件 1
承包 1
趋势 1
照明的 1
创作的 1
参阅 1
引进了 1
▁财 1
▁发展 1
有待 1
江区 1
47 1
法律的 1
其内部 1
徵 1
查找 1
将进入 1
N 1
▁合作 1
文说 1
屡次 1
的对比 1
的高考 1
的粉丝 1
传染 1
圣火 1
的商品 1
周一 1
版面 1
诺伊 1
历史学家 1
不吸烟 1
的小型 1
好转 1
璨 1
万亿 1
产物 1
了各种 1
两国的 1
1300 1
用一种 1
所作所为 1
▁但如果 1
剥离 1
已经使 1
的愤怒 1
蓊蓊 1
家用 1
因伤 1
201 1
驱车 1
总和 1
可以对 1
苏打 1
聂 1
CF 1
当回事 1
氮 1
较高 1
▁湿 1
行使 1
大户 1
河流的 1
▁这是在 1
要使 1
定时 1
老布什 1
而战 1
文物的 1
蚩 1
师德 1
情结 1
列车的 1
长虹 1
交界处 1
不再需要 1
则要 1
喷洒 1
流经 1
地貌 1
给她的 1
旿 1
却很少 1
钢板 1
极端的 1
借机 1
拉丁 1
145 1
之海 1
侵权 1
网络的 1
的工作人员 1
羊的 1
多样 1
今早 1
▁譬如 1
杂乱无章 1
以及向 1
细致的 1
进一步的 1
给力 1
这种变化 1
全能 1
媪 1
牙刷 1
醺醺 1
光学 1
条件是 1
两份 1
短文 1
易斯 1
打电话给 1
▁当你在 1
产阶级 1
和生活 1
铜矿 1
必须为 1
v 1
博物 1
安盟 1
塘江 1
高层 1
基金 1
公务员 1
打造一个 1
真的会 1
更是一个 1
▁K 1
每况愈下 1
比较小 1
控制的 1
▁改变 1
孔卡 1
市面上 1
寻常的 1
侧向 1
棒球 1
移居 1
创下 1
立方 1
短时间 1
蚍蜉 1
移到了 1
正在紧张 1
仅用 1
具有良好的 1
法案的 1
打盹 1
▁会议 1
活血 1
马特 1
手柄 1
世界经济 1
皮和 1
会继续 1
一户 1
盘点 1
狂喜 1
三组 1
时间和精力 1
歧 1
解析 1
生成 1
讯息 1
在经历了 1
鼻涕 1
明显地 1
已经向 1
反应的 1
开火 1
铀 1
莫斯科 1
抑或是 1
另一些 1
恰当的 1
总是以 1
裕 1
▁造成 1
ree 1
箩 1
娲 1
他们有 1
技术中 1
圣灵 1
▁美国总统 1
矿物 1
野餐 1
美国国会 1
国际机场 1
可以向 1
农村的 1
撒上 1
:19 1
水力 1
▁建 1
受到伤害 1
承接 1
私底下 1
反映出 1
说他们 1
军士 1
涵义 1
的双重 1
对这种 1
储藏 1
经济政策 1
棱镜 1
的前进 1
季的 1
采取措施 1
这些事情 1
相反的 1
即将在 1
诊断出 1
车是 1
立体 1
的焦点 1
协作 1
旁听 1
是否需要 1
测温 1
是否已经 1
大蒜 1
回答这个问题 1
升级为 1
制于 1
发行 1
漁 1
中来 1
上当 1
和各 1
并使 1
ub 1
先驱 1
世界各地 1
一谈 1
这张照片 1
艺术和 1
之机 1
标的 1
功能的 1
增长了 1
的早期 1
言而喻 1
的海滩 1
入户 1
时没有 1
酊 1
▁犯罪 1
已经存在 1
汙 1
绿茶 1
欤 1
牲口 1
接管 1
家有 1
吉祥物 1
落后于 1
▁宜 1
横向 1
各种各 1
那您 1
赠与 1
耶稣 1
oy 1
可以直接 1
▁当日 1
▁导致 1
▁独立 1
ose 1
每年都会 1
没问题 1
未平 1
他们只是 1
接见 1
情有独钟 1
潜规则 1
攮攮 1
体积 1
▁虽然是 1
愈演愈烈 1
尔德 1
泸 1
楼层 1
低了 1
该剧 1
▁比方说 1
仅靠 1
分布于 1
▁on 1
质检 1
▁孩子的 1
变身 1
不完全 1
是最早 1
看护 1
预计在 1
白内障 1
。“ 1
来加强 1
学年 1
黑社会 1
87 1
绿色和 1
▁好在 1
农历 1
V 1
很多种 1
宕 1
名思 1
来越 1
感到无聊 1
前任 1
接应 1
报告说 1
能力的培养 1
的一所 1
可以利用 1
编纂 1
1200 1
医疗 1
基于 1
逃离现场 1
有加 1
私家 1
得到满足 1
在许多 1
戕 1
一个男人 1
uy 1
会计 1
提醒大家 1
抽象 1
冷饮 1
▁2018 1
打造出 1
展会 1
但并没有 1
麒 1
嗒嗒嗒 1
港澳 1
热烈欢迎 1
形成鲜明对比 1
影响力 1
标注 1
沟渠 1
▁这两个 1
轻描淡写 1
令人震惊 1
我试图 1
授予 1
题材 1
為 1
嗒嗒嗒嗒嗒嗒嗒嗒 1
的主体 1
调整后 1
轶 1
不得在 1
7. 1
叽叽喳 1
层面 1
黔 1
攻势 1
荷马 1
因果 1
母牛 1
后将 1
典当 1
缴纳 1
当务之急 1
纳森 1
弊端 1
的开发 1
近来 1
密切配合 1
嫰 1
很遗憾 1
翻新 1
胚 1
未发现 1
is 1
云计算 1
而如今 1
东盟 1
窍门 1
▁其间 1
病毒的 1
专注于 1
少量 1
想买 1
辞职 1
(3 1
委托人 1
老兵 1
为观 1
的热带 1
世纪初 1
瘟 1
保质期 1
叵 1
场和 1
大部分时间 1
下周 1
债 1
助于 1
乳液 1
也属于 1
释放了 1
鉴于 1
街区 1
殴打 1
▁她对 1
等活动 1
思议 1
唁唁 1
▁布 1
一两次 1
请给我 1
好过 1
日第 1
是否意味着 1
多做 1
缱绻 1
利益的 1
人以 1
一些建议 1
凯恩 1
▁A 1
硫 1
留学生 1
扪 1
测量的 1
维生素 1
布的 1
恐怖分子 1
── 1
莽 1
到底是怎么回事 1
住在这里 1
床位 1
迟缓 1
▁曼 1
昱 1
尤为突出 1
有效 1
诓匏 1
超群 1
频 1
手部 1
技术与 1
访问时 1
座城市 1
▁这一点 1
▁非 1
外伤 1
加速度 1
发展迅速 1
锥 1
190 1
圈子里 1
朝一日 1
创下了 1
▁获得 1
仍未 1
▁第八 1
也受到了 1
▁安娜 1
可能对 1
殇殇 1
所造成 1
遗漏 1
豆浆 1
将不 1
全球变暖 1
信任的 1
日用 1
买了一些 1
心理学家 1
普遍认为 1
指南 1
来改善 1
的目标是 1
▁布朗 1
▁究竟 1
和科学 1
失血 1
下拉 1
和木 1
非常满意 1
已经死了 1
荷兰 1
和痛苦 1
畦 1
聚合 1
平均每年 1
▁粗 1
▁直至 1
片面 1
▁答 1
在一些 1
据点 1
▁爱德华 1
橱 1
半时 1
▁您没有 1
的一支 1
不正确 1
ach 1
火炬手 1
首次亮相 1
的培养 1
旨在 1
que 1
凝血 1
椋 1
乏力 1
英语的 1
发誓要 1
输球 1
星际 1
▁青岛 1
你愿意 1
孩子们在 1
柏树 1
油漆 1
天前 1
所载 1
形式的 1
两项 1
有网友 1
预设 1
朝阳区 1
的人数 1
▁巴黎 1
福利院 1
民主的 1
未婚夫 1
在接受 1
一体 1
融合了 1
巫师 1
垃圾食品 1
追溯 1
金融 1
腹痛 1
黧 1
二者 1
冲击力 1
的积极 1
大大降低 1
日早上 1
弹射 1
开个 1
名目 1
发掘 1
雾水 1
亓 1
傷 1
▁电影 1
将如何 1
不断扩大 1
很明显 1
市委 1
专一 1
杂货 1
定理 1
化装 1
七大 1
其妙 1
侵害 1
大英 1
▁而作为 1
儿童医院 1
福祉 1
墓穴 1
主导 1
轻微的 1
对孩子 1
知名 1
他最 1
第四个 1
惩 1
艺术家的 1
牟 1
先生说 1
支流 1
很方便 1
却难以 1
捕获 1
击退 1
啁啾 1
特工 1
创始人 1
中海 1
生活用品 1
适当的时候 1
数码相机 1
沙皇 1
染料 1
理由相信 1
青铜 1
奖金 1
▁请问 1
已有的 1
兽医 1
▁他被 1
任职期间 1
删除 1
改良 1
队长的 1
蟾 1
不紊 1
神童 1
来赢得 1
木制 1
保时捷 1
▁她从 1
的是在 1
体系的 1
的三个 1
弥尔顿 1
郄 1
▁店 1
大部分的 1
则表示 1
比那些 1
▁奈 1
磨碎 1
毫无意义的 1
犯规 1
正向 1
舞厅 1
工作是 1
红斑 1
在所有 1
近似 1
规章 1
夫人的 1
▁低 1
的程度 1
开销 1
建立在 1
嗣 1
低迷 1
在某些 1
娣 1
女排 1
技术和 1
咎 1
内侧 1
塌陷 1
两天的 1
省级 1
万众 1
派出 1
图中 1
被遗忘 1
高血压 1
闻讯 1
系的 1
即为 1
璄 1
是古 1
零时 1
出发前 1
所以在 1
交换了 1
和教育 1
离世 1
挺进 1
剖 1
酒后 1
▁一块 1
龙眼 1
都会被 1
像这样的 1
充电 1
交流的 1
俨 1
圆顶 1
工资和 1
跟鞋 1
▁没关系 1
的建设 1
消灭了 1
万次 1
,13 1
羊羔 1
踉 1
挫伤 1
等级的 1
的人将 1
的政治家 1
得多的 1
▁共 1
邮局 1
根治 1
恩爱 1
专业知识 1
乌鲁木齐 1
吉米 1
偏心 1
莅 1
塬 1
比较多 1
庇护所 1
五花八 1
▁中医 1
新建 1
▁维 1
▁国内外 1
嗷 1
▁意思是 1
▁鲜花 1
还有待 1
土耳其 1
逑 1
▁Q 1
酒泉 1
乔布斯 1
心肠 1
怂 1
失地 1
▁of 1
液中 1
我们还没有 1
面值 1
幾 1
罗杰 1
▁大力 1
将与 1
▁他称 1
的合作 1
还必须 1
救火 1
囫鞯 1
应该从 1
我的上帝 1
河谷 1
基督徒 1
▁大量的 1
寄生虫 1
空心 1
规定的 1
是否具有 1
尤其在 1
巴斯 1
制动 1
▁在过去的 1
臆 1
暴露出来 1
2700 1
糟糕了 1
腿部 1
为目标 1
后不久 1
经验和 1
相关的 1
算子 1
藐 1
墨子 1
语法 1
块金牌 1
并结合 1
遭受的 1
震荡 1
出了一种 1
,24 1
痊愈 1
,45 1
已经达到了 1
嘉宾 1
自己的方式 1
中存在 1
之急 1
年被 1
课题 1
提到的 1
人员和 1
邀请我 1
苘 1
玑 1
▁彩色 1
和管理 1
录像 1
雒 1
显然是 1
功底 1
▁14 1
他问 1
将全部 1
▁当事 1
本应 1
华侨 1
种类的 1
“7 1
會 1
中国队以 1
模型上 1
2400 1
的新闻 1
和最 1
飙 1
戴在 1
鼔 1
督导 1
设计了 1
商城 1
肝脏 1
逻辑 1
是看 1
由于受 1
站点的 1
浓厚的兴趣 1
私下 1
▁他因 1
等地 1
还发现 1
娩 1
万余元 1
栲 1
现在有 1
▁手术 1
之苦 1
是一致的 1
理化 1
102 1
晳 1
炮制 1
的最新 1
到达时 1
天桥 1
我们所有人 1
颁发 1
加起来 1
苦战 1
影院 1
▁那个人 1
心血管 1
和伊 1
不减 1
证明自己 1
继续进行 1
文艺复兴 1
ky 1
▁我能 1
百科 1
求和 1
不可分 1
性格开朗 1
粤 1
单刀 1
长寿 1
探访 1
机在 1
属的 1
▁可能会 1
和执行 1
存有 1
▁二氧化 1
乳胶 1
专用 1
舰队 1
时间比 1
胡椒 1
彩画 1
在这方面的 1
萤火 1
▁面向 1
相称 1
高架桥 1
亲眼目睹 1
不会因 1
15000 1
cm 1
自夸 1
激进 1
为维护 1
蓋 1
而逃 1
纺纱 1
松下 1
医药 1
1:1 1
短期内 1
事件中 1
人意料 1
排水 1
党组织 1
地租 1
办案 1
叛徒 1
闲置 1
▁在今天 1
乙肝 1
1949 1
人满 1
陛 1
另一名 1
商贸 1
三分球 1
良机 1
星球上 1
35 1
裆 1
我们很高兴 1
鉴 1
广州市 1
低俗 1
我的儿子 1
德和 1
喳 1
茯 1
了婚 1
山县 1
西方国家 1
您会 1
魅力和 1
你好吗 1
布局 1
押韵 1
钉在 1
已经非常 1
报酬 1
酒的 1
指认 1
搭载 1
看球 1
▁周二 1
水道 1
使他成为 1
前提 1
特点是 1
装备的 1
▁大众 1
▁7 1
梗 1
上下文 1
花时间 1
叙利亚 1
的范围 1
较早 1
低温 1
张力 1
木地板 1
防灾 1
在圣 1
各省 1
郞郞 1
旱情 1
", 1
▁斯 1
▁近几年 1
的医疗 1
渤海 1
辆汽车 1
阪 1
的第一人 1
▁我们通过 1
投影仪 1
屈指可 1
时左右 1
延长到 1
杂粮 1
他只是在 1
松散 1
周日 1
时说 1
建构 1
的电子 1
引以为傲 1
获救 1
烧毁 1
de 1
ank 1
否则会 1
洗衣机 1
跻身 1
独立和 1
的利益 1
中国足球 1
的数据 1
直指 1
帷 1
荿 1
的贡献 1
▁13 1
不会改变 1
简短的 1
纺 1
香肠 1
▁尾 1
▁已 1
褥 1
原料 1
宣示 1
王妃 1
在线 1
之最 1
www 1
影片中 1
蕙 1
▁他知道 1
治安 1
融合在一起 1
茶水 1
并将 1
的艺术 1
即可 1
▁同一 1
▁开放 1
搭建 1
▁把握 1
相当大的 1
一分为二 1
徒劳的 1
控制住 1
的交易 1
地位的 1
冶炼 1
嘚 1
▁他所 1
此举 1
离场 1
频繁 1
出土 1
四国 1
濮 1
身体不适 1
唧唧唧唧 1
的人民币 1
紧迫 1
▁他以 1
德文 1
社会服务 1
▁各国 1
基础上 1
一变 1
青光 1
小威 1
的经济发展 1
失踪了 1
▁靠 1
到来之前 1
一车 1
道远 1
为了提高 1
对他们来说 1
诶诶 1
与他们的 1
厝 1
照相 1
军民 1
他让 1
分布的 1
已经与 1
蛋白质 1
皮尔 1
取向 1
借此 1
▁没有人知道 1
占用 1
强烈反对 1
美术馆 1
可为 1
尾随 1
祥地 1
我们相信 1
副驾驶 1
不相同 1
过程是 1
应将 1
陮 1
领先的 1
段的 1
在短短 1
后与 1
还多 1
就能够 1
究 1
难治 1
瞭 1
的物质 1
编队 1
指骨 1
能够将 1
而不能 1
我们希望 1
弹道导弹 1
海口 1
党派 1
打算在 1
珠海 1
深潜 1
蛰 1
所说的那样 1
充分地 1
脚垫 1
络绎不绝 1
它不能 1
开支 1
最终在 1
策划 1
▁4. 1
蛛 1
揰 1
下夜 1
▁黑龙江省 1
能提高 1
如何才能 1
沷 1
▁照 1
对这一 1
显得有点 1
▁正因如此 1
社会和 1
形成和 1
卧床 1
海马 1
穆里奇 1
逖 1
潾潾 1
为三 1
相联系 1
的定义 1
变老 1
中与 1
▁前者 1
▁猎 1
Com 1
直到他 1
自闭症 1
时报 1
▁M 1
可持续发展 1
从其 1
就曾 1
人性化的 1
DNA 1
无论是在 1
把衣服 1
可以同时 1
爽口 1
两性 1
此人 1
GS 1
觞 1
贷款 1
的乘客 1
空间的 1
关键的 1
愚蠢的 1
在明年 1
编剧 1
的手续 1
如果您 1
百货 1
我仍然 1
枪口 1
将为 1
ich 1
级和 1
燕山 1
梦想家 1
约为 1
纫 1
代步 1
并不仅仅 1
建立起 1
二十四 1
籽粒 1
三维 1
然后将其 1
非常重要的 1
起作用 1
168 1
的影响下 1
的研究中 1
篇文章中 1
、8 1
将从 1
废弃的 1
大革命 1
看到他们 1
似是而非 1
你可以看到 1
有色 1
洞察力 1
噫 1
耐克 1
▁镜头 1
的主意 1
长篇 1
执事 1
天窗 1
突围 1
面包和 1
帐篷里 1
数据表明 1
第一条 1
方法来 1
探测 1
面前展现 1
首歌曲 1
分钟的时间 1
分队 1
在宁波 1
建军 1
等都 1
是实现 1
▁I 1
这样的情况下 1
同步 1
泗 1
犟 1
长三角 1
▁空间 1
的工业 1
出入 1
▁作为一个 1
蛟 1
通宵 1
▁永 1
仪的 1
计算机 1
演奏者 1
有超过 1
论的 1
的严重 1
镇中心 1
洋娃娃 1
圣徒 1
法国的 1
既不是 1
也可以从 1
爆出 1
绫 1
与否 1
明示 1
大胆地 1
撰文 1
出轨 1
受到影响 1
目的在于 1
猩猩 1
盆地 1
音响 1
冗长的 1
▁洪 1
高出 1
渤 1
之后在 1
采取 1
给出的 1
同心 1
菲尔 1
现实主义 1
它必须 1
共用 1
告诉过你 1
南县 1
先发制 1
同时又 1
用途 1
本人也 1
势必 1
在农村 1
这样说道 1
公车 1
罗夫 1
倭 1
▁第三步 1
是同一 1
▁油 1
很有信心 1
桓 1
曾担任 1
钿 1
积极开展 1
的好坏 1
内部的 1
遗体 1
胚胎 1
适得其反 1
但其中 1
总成绩 1
却步 1
前在 1
部分地区 1
免疫 1
外部环境 1
铝合金 1
糜烂 1
收银 1
最大限度的 1
很少见 1
可以像 1
成为现实 1
▁很明显 1
▁但由于 1
准妈妈 1
它是在 1
是相互 1
开发与 1
性或 1
变暖 1
所有这些 1
开往 1
的英国 1
旅游城市 1
遮光 1
椎 1
早日 1
优质 1
极好的 1
海洋生物 1
生活习惯 1
较上 1
的一致 1
单元 1
主义和 1
相应的 1
非常明显 1
的舌头 1
心智 1
制裁 1
▁2012 1
之前完成 1
红柿 1
补水 1
▁当然可以 1
患病 1
帜 1
检测仪 1
是不可能 1
高尔夫球场 1
的家中 1
万只 1
愤世嫉俗 1
去工作 1
了一间 1
将再次 1
涪 1
在危机 1
抢劫 1
需要多长时间 1
▁它不仅 1
花生油 1
润滑 1
最低的 1
幛 1
亮相 1
会在这里 1
收入和 1
▁而对于 1
印度 1
分泌 1
做爱 1
包装盒 1
建议将 1
的长度 1
分钟内 1
危及 1
被对手 1
▁从某种意义 1
皇家 1
平原上 1
信息中心 1
326 1
▁象 1
年美国 1
湖南省 1
▁拍 1
▁海南 1
林业 1
磆 1
的一小部分 1
不满意 1
断断 1
羞耻 1
▁长安 1
▁仅仅 1
援手 1
可以产生 1
▁几年后 1
估 1
缓解了 1
还向 1
入住 1
哚 1
较少 1
一贯 1
生活和工作 1
粪便 1
陷入困境 1
但是现在 1
的一群 1
那里去 1
隔离 1
癸 1
外交 1
涂料 1
是本 1
讹 1
的统治 1
有四个 1
便于 1
▁蒙 1
安顿 1
创业者 1
出征 1
1/2 1
本可以 1
02 1
▁总结了 1
刊登 1
文化程度 1
尼采 1
碳 1
或没有 1
PP 1
的美女 1
▁格 1
你们都 1
腰带 1
复古 1
国务院 1
▁蛇 1
硝 1
家庭和 1
高素质 1
敕 1
亚历 1
东路 1
重复使用 1
还专门 1
这似乎 1
度假 1
上到下 1
联想到 1
网络游戏 1
▁无法 1
扬言 1
▁克 1
不受影响 1
谈过 1
独居 1
▁更多 1
多小时 1
▁乍 1
▁邓 1
老妇人 1
队伍中 1
私自 1
我很好 1
记录了 1
最有效的 1
的改革 1
糯米 1
低估 1
阐述 1
的标准 1
今天在 1
的邀请 1
刘晓 1
诤 1
跌落 1
瀛 1
要他 1
履历 1
本营 1
十分复杂 1
满足感 1
固有 1
打个电话 1
过程的 1
些时候 1
和陈 1
材料的 1
▁活动 1
的工人 1
种植的 1
截断 1
长线 1
微乎其 1
其他人的 1
如此巨大的 1
▁李明 1
▁在开始 1
括 1
现存 1
og 1
是去年 1
找到他 1
宁夏 1
到西 1
丹麦 1
糟糕的 1
虹口 1
而与 1
一倍 1
格雷 1
为新 1
泳衣 1
完成后 1
他为什么 1
▁喜 1
些东西 1
如图 1
美国政府 1
▁由于是 1
球迷们 1
-, 1
预赛 1
不遗余力 1
已获得 1
却并不 1
OK 1
我们不需要 1
男友 1
军事化 1
奎 1
▁不难 1
参战 1
司空 1
娱乐活动 1
战斗力 1
献策 1
坳 1
和实现 1
艺术家 1
而引起 1
多重 1
紧密的 1
沙拉 1
▁这名 1
卞 1
▁鞋 1
溺水 1
希特勒 1
抢走 1
无故 1
ly 1
篝火 1
不在少数 1
▁当我的 1
他都会 1
成瘾 1
41 1
期望的 1
进行调查 1
医疗费用 1
很年轻 1
篮球队 1
分别在 1
丹阳 1
新闻发言人 1
1500 1
偶然的 1
方向盘 1
河南省 1
转为 1
会获得 1
豢 1
洗个 1
的材料 1
搬运 1
用车 1
单打 1
▁估计 1
紧致 1
咸水 1
这个决定 1
客人的 1
敬请 1
国防部 1
棕榈 1
尼苏达 1
保护自己 1
事业的 1
的特色 1
晶石 1
师范大学 1
与父母 1
习近平 1
论述 1
伊拉克 1
怛 1
照片中 1
一起度过 1
带队 1
年开始 1
▁人体 1
荏 1
麦当劳 1
升学 1
都将被 1
▁以及 1
不能确定 1
北部湾 1
并可 1
还有其他 1
请勿 1
者对 1
排名第一 1
清点 1
之列 1
命中 1
添加剂 1
▁房子 1
砰地 1
对所有 1
占到 1
半径 1
令人毛骨悚 1
机构 1
所的 1
岨 1
违反了 1
提出的 1
红绿灯 1
之用 1
▁科 1
他几乎 1
很快将 1
位置的 1
骗取 1
不甚 1
浦东 1
必须去 1
慷 1
托付 1
阴阳 1
他家 1
雅典奥运会 1
存储在 1
是其中 1
体制 1
分发 1
表明了 1
东海 1
墉 1
补丁 1
三家 1
者中 1
伤人 1
▁袁 1
这使得 1
德林 1
较重的 1
来研究 1
板和 1
并接受 1
全面的 1
在工业 1
培养学生 1
▁45 1
中餐 1
锦标 1
▁直接 1
昰 1
魔咒 1
演戏 1
职工 1
中国已经 1
令人讨厌 1
得厉害 1
红山 1
它既 1
今晨 1
他们开始 1
名称的 1
才可 1
斯说 1
▁从一开始 1
▁超 1
低于 1
都令人 1
▁这是他 1
被逼 1
原告 1
从这个 1
演讲中 1
反问 1
的生产 1
生活费 1
而这种 1
吴家 1
▁昆明 1
尤其 1
P 1
擦肩 1
阻塞 1
希望以 1
▁点 1
立交桥 1
就是他的 1
可由 1
树种 1
真正意义上的 1
门人 1
搅动 1
错失 1
萨拉 1
两年的 1
▁他有 1
表达自己的 1
再生的 1
扮演着 1
、9 1
迫使 1
双峰 1
的好消息 1
政权 1
足够大 1
▁您好 1
猗 1
雷击 1
另一次 1
两小时 1
的危害 1
油门 1
咝咝 1
俸 1
今年夏天 1
凰 1
里德 1
的重要组成部分 1
每间 1
与公司 1
禁令 1
的本质 1
绦 1
日上午 1
阵容 1
工作的人 1
莱特 1
▁通过与 1
喷水 1
蹊 1
蓝球 1
公约 1
推迟 1
阿里 1
的平均 1
但是对于 1
这样的情况 1
▁小麦 1
▁凭 1
枳 1
蝎子 1
扩展到 1
不超过 1
现在应该 1
一个月前 1
拍卖会 1
四次 1
旗手 1
不育 1
音速 1
献血 1
转移到 1
蹙罥 1
▁前日 1
溜冰鞋 1
保护的 1
制度的 1
▁得 1
寻求新的 1
相助 1
拖曳 1
碱 1
书面 1
海参 1
屈指可数 1
变形 1
要约 1
莒 1
“3 1
茏茏 1
度为 1
显像 1
沉重打击 1
将至 1
米兰 1
撤离 1
执照 1
但对 1
移出 1
大部 1
得到认可 1
三级 1
联谊 1
以及对 1
案件的 1
LV 1
沙河 1
貎 1
海外的 1
▁中国的 1
讯 1
手头 1
▁亚当 1
埃克 1
之前先 1
卡住 1
仅凭 1
▁注 1
歧途 1
支票 1
璀 1
座椅 1
王国的 1
琮 1
并能 1
中锋 1
科学发展 1
矗 1
留学 1
确认 1
打网球 1
包装纸 1
年我国 1
曲调 1
休闲娱乐 1
可借 1
有条件 1
主权和 1
ne 1
环境保护 1
情报 1
基督 1
启用 1
跹 1
入伍 1
都应 1
尽早 1
衲 1
咹 1
布莱尔 1
补贴 1
成本 1
主办方 1
可能会有 1
装潢 1
调解 1
塑胶 1
受害 1
似乎对 1
瓷砖 1
态度的 1
会受到 1
心病 1
衙 1
羙 1
瘀 1
▁复 1
73 1
喷射 1
什麽 1
网页 1
科长 1
有一家 1
锅炉 1
越来越好 1
克林顿 1
4) 1
我不认为 1
乘务员 1
噌噌 1
的丈夫 1
情形 1
▁E 1
攻防 1
弟兄 1
哣 1
请他 1
生姜 1
的最低 1
确实在 1
约一 1
▁出于 1
桷 1
资源丰富 1
▁现在他 1
三峡 1
背光 1
遗憾的是 1
可能还会 1
就无法 1
▁公平 1
▁敬请 1
的原因之一 1
肝癌 1
颁布 1
合肥 1
▁当一个 1
Pr 1
采用了 1
被烧 1
中将 1
彩票 1
缈 1
▁得知 1
饯 1
且有 1
站点 1
直落 1
为目的 1
金星 1
在全世界 1
比上 1
▁同时也 1
我的兄弟 1
并请 1
壳的 1
的好方法 1
后门 1
700 1
和学生 1
零件 1
位于中国 1
▁很难 1
应用的 1
骃 1
提拔 1
服用 1
环形 1
数以千 1
抑郁 1
杀虫 1
见到的 1
抓好 1
渡轮 1
推卸 1
投入的 1
全新 1
停滞不前 1
家附近 1
▁劳 1
您的身体 1
长假 1
债务 1
900 1
绯闻 1
肺部 1
之间的差距 1
编号 1
一个世纪 1
铝 1
惊奇的是 1
周口 1
▁女王 1
广告的 1
▁总体来说 1
民政 1
他经常 1
作呕 1
是第一 1
旗下 1
强强 1
曷 1
和罗 1
▁但是她 1
车身 1
水牛 1
党政 1
杞 1
政策和 1
里程碑 1
埃尔 1
婴儿的 1
假冒 1
这个时代 1
篮板 1
您应该 1
缝了 1
核心的 1
的飞行 1
帮扶 1
的北京 1
海港 1
防洪 1
悬疑 1
电器 1
牧羊人 1
▁几十年来 1
然后才 1
▁铁路 1
并没有得到 1
普罗 1
各地的 1
媒体采访 1
美学 1
排空 1
一族 1
▁值得 1
▁护士 1
缪 1
罗伯 1
廉政 1
天河 1
的言论 1
开展的 1
隶 1
时间进行 1
莅临 1
正被 1
六次 1
公文包 1
国力 1
作用是 1
的服装 1
▁类似的 1
动感 1
感染的 1
的不幸 1
预告 1
随时间 1
高官 1
▁最高 1
漏洞 1
咩 1
末尾 1
革新 1
运动和 1
叱咤 1
获益 1
六大 1
▁费 1
▁负责 1
故意伤害 1
▁他的父亲 1
的遗体 1
▁惟 1
全套 1
可能是一个 1
专科学校 1
ohu 1
▁菜 1
的全球 1
填上 1
研制 1
在当时 1
强悍 1
市区 1
地利 1
▁奥运会 1
有各种 1
之都 1
大脑的 1
有很好的 1
特种 1
就不会有 1
国际社会 1
护肤 1
没有问题 1
的一点是 1
认定的 1
敖 1
欷 1
的重要原因 1
剖腹 1
信的 1
蜥蜴 1
审查 1
行道 1
襦 1
电池 1
村子里 1
双鞋 1
鬟 1
思考一下 1
他向 1
相机的 1
他的朋友们 1
胃肠 1
简历 1
吉姆 1
令人信服 1
谦卑 1
灾害 1
众所周知 1
通行 1
日为 1
事发 1
谒 1
它们被 1
战友 1
▁究 1
导体 1
点符号 1
陕 1
所面临的 1
很多钱 1
率是 1
沙袋 1
了一批 1
北部 1
▁但是它 1
以前在 1
第二阶段 1
奥利 1
失踪 1
中的所有 1
颦颦 1
的理论 1
普降 1
胫 1
幔 1
透射 1
现代化的 1
克拉克 1
豚 1
推出了 1
结构的 1
的重要因素 1
中脱颖而出 1
海域 1
▁房间 1
别于 1
格利 1
插座 1
真的很想 1
本地 1
与这些 1
起始 1
鏖 1
▁倪 1
奥运金牌 1
并作 1
阳明 1
的全部 1
真人 1
罗斯 1
潮汐 1
政客 1
时应该 1
介绍说 1
职员 1
▁2007 1
屈从于 1
事实是 1
车厢内 1
这种事情 1
或一个 1
同伙 1
这样做的 1
四种 1
作息 1
▁蜜蜂 1
尚存 1
两类 1
此次 1
荻 1
等多 1
彻斯特 1
实践证明 1
年轻人的 1
的热潮 1
以备 1
还与 1
犹太 1
停机 1
西县 1
而易 1
在夏季 1
阿凡 1
篁篁 1
踤 1
盂 1
蒙特 1
毒性 1
等多种 1
一式 1
较快 1
到美国 1
追捕 1
▁记住 1
低胸 1
主持了 1
小玉 1
一份工作 1
制品 1
的盐 1
共生 1
不具 1
瓤 1
希望通过 1
营养价值 1
珺 1
颅 1
一记 1
很不舒服 1
气动 1
都是一样的 1
在首都 1
▁钢 1
发挥着 1
▁公 1
巳 1
我敢肯定 1
以内 1
-6 1
红星 1
匹配 1
特别重视 1
愚弄 1
金华 1
进行交流 1
im 1
顶住 1
:6 1
增进 1
总比分 1
楼盘 1
独钟 1
依法治 1
直到我们 1
的奥运 1
我国的 1
▁辽宁 1
萨 1
遏制 1
多媒体 1
联网 1
篆 1
很多不同的 1
公里的 1
在有 1
技术问题 1
交响 1
琥 1
有人要 1
互不 1
92 1
麝 1
此地 1
128 1
盈利 1
摊主 1
车库 1
铛 1
还以 1
油田 1
打捞 1
一空 1
环境污染 1
洱 1
的伊 1
▁养 1
佃 1
灰尘和 1
忠诚的 1
辛辣 1
撞倒 1
打下了 1
他们的名字 1
的反思 1
多样的 1
疾呼 1
的生存 1
门锁 1
对他们说 1
均为 1
之争 1
游艇 1
慢性 1
将向 1
你的朋友 1
大惊小怪 1
峨眉山 1
▁她喜欢 1
粉碎 1
子怡 1
苿 1
杂种 1
ol 1
受人尊敬 1
果香 1
一直是一个 1
浙 1
▁家人 1
相当高 1
粉尘 1
首席执行官 1
外墙 1
图上 1
一个晚上 1
发电机 1
仅剩 1
直接关系到 1
化和 1
配以 1
载的 1
原因的 1
更加美好的 1
坩埚 1
▁巴 1
过的痕迹 1
英国文学 1
着火了 1
目睹了 1
▁司机 1
攻入 1
综合素质 1
不够好 1
错觉 1
的资源 1
学员 1
耕种 1
这样想 1
概 1
▁纳 1
▁素 1
德华 1
节水 1
的限制 1
信息的 1
渭 1
仅在 1
借阅 1
理论和 1
改善了 1
并于 1
评分 1
证据证明 1
笳 1
坏死 1
自治县 1
▁尹 1
贻 1
年第 1
很冷 1
较好的 1
影响的 1
夫妻俩 1
得出的 1
体格 1
食欲 1
人大代表 1
的两倍 1
攀岩 1
送货 1
水生 1
在冬季 1
陛下 1
竽 1
▁他们也 1
多处 1
警卫 1
情欲 1
所致 1
黑龙江省 1
▁生态 1
举报 1
岿 1
杀死了 1
脾胃 1
定下 1
机和 1
如何看待 1
R 1
狩猎 1
为题 1
剪贴 1
尼娜 1
随着时间的 1
饮食 1
一男子 1
济于事 1
经验丰富的 1
通气 1
空间上 1
的领域 1
三部 1
克洛 1
); 1
一直有 1
相吻合 1
柏拉图 1
多分钟 1
還 1
峒 1
中国青年 1
▁我们不会 1
▁类似 1
要加强 1
可供 1
冰淇 1
销售 1
播放了 1
的首要 1
▁在这种 1
▁对我们 1
面积的 1
某人的 1
62 1
的领导 1
将这个 1
陪您 1
人的生活 1
党委 1
贷 1
冰上 1
年代初 1
平台上 1
淘宝 1
,30 1
中可以 1
环境下 1
瘢 1
忽悠 1
正在等待 1
离地面 1
枕头 1
可以增强 1
忡 1
江宁 1
▁杨利伟 1
刊物 1
我们可能 1
下注 1
租房 1
打了电话 1
咖啡厅 1
绺 1
你可能会 1
就医 1
救护 1
每分钟 1
归根结底 1
的必然 1
领导人的 1
民谣 1
▁在您 1
83 1
开了一家 1
的一贯 1
与马 1
条件和 1
展厅 1
You 1
的公司 1
西斯 1
啾啾 1
罗伊 1
拷贝 1
共产主义 1
菲尔普斯 1
还为时 1
集镇 1
育儿 1
▁期间 1
被动 1
所指 1
礼拜 1
在大多数 1
稍显 1
后能 1
新闻报道 1
激烈的竞争 1
接触到 1
音乐人 1
回国 1
燃油 1
团长 1
辘辘 1
殴 1
载入 1
自此 1
车辆的 1
比亚 1
自驾游 1
射手 1
▁浅 1
口径 1
▁这就意味着 1
组中 1
头等 1
▁他曾经 1
无异于 1
把它放 1
穰 1
210 1
亿万富翁 1
了新的 1
我们的工作 1
阻碍了 1
在一定 1
这已经是 1
节段 1
置疑 1
步进 1
的一代 1
一帮 1
▁游客 1
▁利 1
发生冲突 1
新兵 1
两盘 1
培养学生的 1
胡说 1
仍要 1
食用油 1
后跟 1
的现状 1
意义上的 1
显然没有 1
无限期 1
长的时间 1
簏 1
木乃伊 1
▁阮 1
每月 1
制度和 1
规则的 1
▁中国人 1
感到羞耻 1
▁证明 1
被罚 1
散热 1
几天内 1
和女人 1
▁赞 1
头号 1
这份工作 1
牒 1
针织 1
此类 1
▁范 1
麻布 1
1/3 1
刷新了 1
此外 1
至上 1
▁尽管这些 1
的一处 1
的特别 1
时已 1
盗贼 1
最难 1
这些问题 1
解决好 1
一个真正的 1
无线电 1
驭 1
寥寥 1
双胞胎 1
洗净 1
晋级 1
突然之间 1
▁您应该 1
稀释 1
延误 1
惠及 1
日起 1
设有 1
预知 1
屈曲 1
希尔 1
班次 1
经济的 1
那之后 1
跛 1
的礼物 1
微型 1
入的 1
主席说 1
长队 1
缝纫 1
▁彼得 1
拚 1
耳目一新 1
撒了 1
泳池 1
瞠 1
召开的 1
就可以在 1
头枕 1
故事的 1
(1)( 1
精细 1
鸠 1
设计的 1
闭塞 1
起色 1
曾有 1
娈 1
速度与 1
监控 1
是最佳 1
因此被 1
批发 1
海平面 1
簪瑱 1
的连接 1
椭圆形 1
方说 1
炀 1
除此之外 1
的主要 1
平方米的 1
体面 1
衷心 1
▁多年来 1
過 1
热能 1
其后 1
它的人 1
脸谱 1
▁同样的 1
能力强 1
嗫嚅 1
烦人的 1
兼任 1
▁如果您 1
令人窒息 1
欻 1
▁而当 1
琚 1
这件 1
了很多钱 1
湖南 1
▁现在让我们 1
几名 1
咂咂 1
裂纹 1
扎克 1
▁约 1
三部曲 1
是国家 1
偏头痛 1
酢 1
丕 1
洵 1
个别 1
▁激光 1
义卖 1
收取 1
系列 1
▁几年前 1
副会长 1
兼具 1
器官的 1
毫无用处 1
负面的 1
严峻的 1
不详 1
和服务 1
李国 1
,9 1
而无法 1
眴 1
品种的 1
保存在 1
叽叽叽 1
年北京奥运会 1
原因是 1
调查了 1
早期的 1
解释一下 1
涉及 1
大米 1
役 1
第十八 1
要再 1
会与 1
的吸收 1
的诊断 1
有所提升 1
和支持 1
越龙 1
的计算 1
样式 1
限度的 1
鲍 1
舛 1
," 1
分析和 1
青岛 1
减半 1
就都 1
直接将 1
制作了 1
垂死 1
的鞋 1
次于 1
扑灭 1
前列 1
》: 1
高效 1
推行 1
一种方式 1
工作和 1
过去时 1
辛勤工作 1
晾晒 1
到过 1
▁道路 1
循环的 1
捣毁 1
来解释 1
来增加 1
防范 1
酸奶 1
诱发 1
深远的 1
纸箱 1
联想 1
劳动者的 1
插图 1
后排 1
系统的 1
耽 1
和身体 1
生产的 1
降低了 1
先生们 1
有人认为 1
你甚至 1
棋盘 1
奚 1
▁找 1
未来将 1
址 1
的流动 1
▁我们使用 1
诫 1
这太 1
的新兴 1
6.3 1
是比较 1
压下 1
相适应 1
▁300 1
将对 1
▁得到 1
沌 1
为辅 1
开发的 1
配套 1
111 1
食物和 1
的袭击 1
粒子的 1
约会 1
祺 1
在设计 1
▁/ 1
▁从这个意义 1
一小时 1
▁丹 1
不可或缺的一部分 1
市级 1
拆开 1
加利 1
广岛 1
的矛盾 1
大问题 1
检测和 1
猛烈地 1
新任 1
的市场 1
▁他们说 1
范围之内 1
枥 1
葛根 1
迪斯科 1
等各种 1
制造了 1
推理 1
之为 1
银行的 1
重温 1
减压 1
渐近 1
在家庭 1
贿 1
标语 1
则从 1
养殖 1
文书 1
潋滟 1
好工作 1
叽 1
中的任何 1
到今天 1
突击 1
▁涂 1
固定在 1
没有自己的 1
处死 1
霉菌 1
要我 1
航空航天 1
表示感谢 1
归纳 1
唇膏 1
饴 1
篪 1
烯 1
建造了 1
良多 1
目标的 1
狎 1
的人或 1
-2 1
骨骼 1
加拿大 1
之间的竞争 1
科夫 1
表的 1
也比较 1
▁广 1
饨 1
的审美 1
▁b 1
不菲 1
的建议 1
蛎 1
在不同的 1
济宁 1
的美国 1
抜 1
嗤嗤 1
同等 1
对个人 1
十分困难 1
超音速 1
大大提高了 1
▁历 1
抓捕 1
嗵 1
积累的 1
锅中 1
各州 1
人行 1
发送 1
情绪激动 1
推荐的 1
遥感 1
的公告 1
首相 1
打下 1
是个好 1
保养 1
蹶 1
切尔 1
复出 1
很难找到 1
和电视 1
比较高 1
莉亚 1
两市 1
幻灯片 1
碱性 1
低碳 1
钛合金 1
,2005 1
小梁 1
表达方式 1
才能为 1
判定 1
的普通 1
鼹 1
▁一个小 1
时要 1
打开的 1
细胞瘤 1
中国和 1
阻力 1
赃 1
咖啡馆 1
知识经济 1
火如荼 1
五人 1
从何 1
▁这种做法 1
创办的 1
套装 1
的和平 1
通话 1
结合在一起 1
必须是 1
續 1
陈词 1
诱导 1
中小学 1
副校长 1
观察到 1
1987 1
极有可能 1
安全地 1
的朋友们 1
成员们 1
采访时说 1
管家 1
所需要 1
需求量 1
履行 1
当地的 1
器物 1
厦门大学 1
扐 1
的注意 1
▁丈夫 1
尼奥 1
女士在 1
贵州 1
秘诀 1
的流行 1
市场竞争 1
在拉 1
缝合 1
出狱 1
江口 1
节能 1
必要的 1
戒烟 1
ib 1
补救 1
、30 1
不仅需要 1
增加到 1
拥护 1
用餐 1
一概 1
▁恩 1
的日本 1
氟 1
停留了 1
没有发生 1
132 1
[ 1
您正在 1
平说 1
骚扰 1
和国际 1
岷 1
低估了 1
可以得到 1
鸿沟 1
可能就 1
服务器 1
蒸汽 1
et 1
被烧毁 1
园长 1
的节目 1
热度 1
作为中国 1
守门 1
他继续 1
卡的 1
颁奖典礼 1
之所在 1
中国正在 1
存量 1
洙 1
进一步提高 1
发热 1
怆 1
Tom 1
硎 1
我很高兴 1
打分 1
菲利 1
发霉 1
▁这台 1
资助 1
增多 1
瑞拉 1
民心 1
艾滋 1
得更多 1
将拥有 1
院士 1
状体 1
您不会 1
立方米 1
刊 1
相结合的 1
减免 1
时间长 1
柒 1
国有 1
?, 1
都是不 1
为基 1
尽致 1
半场 1
极易 1
胶囊 1
地图上 1
提上 1
▁种 1
强加 1
医护 1
日就 1
中部 1
他们想 1
不加 1
统统 1
着他们的 1
的条件下 1
:21 1
最大化 1
梅尔 1
询问了 1
他决定 1
昏迷 1
火力 1
诽 1
办法是 1
成倍 1
接任 1
提取 1
世界之 1
比大 1
学界 1
汽车上 1
而变化 1
碣 1
竺 1
管理制度 1
品的 1
游戏规则 1
咆 1
严密 1
▁尽管我们 1
▁有没有 1
消防 1
▁1997 1
荧屏 1
苏拉 1
碳酸 1
以赴 1
警方 1
的话说 1
卷的 1
黑人 1
▁雅 1
追溯到 1
以下的 1
固态 1
▁你能告诉我 1
或其他 1
烫伤 1
那他 1
更希望 1
▁商 1
潜伏 1
其原因 1
一臂 1
上方的 1
威廉 1
▁h 1
等国 1
我的确 1
ER 1
镁 1
并获得 1
鹬 1
{ 1
这个行业 1
还珠格格 1
都是以 1
▁联 1
公共安全 1
和后 1
帝国的 1
出问题 1
将由 1
和知识 1
入侵 1
去往 1
不断提升 1
途经 1
▁避免 1
烈士陵园 1
器和 1
去看电影 1
沙龙 1
~~ 1
情感和 1
▁她会 1
溶解 1
金条 1
和信息 1
杰出的 1
崛起 1
为您 1
方法和 1
还是从 1
上周 1
对在 1
推出的 1
记下 1
这类 1
▁他想 1
学过 1
恶习 1
达赖 1
年将 1
要求的 1
器具 1
新方法 1
了一台 1
雷达 1
法庭上 1
系统会自动 1
國 1
密闭 1
乌克兰 1
莉娅 1
工作在 1
减慢 1
她必须 1
磁性 1
▁15 1
的水域 1
收紧 1
獭 1
中之 1
面对现实 1
▁碳 1
偷走了 1
ě 1
这个问题上 1
出名的 1
说他的 1
香港特别行政区 1
名单上 1
▁然后他 1
不可或缺的 1
的战斗 1
特质 1
这套 1
肉眼 1
遗书 1
外侧 1
残暴 1
无神论 1
检阅 1
并将其 1
隐秘 1
和牛 1
表皮 1
▁祥 1
毫不怀疑 1
拍卖 1
伊丽莎白 1
病人的 1
愋 1
就送 1
患者 1
尊重和 1
事关 1
半决赛 1
矍铄 1
仿古 1
这是为了 1
赴美 1
赞成 1
上流 1
并呼吁 1
备忘录 1
为母 1
的资料 1
自然资源 1
德拉 1
柑桔 1
智障 1
体裁 1
▁英语 1
细纹 1
相结合 1
.。 1
开采 1
▁! 1
日照 1
女士们 1
请先 1
失事 1
施加的 1
店面 1
给孩子们 1
大林 1
和食品 1
垩 1
膺 1
分析与 1
手无 1
可能被 1
一个月的 1
▁不再 1
屠杀 1
呿 1
方式来 1
ive 1
▁岩石 1
▁他从 1
还要看 1
校方 1
通用 1
昆山 1
à 1
他们很 1
用以 1
研究生 1
尽最大 1
攻略 1
进城 1
瑗 1
叱咄 1
任重 1
测试中 1
紧急情况 1
没人在 1
通过各种 1
地解释 1
廿 1
海尔 1
家庄 1
自控 1
他说道 1
的方式来 1
急救 1
过剩 1
天时 1
年起 1
嬿 1
但是如果 1
合肥市 1
提出新的 1
正从 1
浮力 1
达西 1
帮助的 1
衔接 1
往返 1
但是我认为 1
的结构 1
间接 1
阐释 1
到处都有 1
▁修 1
公安 1
雅典 1
公告 1
襞 1
分头 1
心悦 1
装甲 1
考虑过 1
1~ 1
ello 1
但已经 1
非常熟悉 1
纣 1
当选为 1
的性质 1
元素的 1
▁俄 1
生活方式 1
把椅子 1
都存在 1
不要说 1
过滤器 1
确立 1
话要说 1
:30, 1
数百 1
两张 1
荔 1
打进 1
▁尼 1
游说 1
展示了 1
霰 1
对日本 1
但因为 1
▁这些是 1
角度来看 1
奥林匹克 1
1/ 1
:9 1
乒乓 1
必不可少 1
影城 1
▁在过去 1
室温 1
征求意见 1
上映 1
相当的 1
者可以 1
▁前段时间 1
电流 1
更快地 1
的另一个 1
太原 1
第三轮 1
不感兴趣 1
徊 1
后备 1
可能非常 1
默哀 1
韧带 1
▁三大 1
贴心 1
邓肯 1
佗 1
泄露 1
联系上 1
多有 1
信箱 1
暴雨中 1
任何时间 1
四十八 1
尽量不要 1
较长 1
年的发展 1
的方针 1
无法控制 1
指引下 1
致力于 1
混血儿 1
适用于 1
洗掉 1
▁难怪 1
停放 1
坏主意 1
亲热 1
刚刚被 1
文化与 1
的日期 1
是世界上 1
先天性 1
侈 1
自力更 1
函数 1
专科 1
达尔 1
的明星 1
以适应 1
很好地 1
特有 1
前两个 1
仍有 1
▁当代 1
:00 1
很晚 1
降温 1
编码 1
▁玻璃 1
在电影 1
年后的 1
希腊的 1
突击队 1
拉链 1
雅阁 1
值班 1
没有必要 1
文物保护 1
无可挑剔 1
要大 1
还处于 1
环保局 1
其余的 1
倴 1
鸩 1
被认为 1
应该以 1
雪豹 1
▁在某些 1
馐 1
血性 1
多于 1
悻悻 1
外在 1
诊所 1
的主力 1
听到的 1
航道 1
东京 1
能静 1
只有当 1
促进了 1
慎重 1
首要 1
南京市 1
废弃物 1
倾心 1
生日聚会 1
意外地 1
濡 1
▁徒 1
脏话 1
▁中华人民共和国 1
4, 1
法西斯 1
诈骗 1
特大 1
克的 1
老实说 1
海洋和 1
机率 1
不只 1
随时随地 1
常在 1
常识 1
患有 1
另一种方式 1
肇事者 1
资格的 1
众所周知的 1
槃 1
不及待 1
损伤 1
岀 1
大家分享 1
写真 1
▁法 1
这需要 1
岗村 1
樊 1
应得的 1
可以提高 1
女主角 1
醺 1
感到难过 1
▁旧 1
不久的 1
临沂 1
高阶 1
丶 1
但以 1
浴室 1
的重要内容 1
转换为 1
划算 1
拥护者 1
▁必须 1
尚未完全 1
才干 1
硬度 1
翻天 1
糠 1
可能有点 1
报警 1
山地 1
镭 1
俟 1
:17 1
▁生活在 1
与前 1
本质的 1
预先 1
错误的 1
拍到 1
水解 1
服药 1
极好 1
董事 1
▁我们正在 1
博士学位 1
在任何地方 1
大关 1
孟加拉 1
根部 1
薪水 1
首创 1
零散 1
选用 1
七日 1
心理学 1
释放的 1
金花 1
赊 1
踺 1
而烦恼 1
仅需 1
测验 1
使学生 1
可观的 1
▁炎炎夏日 1
大业 1
"。 1
某处 1
食客 1
▁永远 1
不太好 1
商铺 1
蜊 1
在眉 1
两家 1
线路 1
丈夫的 1
漏斗 1
季度的 1
声名 1
程度的 1
专辑 1
都面临着 1
这样的事情 1
表达的 1
的一个问题 1
▁21 1
区内 1
海滨 1
就成为 1
的意识 1
但至少 1
建造的 1
是最大的 1
在南 1
超短 1
▁自动 1
做出了贡献 1
山车 1
▁此后 1
半年的 1
荀彧 1
木瓜 1
非议 1
诀窍 1
系列的 1
广为流传 1
的生活水平 1
不同的方式 1
岫 1
战舰 1
给与 1
最晚 1
世博会 1
的强烈 1
▁课程 1
交涉 1
做出贡献 1
将这一 1
▁4、 1
▁服务 1
了解到 1
起诉 1
进入状态 1
背书 1
▁藤 1
网游 1
拐卖 1
的翻译 1
167 1
▁安东 1
▁当晚 1
保健 1
能提供 1
85 1
试一下 1
蹋蹋 1
解除 1
剔除 1
用人 1
跑车 1
演变 1
破门 1
鬣 1
并不大 1
▁地图 1
在国内 1
已经越来越 1
M 1
祭坛 1
糙 1
最大限度地 1
潜力的 1
还有更多 1
鳛鳛 1
没啥 1
▁在此之前 1
石林 1
迈出的 1
沉没 1
王浩 1
好时机 1
墙体 1
克说 1
而得到 1
祯 1
辩护 1
成功和 1
腭 1
紧接 1
名义 1
充满热情 1
打起了 1
爱他的 1
自来 1
怏怏 1
关闭 1
▁S 1
反转 1
首长 1
和行动 1
他曾 1
无懈可击 1
意大利 1
摞 1
恹恹 1
贽 1
之间的区别 1
幸运的是 1
会带来 1
与各 1
蒿 1
是按照 1
抗洪 1
堡的 1
拍出 1
反馈 1
这个过程 1
,60 1
核定 1
证实的 1
各路 1
装在 1
天津市 1
推断 1
轻的 1
荨 1
更衣 1
婚宴 1
一枝独秀 1
石墙 1
铜牌 1
▁北京市 1
连任 1
▁电子 1
不明的 1
最少 1
口头 1
的最大的 1
关口 1
格言 1
CC 1
讳 1
坐姿 1
秩序的 1
TM 1
怪的 1
粉末 1
连接到 1
洛杉 1
开始向 1
贴上 1
为基础 1
奶瓶 1
雷诺 1
总冠军 1
都觉得 1
对环境 1
金属的 1
风向 1
前路 1
也是可以 1
负于 1
▁历经 1
激战 1
▁不幸的是 1
记者采访 1
时速 1
雇 1
相容 1
周期 1
小泽 1
两个星期 1
▁这其中 1
的专家 1
远足 1
战斗的 1
拉开帷幕 1
上所述 1
为单位 1
记号 1
击中了 1
阵营 1
这是真的 1
我在哪里 1
老年人的 1
的能源 1
区分 1
▁他和 1
涉及的 1
较弱 1
三十年 1
宣判 1
叶攀 1
中最重要的 1
通信 1
激怒 1
机构的 1
▁古代 1
等原因 1
碩 1
:12 1
铺平 1
被击 1
腹腔 1
意外的 1
高温天气 1
和其 1
充血 1
富裕的 1
匪夷所思 1
小轿车 1
这取决于 1
来治疗 1
该怎么做 1
▁展望 1
防晒霜 1
就餐 1
鬼魂 1
奖学金 1
修斯 1
来源 1
je 1
搪 1
的软件 1
▁读者 1
而受到 1
麻麻 1
她现在 1
出租 1
网友们 1
兑现 1
木雕 1
囫囵 1
曼德拉 1
萨姆 1
暂停了 1
有所了解 1
前期 1
他的朋友 1
永无止境 1
了来自 1
她与 1
心室 1
多花 1
▁他表示 1
有利 1
▁摄 1
务实 1
▁认为 1
出台 1
都在努力 1
隐喻 1
摄像机 1
大学和 1
丰县 1
谘獭 1
▁在经历了 1
▁成千上万 1
墙壁上 1
第二届 1
试图将 1
了有关 1
水坝 1
▁土 1
银行卡 1
这就是为什么 1
韩国 1
铁人三项 1
变量 1
她可以 1
贫困人口 1
情况是 1
乌塔 1
▁惠 1
的观点 1
简易 1
牛排 1
吮 1
请将 1
▁存在 1
游击队 1
重庆市 1
46 1
厄 1
我感到非常 1
解救 1
顔 1
▁关注 1
从轻 1
贩卖 1
计划中 1
附带 1
坨 1
孢 1
桂冠 1
嘭嘭嘭 1
蹼 1
▁针对 1
知名品牌 1
要成为 1
▁猜猜 1
拘捕 1
额外 1
窸窸窣窣 1
更有效 1
的高速 1
孕妇 1
约在 1
分钱 1
生育 1
一款 1
迤逦 1
350 1
法中 1
喝醉 1
运输机 1
瘴 1
食用 1
全球的 1
没有明显 1
▁老太太 1
東 1
其一 1
尼斯 1
霸权 1
uz 1
哏哏 1
片中 1
▁樊 1
笺 1
▁作为一名 1
终结 1
代为 1
猛击 1
到今年 1
的铜 1
刑罚 1
填报 1
即将于 1
▁多数 1
后部 1
费尽 1
的主要目标 1
伪劣 1
ā 1
这一过程 1
几个月里 1
拍摄 1
大便 1
科尔 1
补充 1
可行 1
▁他觉得 1
喜乐 1
黄疸 1
豸 1
领域中 1
批准 1
在各种 1
史密斯 1
不利于 1
雨后春笋 1
裁缝 1
的热烈 1
某一个 1
金陵 1
出击 1
消息的 1
程度上 1
归结为 1
还从 1
滢 1
技术等 1
个城市 1
九个 1
被抛弃 1
十岁的 1
不予 1
您现在 1
煮沸 1
讲道 1
了一倍 1
又可 1
这确实 1
是法国 1
音乐学院 1
桑拿 1
错综 1
打通 1
铎 1
得到了很好的 1
更让人 1
前排 1
生产力 1
啁啁啾啾 1
1.2 1
美好的一天 1
岩浆 1
充气 1
以及各 1
蠃 1
视窗 1
▁加 1
和与 1
中线 1
决策 1
三位一体 1
规划的 1
补品 1
幌子 1
在开始 1
是否真的 1
▁中国有 1
分组 1
中草药 1
他们所 1
出人意料 1
▁士兵们 1
表现不错 1
130 1
万有 1
发挥作用 1
and 1
月前 1
了一场比赛 1
粲 1
观察者 1
在不同 1
▁这是一部 1
祉 1
共建 1
您想 1
更了解 1
简称 1
▁没人 1
过程中的 1
▁滚 1
保鲜 1
揠 1
粮仓 1
经济的发展 1
几乎无法 1
业发展 1
忧心 1
掇 1
▁云南 1
争取在 1
101 1
▁Ch 1
一系列的 1
继续与 1
縻 1
将车 1
心理问题 1
年一 1
胜任 1
试飞 1
:35 1
彩排 1
构 1
第八届 1
▁为了防止 1
折扣 1
较大 1
坐标 1
萌发 1
痉挛 1
是北京 1
▁事实 1
磨损 1
赢下 1
用它来 1
随身携带 1
利昂 1
生说 1
辽宁 1
▁眼下 1
到中 1
东南亚 1
车间 1
郜 1
垃圾场 1
调味品 1
冠状 1
检察官 1
拥有者 1
缓冲 1
20. 1
ey 1
拉曼 1
党建 1
赶出去 1
建筑的 1
人可以 1
中发生 1
诸多 1
+1 1
踬 1
感到遗憾 1
所造成的 1
了一枚 1
az 1
隆重举行 1
和组织 1
▁在新 1
而未 1
za 1
狁 1
磨合 1
为全球 1
杰瑞 1
此前的 1
荇 1
货物的 1
公开 1
买主 1
的日 1
学区 1
当今世界 1
的成 1
要小 1
繁忙的 1
接手 1
高度的 1
加在一起 1
意中 1
在野 1
质地 1
发展中 1
筹备 1
▁姚 1
斯科特 1
阿尔卑斯 1
米左右 1
黑石 1
伤情 1
2.5 1
人丧生 1
对外开放 1
的因素 1
入选 1
进化的 1
信仰的 1
正是我 1
头球 1
重中之重 1
▁进一步 1
仍需 1
的阶段 1
人来说 1
农村妇女 1
人之一 1
今年已经 1
发展了 1
的生态 1
▁我怀疑 1
▁请不要 1
婚姻的 1
谋求 1
泰迪 1
经济发展的 1
▁第三章 1
没时间 1
酸化 1
必须在 1
不能成为 1
为中心的 1
打好 1
▁在最 1
可能会出现 1
男士 1
当红 1
登月 1
的粮食 1
▁无独有偶 1
▁从这里 1
都能够 1
▁西方 1
他们就会 1
三角形 1
割草 1
这起 1
精准 1
▁电视 1
高明 1
作曲 1
下岗 1
辅导班 1
方言 1
bl 1
他们就可以 1
生活的一部分 1
▁玛 1
▁房 1
厚度的 1
底气 1
像样的 1
自然科学 1
▁韦 1
▁二要 1
一期 1
路与 1
▁艾伦 1
并成为 1
双鱼 1
孵化 1
授粉 1
余个 1
悖 1
厕 1
▁操作 1
与高 1
里亚 1
道路的 1
74 1
相扑 1
市场的 1
▁车辆 1
oss 1
紫外线 1
夏普 1
药用 1
以保证 1
152 1
当其冲 1
就在这个 1
日从 1
出现时 1
驶入 1
进一步深化 1
▁柴 1
真实感 1
栅栏 1
无线 1
胆小鬼 1
着色 1
查到 1
沙尘 1
碳酸钙 1
▁但对于 1
滁 1
坚实的基础 1
创造条件 1
的威胁 1
步行街 1
驯鹿 1
编程 1
尽享 1
甜品 1
贝克 1
▁从而 1
880 1
紊乱 1
具备了 1
▁两个人 1
鹃 1
并且在 1
爱上了 1
暻 1
仂 1
▁这类 1
霁 1
正在迅速 1
▁喂 1
青少 1
运输 1
答题 1
▁四川 1
的尝试 1
后路 1
给钱 1
一目 1
潜移 1
基金会 1
com 1
学和 1
的迹象 1
▁注重 1
延续了 1
起见 1
偷偷摸摸 1
超强 1
三年内 1
▁实验 1
上的问题 1
楝 1
来检查 1
营地 1
要好 1
相似之处 1
兰多 1
亦然 1
台山 1
产业 1
是个问题 1
去掉 1
总结了 1
收益 1
叔本华 1
的重视 1
醉酒 1
奥运火炬 1
是第 1
脑血管 1
独占 1
的循环 1
失灵 1
和阿 1
也并非 1
边界的 1
中兴 1
跳伞 1
口角 1
冠军奖杯 1
来代替 1
子公司 1
可用 1
训练中 1
导管 1
▁在未来 1
在重庆 1
死亡人数 1
香菜 1
时装 1
才能得到 1
确诊为 1
人死亡 1
银川 1
大戏 1
点开始 1
综合性 1
还不算 1
起案件 1
错误地 1
物理学 1
转速 1
最合适 1
申请了 1
咨询 1
的不良 1
羲 1
王星 1
中得到了 1
而发生 1
up 1
演的 1
影响到 1
▁索 1
中担任 1
您的名字 1
南亚 1
火炮 1
靠谱 1
北部的 1
邻国 1
评论员 1
您知道 1
气流 1
丽娜 1
我们所有的 1
来获取 1
没有太多 1
都得到了 1
娱 1
科的 1
酡 1
冕 1
以外的 1
可回收 1
显微镜 1
表演者 1
从来都不是 1
之间有 1
芹 1
痰 1
日凌晨 1
▁时尚 1
需要一些 1
所占 1
羔羊 1
遭殃 1
几年内 1
告知 1
系数 1
思潮 1
令你 1
▁土地 1
沥青 1
并不需要 1
的恐惧 1
和责任 1
的方法和 1
方式是 1
红十字会 1
伧 1
上锁 1
残渣 1
盛行 1
作出的 1
暝 1
钮 1
这种想法 1
▁工厂 1
适当 1
要塞 1
时间点 1
住院治疗 1
但仍 1
自称是 1
与一个 1
没有任何关系 1
利用的 1
醍醐 1
蜂窝 1
的边界 1
车票 1
划分为 1
买卖 1
分心 1
他希望 1
控制好 1
感官 1
防空 1
东欧 1
茕茕孑 1
在太空 1
音调 1
矫正 1
手榴弹 1
在公共 1
诚意 1
钵 1
无权 1
动态的 1
选项 1
▁但从 1
群落 1
和同事 1
uc 1
綮 1
甥 1
相去甚远 1
白血病 1
引爆 1
特征 1
无成 1
琨 1
▁记者在 1
甘草 1
扩建 1
在政治 1
最高的是 1
舜 1
挑战的 1
蓬勃发展 1
的物理 1
可以控制 1
汽车站 1
杀害了 1
商丘 1
▁表示 1
我们想要 1
▁今年是 1
并被 1
199 1
成为我国 1
里卡 1
非常抱歉 1
资金 1
引发 1
集中营 1
章鱼 1
耐久 1
与时俱进 1
甬 1
降至 1
移植到 1
阿奇 1
多是 1
尼在 1
体检 1
并行 1
防水 1
仍会 1
谁是 1
▁60 1
心脏病发作 1
就绪 1
麓 1
行事 1
▁海洋 1
▁不过在 1
1800 1
通行的 1
队的比赛 1
因此在 1
▁安全 1
世界各地的 1
在这样的 1
▁隔 1
点在 1
森特 1
米高 1
的内在 1
的关注 1
数天 1
妮可 1
兰州 1
对各种 1
第四位 1
组建 1
四分之一 1
和有效的 1
无关的 1
其他方面 1
忙于 1
减灾 1
新房 1
杀了我 1
▁― 1
口市 1
act 1
▁这张 1
所以不要 1
问题和 1
主要由 1
鼓手 1
订正 1
共同点 1
茱 1
会面 1
▁10. 1
▁如果她 1
和绿色 1
达成一致 1
上盖 1
街头的 1
▁机 1
能通过 1
无处不在的 1
增多的 1
▁我了解 1
可达到 1
节约了 1
死掉 1
▁章 1
萡 1
非常失望 1
以人为本 1
飞抵 1
路过的 1
▁找到 1
杀戮 1
合格的 1
的死亡 1
▁在与 1
除去 1
不多了 1
的首 1
▁城镇 1
授权 1
尾部 1
▁老实说 1
露头角 1
嫖 1
05 1
克在 1
眼界 1
陪同 1
精明 1
微生物 1
▁不要让 1
佻 1
▁部分 1
▁高中 1
标准化 1
的合成 1
平民 1
---- 1
的恢复 1
出于对 1
是假 1
含泪 1
进军 1
▁这份 1
痨 1
圆锥 1
的人吗 1
实验中 1
曵 1
▁物质 1
▁抓 1
垫底 1
扣押 1
的综合 1
广泛应用 1
达成共识 1
瞿 1
蛋白 1
▁为什么要 1
已经从 1
年就 1
无害的 1
医师 1
菍 1
奖章 1
武警 1
旮窭鎏 1
赶来的 1
营业员 1
它只是 1
缴 1
吸引了不少 1
葆 1
维尼 1
所需的 1
夹克 1
造林 1
成对 1
掩埋 1
前线 1
光源 1
坚定不 1
第五次 1
买下 1
致使 1
裈 1
蛩 1
北上 1
▁我经常 1
没钱 1
色彩和 1
▁赤 1
所包围 1
会晤 1
亲和 1
花费了 1
化验 1
蜓 1
撰写 1
嶙嶙 1
▁桐 1
填埋 1
毒死 1
锯齿 1
底板 1
因为你们 1
是来自 1
堇 1
手术后 1
▁帮助 1
是否是 1
放射性 1
药品 1
别忘了 1
伴有 1
落水 1
▁人工 1
尝试了 1
但最终 1
腰围 1
的平台 1
可能出现 1
售 1
换乘 1
回放 1
相等 1
修女 1
定义的 1
旅行时 1
季前 1
命中率 1
在山东 1
前十 1
剖析 1
殺阡 1
arg 1
反过来 1
环球 1
的侵蚀 1
108 1
纹身 1
二阶 1
港口 1
方法可以 1
聶 1
控制自己的 1
▁吹 1
问问自己 1
具有良好 1
葶葶 1
家庭主妇 1
会话 1
狻猊獬豸 1
宜昌 1
板块 1
现在已 1
戏法 1
过失 1
如是说 1
弄湿 1
退化 1
▁今后 1
ron 1
DD 1
仔细阅读 1
贝尔 1
的事情是 1
又如何呢 1
的可行性 1
谡 1
89 1
收看 1
,40 1
邮箱 1
的手术 1
道义 1
扳回 1
▁它有 1
产生一种 1
任何地方 1
▁莉 1
不一致 1
啭 1
口中的 1
后续 1
浮游 1
参加奥运会 1
专门的 1
写实 1
▁在此期间 1
最富有 1
的模型 1
肘部 1
绉绉 1
抓住机会 1
侹 1
朋友一起 1
要对 1
牲畜 1
与水 1
轮比赛 1
失衡 1
问题与 1
地黄 1
的抗 1
螺钉 1
万家 1
资产阶级 1
上不 1
财务 1
成像 1
用完了 1
▁位于 1
点是 1
▁q 1
对策 1
以及他们 1
17. 1
伍德 1
职业道德 1
桀桀 1
您从 1
秦皇 1
苦难的 1
大洋 1
楹 1
法在 1
并不会 1
好坏 1
应用于 1
前例 1
眬 1
倡议 1
新高 1
名城 1
行径 1
讲述了 1
▁事实上 1
教学法 1
▁能够 1
俄罗斯 1
隘 1
撺 1
▁睡 1
牵涉 1
万变 1
一探 1
侦察 1
的内存 1
中投 1
制胜 1
操作 1
从根本上 1
▁可怜 1
有近 1
岐 1
谔 1
军舰 1
办公桌 1
鳖 1
亿日元 1
4. 1
高强度 1
TA 1
这一现象 1
经验丰富 1
飞行中 1
▁即便如此 1
宴会 1
罪犯 1
自治州 1
感到惊讶 1
是因为他们 1
制约 1
抄袭 1
投射 1
商讨 1
路费 1
鼠标 1
学生对 1
现身 1
已知 1
上被 1
▁福特 1
▁软 1
▁暴雨 1
比克 1
▁居 1
▁迪 1
神话中的 1
特定 1
足轻 1
事实证明 1
相的 1
是不可避免的 1
很多方面 1
:30 1
会将 1
1979 1
隔热 1
半小时后 1
可减少 1
给我们带来 1
中毒 1
2005 1
縫 1
自然灾害 1
是否为 1
的德国 1
▁您对 1
私立 1
纸板 1
所形成的 1
金水 1
随随便便 1
无意中 1
来水 1
恻 1
排名第 1
送至 1
▁遗憾的是 1
可以采用 1
谩 1
昕 1
▁请你 1
大减 1
团伙 1
未婚 1
寮 1
的时期 1
讲堂 1
沸沸扬扬 1
选取 1
进入决赛 1
可使 1
对此感到 1
盔 1
蔬 1
鱼和 1
天坛 1
可以找到 1
陈列 1
甚至能 1
护航 1
▁丰 1
相加 1
教程 1
那天晚上 1
者可 1
质子 1
年才 1
金门 1
不寻常的 1
和学校 1
阆 1
吸水 1
是唯一 1
被推 1
的安全 1
橙子 1
彩绘 1
▁他将 1
附加 1
门廊 1
督促 1
继续下去 1
芟 1
以免 1
纾 1
灏 1
性是 1
促成 1
光纤 1
▁纸 1
行李箱 1
推论 1
▁其余 1
或两个 1
的大陆 1
很不错 1
澎 1
剜 1
非法的 1
▁确定 1
我们不知道 1
会议室 1
盯住 1
:2 1
消耗了 1
百元 1
署名 1
拈 1
拟定 1
陈旧 1
和马 1
淖 1
仅能 1
书和 1
世锦赛 1
分级 1
可能在 1
璎珞 1
▁这部 1
▁席 1
那麽 1
均衡 1
▁马克思 1
癔 1
准备进行 1
做起来 1
管道 1
还是非常 1
作品的 1
惨败 1
买点 1
▁色 1
桶水 1
货物 1
捎 1
必须把 1
麦片 1
▁英 1
位于北京 1
体育锻炼 1
芴 1
对它们 1
在同一 1
是经 1
他的想法 1
造成伤害 1
接受它 1
重点放在 1
兑换 1
出道 1
预期寿命 1
▁他只 1
鸷 1
女权 1
本草 1
两部分 1
在任何时候 1
在内的 1
▁如果不 1
辛格 1
都来自 1
瘁 1
的人口 1
领先于 1
一个被 1
▁这使 1
楼内 1
本身的 1
开始与 1
营业 1
密切相关 1
进行到 1
辩论中 1
▁法律 1
转换成 1
呷 1
设定 1
的困扰 1
积累了 1
连串 1
的人都知道 1
AA 1
玩转 1
生长和 1
算盘 1
溲溲 1
om 1
谋生 1
和影响 1
情绪的 1
生子 1
▁有很多 1
捆绑 1
有利于 1
衣架 1
早期 1
考古 1
比原来 1
唏哩 1
四名 1
虽有 1
祝您 1
晤 1
言论 1
该做什么 1
主机 1
犯下 1
巨额 1
▁德国 1
碛 1
科比 1
浮雕 1
笄 1
传播的 1
原则和 1
首脑 1
击剑 1
新加坡 1
提出来 1
组织和 1
相呼应 1
标识 1
宽松 1
风貌 1
牛津 1
大多数人 1
这个数字 1
材质 1
阿富汗 1
还将在 1
侮 1
▁无论如何 1
挺身 1
▁这样一来 1
明智的选择 1
的硬 1
跌跌 1
力争 1
车门 1
萧山 1
打来电话 1
747 1
已经完全 1
的成员 1
回升 1
社区的 1
等价 1
安全气囊 1
力于 1
传记 1
不久就 1
畈 1
年多 1
国际人权 1
给出 1
凸显 1
日傍晚 1
栓 1
网络上 1
担架 1
机翼 1
2002 1
深化 1
把我带到 1
有更多的 1
迹象 1
木材 1
我是否 1
不会出现 1
海南 1
龙舟 1
生命危险 1
鲕 1
切身利益 1
颛 1
一定程度上 1
掩护 1
但未 1
的时间来 1
储蓄 1
▁省 1
高职 1
博的 1
但是这种 1
爱国者 1
在室内 1
▁好的 1
拉姆 1
谣言 1
电影院 1
抽签 1
醇厚 1
有三种 1
烤鸭 1
他离开 1
体外 1
me 1
一语 1
甚少 1
含糊不清 1
营养物质 1
▁舒 1
何在 1
的产物 1
是必要的 1
硫磺 1
惨烈 1
你的声音 1
剧场 1
人道主义 1
球员们 1
▁两年前 1
拼图 1
▁为了使 1
荒谬的 1
宏伟的 1
问鼎 1
演艺 1
▁查 1
将其视为 1
羊水 1
日元 1
馒 1
不充分 1
近邻 1
项下 1
的国际 1
一样多 1
每况 1
窈 1
充足的 1
纳德 1
这些变化 1
而论 1
尽可能多 1
很适合 1
魃 1
才真正 1
高档 1
管理委员会 1
▁在一些 1
珅 1
点和 1
隼 1
▁本文 1
倒挂 1
农奴 1
高音 1
苏丹 1
▁萨 1
律法 1
▁因而 1
数据和 1
橾 1
箐婳 1
角球 1
▁片 1
我们有一个 1
警车 1
技术在 1
东道主 1
▁环境 1
▁坎 1
成为最 1
头衔 1
金香 1
的根源 1
科学家在 1
岁的张 1
竞技体育 1
保障 1
▁大学 1
留下深刻的印象 1
支援 1
鼙 1
为这些 1
▁提 1
优质的 1
吸毒者 1
mail 1
氅 1
亚历山大 1
▁在当今 1
发生的事情 1
盗窃 1
上的一个 1
黄素 1
▁也可 1
老城 1
旱灾 1
指挥官 1
误以为 1
的实际 1
采访时 1
何时开始 1
下肢 1
近日 1
很快就会 1
上显示 1
高居 1
上交 1
矞矞 1
移送 1
默许 1
前卫 1
二手 1
骆 1
人时 1
不规范 1
的讨论 1
噍 1
罗恩 1
用到 1
我们能够 1
量身 1
那是个 1
自己的问题 1
百分之百 1
响尾蛇 1
▁当前 1
手感 1
坯 1
的文件 1
绶 1
金龙 1
例行记者会上 1
从内部 1
一名男子 1
鼬 1
军团 1
髯 1
菀爚 1
巉 1
酸雨 1
只占 1
都将在 1
从而使 1
开关 1
他可能会 1
重新审视 1
这两位 1
用过 1
再次发生 1
发放 1
滋生 1
天水 1
灾情 1
举足轻重的 1
确实如此 1
矛头 1
加水 1
‖ 1
南半球 1
尊贵 1
俄 1
了一杯 1
老龄化 1
拭目以待 1
人遇难 1
和不足 1
掘 1
扰动 1
甘肃省 1
字号 1
分类 1
多方 1
电影的 1
边形 1
有明显的 1
妇产科 1
省钱 1
领头羊 1
压电 1
LG 1
▁尽管如此 1
液态 1
也于 1
暴力的 1
肠胃 1
螯 1
他的工作 1
翡 1
车顶 1
▁额 1
农场主 1
▁不可 1
四个部分 1
航空母舰 1
▁还有一些 1
各族 1
应急 1
它与 1
某些人 1
表态 1
组装 1
的特殊 1
派送 1
完全不同 1
信徒 1
的重点 1
合法 1
互信 1
姻 1
始发 1
转型 1
车厢 1
透支 1
中越 1
造纸 1
产业结构 1
▁完 1
▁唯一的 1
仪表 1
与英国 1
零点 1
才被 1
卤 1
冷门 1
60%, 1
囚犯 1
ion 1
大幅度的 1
▁这项 1
丙烯酸 1
直接影响 1
施工人员 1
这说明 1
蜉蝣 1
污染物 1
咝 1
才在 1
过期 1
助理 1
▁工人们 1
土地资源 1
灵通 1
▁警察 1
裸露的 1
开设了 1
驾驭 1
食物时 1
仅为 1
三聚氰胺 1
艰巨 1
小说中的 1
也是对 1
研制出 1
的后代 1
项目和 1
背部 1
来访的 1
食物的 1
了解一下 1
娱乐圈 1
蘑 1
这是你的 1
的一次性 1
区分开 1
的产品 1
卷入 1
发生什么 1
”) 1
▁坦 1
的旧 1
富足 1
可乘 1
为民 1
通常以 1
亲王 1
相近 1
的分析 1
难以接受 1
餐馆 1
人参 1
分辨 1
汵 1
馍馍 1
系统将 1
▁蒋 1
的外形 1
重要性 1
骡 1
缦 1
本来可以 1
罡 1
淞 1
低价 1
能帮助 1
综 1
湖地区 1
祚 1
▁(3) 1
今年初 1
道德规范 1
张继 1
推进器 1
福克 1
是国家的 1
矛盾的 1
抨击 1
缜 1
和地方 1
退后一步 1
水洗 1
叭 1
▁因 1
是其 1
钙 1
总管 1
all 1
这一消息 1
分为两个 1
太长 1
▁17 1
一提 1
精良 1
氛 1
乡镇 1
默认 1
自助 1
分光 1
兼容 1
接吻 1
糅 1
国家和 1
南希 1
头和 1
公升 1
岁高龄 1
削减 1
海滩上 1
善款 1
警犬 1
5/ 1
的其他 1
的讲话 1
就知道了 1
擦伤 1
建筑和 1
灌注 1
空间中 1
▁俄罗斯 1
产生的影响 1
罴 1
送进 1
国人 1
胳 1
改写 1
使用的 1
浜 1
地理位置 1
影视 1
我发现自己 1
ma 1
其他人一样 1
▁人民 1
藏獒 1
烊 1
丝网 1
碰巧 1
记者采访时 1
哞 1
一年来 1
直接把 1
使您的 1
的必要 1
却未 1
晕倒 1
并不存在 1
相关部门 1
色素 1
赈 1
好起来的 1
被淹 1
解决问题的 1
和目标 1
最早 1
噘 1
迅速发展 1
熔化 1
下台 1
随心 1
至少有 1
重挫 1
零钱 1
▁你有 1
帕特 1
称其为 1
yan 1
奇偶 1
喜出望 1
成立的 1
泊尔 1
他的儿子 1
暴君 1
萨克 1
假发 1
哈姆 1
▁飞机 1
真正地 1
据说是 1
美金 1
救生 1
我的钱 1
西蒙 1
的第一个 1
学英语 1
不设 1
利害关系 1
助推 1
区和 1
的发动机 1
安市 1
物质和 1
上个世纪 1
球赛 1
指定 1
▁我们想 1
▁满足 1
地铁 1
我们走吧 1
褒 1
根本没 1
屏风 1
专业人士 1
战后 1
苓 1
合成的 1
杀菌 1
年度的 1
在同 1
有希望 1
消化 1
进一步加强 1
彩电 1
▁而从 1
起源 1
世纪末 1
磬 1
石油 1
AAA 1
镏 1
自己的观点 1
除掉 1
金庸 1
不知道他 1
完全的 1
可读 1
丙 1
掤 1
有两种 1
重要地位 1
绑架 1
门打开 1
中间的 1
▁模糊 1
开裂 1
▁前不久 1
设立的 1
塞纳 1
朝向 1
▁耐 1
▁副 1
哺乳动物 1
并且没有 1
▁天津市 1
腩 1
下行的 1
似乎正在 1
球星 1
如此之快 1
皮肤和 1
毒害 1
陡峭的 1
▁一条 1
堙 1
羊绒 1
▁我猜 1
废弃 1
万立方米 1
酶 1
闸 1
飓风 1
部分是 1
博会 1
捐给 1
美国总统 1
压力时 1
剧本 1
显示出了 1
脓 1
到中国 1
切成小块 1
发生的一切 1
和本 1
致死 1
这个国家的 1
过程和 1
电台 1
波罗 1
曲线的 1
深度的 1
也很重要 1
▁报告 1
而产生的 1
的任何 1
业者 1
全面建设 1
MS 1
(1 1
课程的 1
余热 1
参加工作 1
他们的孩子 1
马来 1
无烟 1
方差 1
收音机 1
将受到 1
的生活方式 1
切割 1
机会的 1
短语 1
球衣 1
充分考虑 1
▁生物 1
转折 1
之源 1
顾名思义 1
星期的 1
不习惯 1
不改变 1
领养 1
恶作 1
排出 1
▁X 1
不可分割 1
心有余 1
建设和 1
越冬 1
阮 1
胶片 1
它看起来 1
感兴趣的 1
排泄物 1
运载火箭 1
抢救无效 1
售票处 1
的有力 1
带出 1
▁京 1
联系起来 1
▁东京 1
我们无法 1
远比 1
辽宁省 1
先行 1
视网膜 1
▁那就 1
声像 1
毁掉 1
阐明 1
比去年 1
航母 1
要建立 1
而不用 1
竣工 1
剪切 1
因子的 1
伪 1
往年 1
▁消息 1
晚些时候 1
节省 1
确定为 1
转变成 1
有耐心 1
的支持下 1
克莱 1
壤 1
这就像 1
枹 1
轻重 1
、2 1
二氧化 1
形状和 1
目标是 1
可能发生的 1
木工 1
利用率 1
帮他们 1
令人吃惊 1
arty 1
▁吕 1
▁阴 1
纯正 1
▁艺术 1
能够为 1
崴 1
强力 1
准确的 1
无铅 1
是否存在 1
书屋 1
睐 1
街坊 1
和使用 1
今天早上 1
蒸气 1
教练的 1
让很多 1
还就 1
那地方 1
水下 1
出生时 1
经营的 1
经济和社会 1
岁到 1
可与 1
的解释 1
共赢 1
师范 1
技巧和 1
习惯于 1
印发 1
过快 1
供应 1
定位 1
▁笔者 1
安达 1
在东 1
列火车 1
煤层 1
的有效途径 1
所未 1
力克 1
门户 1
论文 1
居于 1
脱衣 1
请注意 1
ood 1
终极 1
租金 1
喷火 1
产于 1
部门 1
远非 1
货轮 1
邁 1
递增 1
的区别 1
诩 1
铄 1
他们与 1
逾 1
他仍然 1
书写的 1
炸死 1
的意见 1
等服务 1
极强 1
处分 1
总面积 1
▁当下 1
一半的 1
光顾 1
解的 1
媲 1
madeupword0000 0
madeupword0001 0
madeupword0002 0
madeupword0003 0
madeupword0004 0
madeupword0005 0
madeupword0006 0
